<pad>	0
<unk>	0
<s>	0
</s>	0
▁the	-2.95048
,	-3.09888
.	-3.32141
▁and	-3.75032
▁of	-3.94773
▁to	-4.05219
▁is	-4.361
▁"	-4.36206
s	-4.39564
▁in	-4.40096
▁"""	-4.46997
▁a	-4.53609
."	-4.57207
."""	-4.7659
▁that	-4.80294
▁on	-4.92272
▁I	-4.97961
:	-5.03738
▁this	-5.13652
▁are	-5.21097
▁for	-5.23441
▁be	-5.24619
▁we	-5.25226
▁you	-5.27731
▁	-5.28949
▁will	-5.32589
▁it	-5.39377
ing	-5.40764
▁with	-5.40882
▁have	-5.46093
▁as	-5.46747
▁not	-5.47533
▁he	-5.50093
▁all	-5.62313
And	-5.64446
-	-5.69102
▁him	-5.69861
▁which	-5.72823
▁unto	-5.74393
▁can	-5.74881
▁by	-5.7553
▁from	-5.77295
;	-5.8273
▁them	-5.85377
▁us	-5.85812
ed	-5.87327
▁The	-5.88748
l	-5.88795
▁they	-5.89737
'	-5.90867
▁see	-6.01103
▁was	-6.0646
▁at	-6.08176
▁or	-6.08508
▁his	-6.13301
▁shal	-6.1626
▁your	-6.18053
▁ye	-6.22684
▁We	-6.23538
▁one	-6.24401
▁who	-6.26522
▁also	-6.26723
▁click	-6.28929
▁God	-6.29794
▁me	-6.30971
"""	-6.31891
▁an	-6.32674
▁Let	-6.36886
▁tutorial	-6.37282
▁when	-6.38178
d	-6.39886
?	-6.40496
▁type	-6.41015
▁here	-6.41716
▁our	-6.44181
▁but	-6.44248
▁has	-6.46671
▁This	-6.47603
▁said	-6.48584
▁do	-6.49735
e	-6.521
▁You	-6.56048
▁into	-6.56072
▁file	-6.56568
▁there	-6.57251
t	-6.6071
▁let	-6.62572
Now	-6.62796
▁now	-6.63488
In	-6.6404
For	-6.64833
▁if	-6.65733
▁man	-6.67612
▁should	-6.68303
▁up	-6.70038
▁And	-6.71183
’	-6.72357
▁out	-6.72638
▁were	-6.72969
)	-6.73737
▁'	-6.7384
▁(	-6.75123
▁name	-6.76847
▁come	-6.77056
▁two	-6.7713
▁Jesus	-6.77597
▁my	-6.7877
▁Now	-6.78878
▁these	-6.7916
▁their	-6.81041
▁It	-6.82084
▁Click	-6.83469
▁go	-6.84422
▁then	-6.84955
▁using	-6.85758
ly	-6.8577
▁select	-6.87128
▁about	-6.87237
▁things	-6.87474
▁thou	-6.87658
▁Lord	-6.88014
▁had	-6.88955
▁A	-6.89445
▁how	-6.89658
▁any	-6.90129
▁more	-6.90392
▁space	-6.90397
▁right	-6.92958
▁so	-6.94278
▁get	-6.95933
▁no	-6.98114
So	-6.98508
But	-6.99722
▁other	-7.0049
"	-7.00576
▁what	-7.01807
▁some	-7.02113
▁may	-7.03155
▁new	-7.0492
▁first	-7.06653
▁body	-7.07379
▁use	-7.07567
To	-7.08628
▁like	-7.08873
▁back	-7.09966
The	-7.10477
▁press	-7.10537
▁page	-7.10693
▁One	-7.11082
▁image	-7.13234
▁called	-7.15137
en	-7.15304
▁Enter	-7.15528
▁same	-7.16922
▁down	-7.17073
a	-7.17204
▁know	-7.17515
▁am	-7.18526
▁button	-7.19717
▁say	-7.20699
▁hath	-7.21237
m	-7.21564
▁because	-7.23057
▁came	-7.2326
▁In	-7.24206
▁through	-7.24386
▁left	-7.24572
▁before	-7.24582
▁many	-7.24967
▁used	-7.25386
▁Christ	-7.27655
▁time	-7.28416
▁learn	-7.29722
▁command	-7.30166
al	-7.3037
▁good	-7.3254
▁make	-7.32942
▁Boy	-7.33424
▁after	-7.33955
▁number	-7.35222
▁want	-7.3535
▁both	-7.36206
▁-	-7.3658
▁method	-7.37295
▁create	-7.37379
▁only	-7.37606
▁option	-7.37806
▁He	-7.37806
▁again	-7.37882
y	-7.38075
▁give	-7.38897
▁line	-7.39261
▁class	-7.39468
,"""	-7.39528
▁day	-7.39866
▁change	-7.40898
?"""	-7.41238
If	-7.41992
Then	-7.44073
▁Tutorial	-7.44583
▁S	-7.45176
▁made	-7.46195
▁displays	-7.46593
▁saying	-7.46823
▁where	-7.46991
▁water	-7.47109
▁So	-7.47479
eth	-7.47755
I	-7.47925
▁thee	-7.48276
▁than	-7.48714
▁text	-7.48801
▁way	-7.48838
r	-7.4896
▁dot	-7.50795
▁add	-7.51601
er	-7.51726
▁another	-7.52119
▁thy	-7.52465
▁Spoken	-7.52555
▁“	-7.53448
▁window	-7.53514
▁men	-7.53904
▁link	-7.5398
▁great	-7.54736
▁output	-7.54815
h	-7.5502
c	-7.55197
▁box	-7.56628
▁whom	-7.573
▁her	-7.58334
▁those	-7.58445
▁field	-7.58705
▁set	-7.59163
▁different	-7.59642
▁people	-7.59879
▁layer	-7.61859
▁look	-7.6228
▁value	-7.626
▁part	-7.62861
,"	-7.62975
▁spoken	-7.64009
th	-7.64222
▁must	-7.64561
▁tool	-7.65201
▁went	-7.65348
▁For	-7.65554
▁world	-7.66947
▁details	-7.67038
▁What	-7.67199
▁Then	-7.67213
▁own	-7.67542
▁every	-7.67652
▁Here	-7.67775
in	-7.68108
▁C	-7.68878
▁done	-7.69019
▁open	-7.69019
▁please	-7.6904
▁word	-7.69555
o	-7.6972
▁To	-7.70215
▁write	-7.7024
▁etc	-7.70825
▁These	-7.71177
▁code	-7.72985
▁even	-7.73214
/	-7.73913
▁end	-7.74178
▁program	-7.74505
▁bring	-7.75775
▁menu	-7.75878
▁following	-7.76267
▁""	-7.76797
▁2	-7.77563
▁within	-7.77964
▁while	-7.78111
▁hand	-7.7827
n	-7.78287
▁earth	-7.78626
st	-7.78656
▁available	-7.79202
▁life	-7.79503
▁next	-7.79505
▁take	-7.79648
▁food	-7.79774
▁given	-7.79847
▁If	-7.80591
▁side	-7.80716
▁need	-7.81847
▁Go	-7.82145
▁without	-7.8288
▁over	-7.82921
▁saith	-7.83069
▁Father	-7.83988
es	-7.83995
▁hands	-7.8404
▁enter	-7.84173
▁work	-7.84362
▁There	-7.84582
se	-7.85364
▁would	-7.85499
▁keep	-7.85513
▁default	-7.85541
▁place	-7.85714
▁upon	-7.86254
▁tab	-7.86419
▁project	-7.8647
▁such	-7.86786
▁variable	-7.86835
▁start	-7.87003
▁user	-7.87044
▁therefore	-7.87106
▁check	-7.87449
▁being	-7.87557
▁Save	-7.87772
▁together	-7.88376
▁Type	-7.88532
”	-7.88753
▁means	-7.88844
▁s	-7.8886
▁top	-7.89195
This	-7.90132
▁eyes	-7.90692
▁under	-7.90941
▁heard	-7.91391
▁B	-7.91871
▁created	-7.91907
very	-7.92062
▁They	-7.92435
▁put	-7.9257
▁between	-7.92627
A	-7.92909
▁did	-7.92929
▁heaven	-7.93997
Here	-7.94488
▁bottom	-7.94639
▁system	-7.9481
▁example	-7.94835
▁‘	-7.95329
▁form	-7.95921
▁three	-7.96009
As	-7.97261
1	-7.9755
▁love	-7.97942
▁1	-7.98079
▁equal	-7.98555
▁saw	-7.98787
▁might	-7.99106
▁drop	-7.99142
▁away	-7.99594
▁options	-7.99625
▁terminal	-8.00248
▁information	-8.00284
▁disciples	-8.00399
▁house	-8.00477
▁power	-8.00498
▁shown	-8.00635
▁plants	-8.00669
▁list	-8.00854
▁Son	-8.00916
▁dialog	-8.01697
▁files	-8.01717
▁son	-8.01717
▁each	-8.02809
▁against	-8.03254
i	-8.03313
▁faith	-8.03485
▁mind	-8.03566
▁bar	-8.03573
▁•	-8.04089
▁opens	-8.04508
When	-8.04543
▁colour	-8.04671
▁i	-8.04771
▁function	-8.04842
▁among	-8.05048
▁Linux	-8.05422
▁practice	-8.05562
u	-8.05972
▁print	-8.06087
on	-8.06313
▁save	-8.06402
▁But	-8.06493
g	-8.06778
▁head	-8.07306
▁Press	-8.07353
▁move	-8.07903
▁found	-8.08441
▁knowledge	-8.08522
It	-8.09828
▁object	-8.099
▁statement	-8.10067
▁course	-8.10071
▁himself	-8.10083
▁learnt	-8.10386
▁icon	-8.10467
▁version	-8.11283
p	-8.11309
▁think	-8.12012
▁law	-8.1205
▁Ubuntu	-8.1212
▁Select	-8.12511
▁speak	-8.13185
▁sent	-8.13324
:"	-8.134
▁values	-8.14095
▁written	-8.1414
▁help	-8.14254
▁already	-8.14972
▁directory	-8.14979
▁main	-8.15
▁Add	-8.15039
S	-8.15066
▁record	-8.15114
(	-8.15144
▁That	-8.15201
We	-8.16154
2	-8.16574
Next	-8.1658
""	-8.16612
▁3	-8.16759
▁close	-8.16926
▁words	-8.16956
▁just	-8.1708
▁array	-8.17152
▁above	-8.17959
▁she	-8.18312
▁book	-8.18926
▁helps	-8.19202
▁brethren	-8.19238
▁color	-8.19296
▁second	-8.1933
▁children	-8.19675
▁pass	-8.19891
_	-8.20106
▁double	-8.20115
▁having	-8.20562
▁eat	-8.20587
▁assignment	-8.20657
▁answered	-8.20704
▁gives	-8.21707
▁Ctrl	-8.21898
▁D	-8.22084
▁days	-8.22395
▁light	-8.22408
or	-8.22444
▁Koha	-8.22797
▁inside	-8.2303
▁seen	-8.23619
▁Moodle	-8.23702
▁run	-8.23854
▁dead	-8.24151
▁does	-8.24201
▁known	-8.24287
est	-8.24334
▁its	-8.24532
▁point	-8.24587
▁process	-8.25156
▁selected	-8.25272
Let	-8.25497
▁choose	-8.25943
▁displayed	-8.26208
ion	-8.26365
▁1.	-8.26402
▁whole	-8.26553
▁much	-8.26996
▁section	-8.27135
▁sequence	-8.27135
▁rest	-8.27455
▁P	-8.27792
▁data	-8.27896
▁forth	-8.28123
▁important	-8.28362
B	-8.28843
▁tutorials	-8.2931
▁kingdom	-8.29314
▁took	-8.29447
▁Welcome	-8.29857
▁appears	-8.29902
down	-8.30725
▁error	-8.31034
▁well	-8.31048
▁small	-8.31668
▁India	-8.31718
▁slash	-8.31811
▁yet	-8.31865
▁breathing	-8.31955
After	-8.32242
▁cast	-8.32244
▁brackets	-8.32923
▁thing	-8.3312
▁find	-8.33188
▁System	-8.33254
▁able	-8.33292
▁show	-8.33332
▁message	-8.33545
▁neither	-8.33748
▁cannot	-8.33776
▁white	-8.33791
▁browser	-8.34262
▁glory	-8.35271
▁Java	-8.35288
▁works	-8.35882
b	-8.35969
▁folder	-8.36116
▁File	-8.36137
▁various	-8.36299
▁little	-8.363
▁receive	-8.36455
▁loop	-8.36637
▁How	-8.36909
▁ground	-8.37356
▁Library	-8.37872
▁b	-8.38067
▁named	-8.38192
▁city	-8.38395
▁home	-8.38461
▁feet	-8.38923
▁quotes	-8.39068
▁Project	-8.39296
▁web	-8.3946
▁bit	-8.3949
ic	-8.39725
▁position	-8.39854
▁lesson	-8.39855
▁brought	-8.40522
▁gave	-8.40549
▁constructor	-8.40924
▁hear	-8.41161
▁un	-8.41566
▁single	-8.41623
f	-8.41678
▁certain	-8.42159
▁Next	-8.42251
▁mother	-8.42576
▁objects	-8.42729
▁Yoga	-8.42736
▁heart	-8.42751
He	-8.42861
▁Jews	-8.42915
as	-8.43113
▁execute	-8.43145
▁follow	-8.43149
▁eye	-8.4315
▁read	-8.43152
▁variables	-8.43165
▁Who	-8.43464
()	-8.43649
▁case	-8.44291
▁search	-8.4448
▁four	-8.44887
▁password	-8.4493
▁fire	-8.44931
▁Firefox	-8.44963
▁changes	-8.44967
▁All	-8.45107
ness	-8.45205
▁condition	-8.45351
▁2.	-8.45429
▁blood	-8.45508
ther	-8.45959
▁key	-8.46002
▁call	-8.46415
▁website	-8.46548
▁+	-8.46724
▁lines	-8.46731
▁string	-8.47864
▁fields	-8.48418
▁n	-8.48807
On	-8.48898
▁switch	-8.48956
▁around	-8.49542
▁5	-8.49633
▁return	-8.49866
to	-8.49896
k	-8.49953
▁voice	-8.50092
▁student	-8.50117
▁truth	-8.50133
ar	-8.50452
▁last	-8.50621
▁Please	-8.50814
▁Do	-8.50967
▁prompt	-8.51044
soever	-8.51208
▁selection	-8.51522
▁Krishna	-8.519
▁summarize	-8.5193
▁brother	-8.5193
▁saved	-8.52205
▁behold	-8.52553
▁long	-8.53137
▁semicolon	-8.53148
▁try	-8.53151
▁according	-8.53695
▁death	-8.53759
▁basic	-8.53767
▁evil	-8.5377
▁question	-8.53795
▁display	-8.54126
▁nothing	-8.54383
""."	-8.54434
▁Create	-8.54448
▁Rama	-8.54628
ce	-8.54832
▁temple	-8.54998
▁true	-8.54998
▁nature	-8.55005
▁added	-8.55163
▁believe	-8.55373
▁As	-8.55456
▁Jerusalem	-8.55623
▁10	-8.55795
▁legs	-8.55846
▁most	-8.56219
▁peace	-8.56244
▁Peter	-8.56278
▁nor	-8.56518
▁T	-8.56548
T	-8.56972
▁received	-8.5713
▁O	-8.57323
▁earlier	-8.57521
▁below	-8.57522
▁F	-8.57697
▁hast	-8.57749
and	-8.58043
▁Those	-8.58203
▁awk	-8.58274
▁shows	-8.58429
▁Student	-8.58848
▁0	-8.59156
!	-8.59424
▁Paul	-8.59511
▁3.	-8.59762
▁art	-8.59949
hyphen	-8.60111
▁note	-8.60177
▁block	-8.60233
▁understand	-8.60255
▁spake	-8.60768
▁less	-8.60997
▁comes	-8.61052
▁table	-8.611
▁4	-8.61172
▁area	-8.61196
▁live	-8.6159
▁present	-8.618
▁draw	-8.6195
▁flesh	-8.62097
▁could	-8.62098
▁Notice	-8.6221
ation	-8.62414
▁download	-8.62491
▁per	-8.62492
▁sea	-8.62753
▁structure	-8.62895
▁test	-8.62955
▁don	-8.63039
▁palms	-8.63114
▁spirit	-8.63345
org	-8.6367
3	-8.63775
ya	-8.63781
▁music	-8.64125
▁control	-8.6413
▁black	-8.6413
▁living	-8.64167
▁tree	-8.64287
▁size	-8.64316
▁M	-8.6525
able	-8.65362
▁Spirit	-8.65499
▁order	-8.6569
ve	-8.65831
▁five	-8.66202
▁path	-8.66374
▁required	-8.66945
▁date	-8.66945
▁father	-8.67085
▁full	-8.67536
▁Child	-8.67602
▁delete	-8.68145
▁entered	-8.68245
▁John	-8.6833
▁New	-8.68389
▁elements	-8.68865
▁pull	-8.69021
▁Change	-8.69048
You	-8.69183
▁interface	-8.69211
▁types	-8.69239
▁input	-8.69794
▁muscles	-8.69859
▁Name	-8.6986
▁IDE	-8.69894
▁leave	-8.69929
▁cause	-8.6998
▁cometh	-8.70081
▁re	-8.70182
▁sin	-8.70228
▁become	-8.70738
tutorial	-8.70873
▁mouth	-8.71194
▁few	-8.71195
▁taken	-8.71297
?"	-8.71731
▁Eclipse	-8.7195
▁video	-8.72168
▁fruit	-8.72227
▁toward	-8.72265
C	-8.72288
▁c	-8.72339
▁watch	-8.72612
▁off	-8.72979
the	-8.73069
▁Indian	-8.73504
▁always	-8.73625
▁hold	-8.73731
▁access	-8.73816
▁better	-8.74169
▁chief	-8.74198
▁send	-8.74261
▁tell	-8.74458
▁result	-8.74498
▁whe	-8.74684
▁grace	-8.74771
▁yoga	-8.74975
▁methods	-8.75142
▁G	-8.75179
▁source	-8.75242
▁group	-8.7525
▁application	-8.75257
▁straight	-8.75609
txt	-8.75954
▁animals	-8.76036
▁high	-8.76374
▁current	-8.76459
▁users	-8.76631
▁corner	-8.76784
▁sun	-8.76939
▁compile	-8.77018
▁parts	-8.77135
▁remove	-8.77369
us	-8.77387
▁believed	-8.77442
▁teacher	-8.77621
▁H	-8.77745
re	-8.78201
▁int	-8.78261
▁e	-8.78261
▁f	-8.78308
▁doing	-8.78479
One	-8.78503
▁times	-8.78725
▁FrontAccounting	-8.78809
▁face	-8.78861
▁fill	-8.78878
▁static	-8.78929
▁copy	-8.79123
▁arms	-8.79217
▁seven	-8.79549
▁editor	-8.79624
▁ever	-8.79885
By	-8.79996
▁clean	-8.80573
There	-8.80777
P	-8.8099
▁canvas	-8.81205
▁screen	-8.81209
▁front	-8.81229
▁once	-8.81331
▁air	-8.81945
▁themselves	-8.82016
▁keyboard	-8.82027
▁answer	-8.82145
▁asked	-8.82233
▁format	-8.82415
▁round	-8.82451
▁account	-8.82804
▁mouse	-8.82835
▁shew	-8.82856
▁Open	-8.82958
▁When	-8.83109
▁visit	-8.83373
▁clicking	-8.83624
▁Arjuna	-8.83689
Therefore	-8.83992
x	-8.84023
▁view	-8.84078
▁Note	-8.84245
D	-8.852
ment	-8.85242
▁email	-8.85364
▁person	-8.85543
▁pattern	-8.85811
▁too	-8.85875
ma	-8.86083
▁circle	-8.86183
▁students	-8.8622
▁square	-8.86675
▁ship	-8.86987
▁affection	-8.87041
▁meaning	-8.8718
▁greater	-8.87242
▁filled	-8.87343
▁typing	-8.879
▁library	-8.87911
▁similar	-8.87912
▁stood	-8.8792
▁Come	-8.87978
is	-8.88119
▁explain	-8.88136
▁king	-8.8857
▁raise	-8.88602
▁More	-8.88624
▁got	-8.88694
▁worship	-8.88767
▁making	-8.8877
▁sign	-8.8917
▁followed	-8.89212
▁old	-8.89588
▁Edit	-8.89614
▁till	-8.89647
▁g	-8.89654
▁shape	-8.90218
▁going	-8.90494
▁beginning	-8.90535
▁OS	-8.90603
▁coming	-8.90673
▁leg	-8.9112
▁bracket	-8.91203
▁V	-8.91306
up	-8.91366
▁Inkscape	-8.91424
▁database	-8.91424
▁index	-8.91448
▁opened	-8.9148
▁address	-8.9149
▁hour	-8.91993
▁blank	-8.92002
▁holy	-8.92325
▁third	-8.92326
▁righteousness	-8.92336
▁panel	-8.92346
▁trees	-8.93029
click	-8.93186
ं	-8.93233
▁simple	-8.93235
an	-8.93485
▁stand	-8.9364
That	-8.93651
▁working	-8.93653
▁Manager	-8.94203
▁plus	-8.94215
▁keys	-8.94253
▁R	-8.94268
▁item	-8.94617
▁include	-8.94911
▁floor	-8.95085
ers	-8.95172
▁years	-8.95289
▁d	-8.95412
▁numbers	-8.9546
spoken	-8.95494
▁sit	-8.95613
▁Teacher	-8.95789
▁born	-8.95895
▁prophets	-8.95933
▁woman	-8.96012
▁land	-8.96067
▁My	-8.96327
▁happens	-8.96458
▁increase	-8.96555
▁refer	-8.9659
▁sins	-8.96662
▁level	-8.96664
▁mode	-8.96678
▁free	-8.96862
▁bear	-8.97066
▁says	-8.97337
E	-8.9738
▁human	-8.97705
▁mask	-8.97908
▁obtain	-8.9792
▁functions	-8.9811
R	-8.9819
▁red	-8.98347
▁night	-8.98653
▁previous	-8.98765
▁E	-8.98864
▁wife	-8.9887
▁possible	-8.98873
▁others	-8.98911
▁Thou	-8.9893
▁java	-8.98984
▁leaves	-8.9954
▁fear	-8.99555
▁angel	-8.99599
▁particular	-8.99728
▁XAMPP	-8.99841
▁fell	-8.99842
▁common	-8.99853
▁steps	-8.99886
▁told	-8.99918
Who	-9.00245
▁sat	-9.00255
▁questions	-9.00792
▁child	-9.0082
▁Holy	-9.00821
▁near	-9.00831
▁energy	-9.00873
▁slowly	-9.00882
▁Keep	-9.00949
▁unti	-9.01008
▁colours	-9.0103
▁star	-9.01168
▁appear	-9.01842
▁Close	-9.01859
▁year	-9.01939
▁install	-9.01993
ll	-9.0201
▁servant	-9.02598
▁pray	-9.02756
▁gospel	-9.02811
▁laid	-9.02811
Among	-9.02811
▁environment	-9.02819
▁Observe	-9.02854
▁edit	-9.0302
ies	-9.03099
▁6	-9.03117
▁mark	-9.03183
M	-9.03806
▁brush	-9.03825
).	-9.03858
▁beings	-9.03884
▁4.	-9.03993
▁installed	-9.04121
▁cow	-9.04614
▁correct	-9.04706
;"	-9.04786
▁workshops	-9.04841
▁garden	-9.04842
▁Gentiles	-9.04873
▁Make	-9.04981
▁Pharisees	-9.0505
▁document	-9.05653
▁multitude	-9.05678
▁begin	-9.0572
▁why	-9.05872
▁yourselves	-9.05872
▁bread	-9.05875
▁country	-9.05877
▁Why	-9.05896
▁later	-9.05923
le	-9.05998
▁sure	-9.06036
""""	-9.06144
▁perform	-9.06444
ta	-9.06695
▁final	-9.06806
▁visible	-9.06914
▁thine	-9.06923
▁chest	-9.06927
▁username	-9.0694
▁seed	-9.07137
ha	-9.07463
▁o	-9.07574
▁K	-9.07667
▁becomes	-9.07672
▁L	-9.07799
Fro	-9.07802
▁blue	-9.07967
▁self	-9.07967
▁green	-9.07985
at	-9.08222
▁ask	-9.08311
▁Re	-9.08348
▁title	-9.08546
▁fruits	-9.08647
▁:	-9.08718
▁category	-9.09031
▁soil	-9.09078
▁drink	-9.09472
▁organisms	-9.09566
•	-9.09604
▁plant	-9.09736
▁doubt	-9.10106
▁OK	-9.10117
▁Search	-9.10141
”.	-9.10264
▁supported	-9.10293
▁drag	-9.10427
▁executed	-9.10482
▁de	-9.10494
▁observe	-9.10831
▁characters	-9.11063
▁Ghost	-9.11193
▁running	-9.11201
▁priests	-9.11276
▁roll	-9.11282
▁Give	-9.11283
▁else	-9.11294
▁age	-9.1135
na	-9.11362
▁ten	-9.11384
of	-9.11479
O	-9.11579
▁contains	-9.12079
▁multiple	-9.12143
▁church	-9.1225
▁kept	-9.12292
▁pop	-9.12304
▁lest	-9.1231
ra	-9.12341
▁His	-9.12516
▁walk	-9.12663
With	-9.12899
These	-9.13216
▁perfect	-9.13241
▁clear	-9.13298
▁witness	-9.13363
vernment	-9.13433
▁milk	-9.13435
▁forward	-9.13449
▁manner	-9.13489
▁server	-9.13502
box	-9.13828
▁names	-9.13859
▁joy	-9.14014
Jesus	-9.14025
ur	-9.14026
com	-9.14246
▁knees	-9.14282
▁computer	-9.14402
▁priest	-9.14439
▁curly	-9.14533
▁departed	-9.14687
▁along	-9.14705
▁cows	-9.14738
ty	-9.14766
+	-9.14815
v	-9.14851
▁remember	-9.14909
▁site	-9.15101
▁sub	-9.15443
▁changed	-9.15481
▁thousand	-9.15566
They	-9.15644
▁rectangle	-9.15664
▁amount	-9.15719
▁contact	-9.15731
▁conduct	-9.15734
▁declared	-9.15784
▁angels	-9.15947
▁With	-9.16183
ever	-9.16537
ir	-9.16726
▁parentheses	-9.16812
▁series	-9.16812
▁relevan	-9.16827
▁cross	-9.16833
▁war	-9.16842
▁Sales	-9.16877
▁cut	-9.16885
▁step	-9.17037
▁suffer	-9.17229
▁stone	-9.17234
▁breath	-9.17315
Wherefore	-9.17456
Spoken	-9.17474
▁x	-9.17505
▁kill	-9.17717
▁count	-9.1795
▁respect	-9.17968
▁began	-9.18011
▁http	-9.18013
it	-9.18328
▁Fro	-9.18362
sh	-9.18424
While	-9.18647
▁sound	-9.18839
▁non	-9.19056
▁integer	-9.19096
▁After	-9.19124
▁Sanskrit	-9.1916
▁false	-9.1916
▁action	-9.19253
▁practices	-9.19372
▁play	-9.19474
out	-9.19595
▁By	-9.2012
▁paint	-9.20215
▁entire	-9.20231
▁though	-9.20335
▁Moses	-9.20342
▁certificates	-9.20342
▁judgment	-9.20342
▁far	-9.20346
▁Run	-9.20347
▁cried	-9.20363
▁never	-9.20364
▁–	-9.20369
▁delivered	-9.20479
▁wise	-9.2048
▁flower	-9.21143
▁commands	-9.21219
▁=	-9.21284
w	-9.21391
▁Repeat	-9.21544
▁Abraham	-9.21547
▁immediately	-9.21554
▁MHRD	-9.21568
▁useful	-9.21603
First	-9.22262
▁complete	-9.22562
▁knew	-9.22767
▁tongue	-9.2278
▁ready	-9.22905
▁forest	-9.22989
▁settings	-9.23137
▁allow	-9.23916
://	-9.23988
less	-9.24029
▁login	-9.24035
▁Some	-9.24318
▁items	-9.24393
▁real	-9.24513
▁m	-9.24881
▁Israel	-9.25247
▁twelve	-9.25251
▁Text	-9.25286
▁marks	-9.25507
Click	-9.26016
▁seek	-9.2605
H	-9.26065
▁takes	-9.26116
▁store	-9.26418
▁normal	-9.26419
ः	-9.26517
▁wisdom	-9.26517
▁either	-9.26518
▁p	-9.26519
Once	-9.26755
▁raised	-9.26762
▁stretch	-9.27338
am	-9.27352
▁feel	-9.27368
▁parameters	-9.27581
▁?	-9.27606
▁Sthiti	-9.27828
▁keyword	-9.27835
▁sake	-9.27849
▁material	-9.27892
▁lot	-9.27892
▁touch	-9.27906
ity	-9.27998
▁servants	-9.28073
4	-9.28098
▁remain	-9.28283
▁First	-9.28331
▁An	-9.2844
▁fall	-9.28578
▁On	-9.28831
▁convert	-9.28843
▁strong	-9.29041
▁finger	-9.29213
▁root	-9.29216
▁meat	-9.2932
▁none	-9.29332
▁Asanas	-9.29642
▁diseases	-9.2975
Under	-9.29905
▁5.	-9.29927
▁gather	-9.29945
▁movements	-9.29996
▁20	-9.30044
▁trust	-9.30114
▁consider	-9.30394
▁regard	-9.30413
▁hope	-9.30413
▁lord	-9.30414
▁everything	-9.30414
▁sight	-9.30424
▁installation	-9.30437
▁prophet	-9.30524
▁package	-9.30537
▁slider	-9.30562
va	-9.30863
▁ways	-9.31206
▁printed	-9.31393
++	-9.31473
▁GIMP	-9.31746
▁machine	-9.31746
▁mercy	-9.31746
▁closing	-9.31748
▁Desktop	-9.3175
▁।	-9.31757
▁mission	-9.31815
▁content	-9.3186
▁fast	-9.32486
@	-9.32554
id	-9.32586
Which	-9.32594
▁health	-9.3271
li	-9.32788
▁judge	-9.32829
L	-9.32959
▁strength	-9.33018
▁further	-9.33098
▁Switch	-9.33135
▁notice	-9.33179
▁Tool	-9.33212
▁related	-9.33223
▁bow	-9.33493
▁King	-9.33546
▁effect	-9.33767
▁arguments	-9.33779
▁Write	-9.34448
▁Galilee	-9.34468
▁kindness	-9.34485
▁sky	-9.34492
▁statements	-9.34533
▁gone	-9.34544
▁scribes	-9.34545
▁admin	-9.34549
▁minus	-9.34563
▁Breathing	-9.34591
▁seeing	-9.34607
▁comment	-9.34613
▁stop	-9.34617
▁character	-9.34631
At	-9.35029
croll	-9.35818
▁eternal	-9.3586
▁folk	-9.35862
▁gray	-9.3587
▁story	-9.35871
▁lower	-9.35883
▁original	-9.35898
▁Simon	-9.35917
▁needle	-9.36053
▁preached	-9.36093
▁thought	-9.36192
▁continue	-9.36295
▁online	-9.36346
▁Which	-9.36378
hi	-9.36551
5	-9.36654
▁build	-9.36775
▁opening	-9.36842
▁toes	-9.37005
▁care	-9.37153
ti	-9.3721
▁comma	-9.37261
▁instance	-9.37267
▁location	-9.37268
▁natural	-9.37276
▁courses	-9.37332
▁during	-9.37345
▁based	-9.37444
▁passed	-9.38179
▁fathers	-9.38302
▁serve	-9.38437
▁records	-9.38544
▁short	-9.38585
▁fingers	-9.38593
▁lay	-9.38619
▁thread	-9.38635
▁16.04	-9.38694
▁David	-9.38694
▁itself	-9.38694
▁giving	-9.38734
▁ought	-9.38756
▁Pranayama	-9.38785
▁mountain	-9.38914
▁Sun	-9.38961
▁symbol	-9.38967
▁elders	-9.39023
▁die	-9.39162
▁Sit	-9.39213
G	-9.39635
▁quiz	-9.40143
▁background	-9.40151
▁rise	-9.40186
▁parameter	-9.4039
ive	-9.4052
▁features	-9.40802
▁Ye	-9.40908
)."""	-9.41097
▁talk	-9.41397
V	-9.41477
▁verily	-9.41614
▁Code	-9.41617
▁URL	-9.4164
▁&	-9.41692
▁devil	-9.4191
▁Book	-9.41916
▁indicates	-9.42088
▁""""	-9.42131
▁ears	-9.42265
▁commanded	-9.4246
ial	-9.42534
▁neck	-9.43106
▁zoom	-9.4311
▁Place	-9.43155
▁contain	-9.43156
▁Budget	-9.43368
▁hearts	-9.43416
▁today	-9.43483
▁Item	-9.43516
▁v	-9.43974
What	-9.4412
N	-9.44538
▁desire	-9.44539
▁Package	-9.44621
▁taught	-9.44621
▁software	-9.44623
▁something	-9.44624
▁baptized	-9.44638
▁fulfilled	-9.44693
▁divided	-9.44732
▁Start	-9.44735
▁weight	-9.44755
me	-9.44837
▁difference	-9.44934
▁fac	-9.4503
efore	-9.45042
▁commandment	-9.45052
▁cloth	-9.45216
name	-9.45268
ah	-9.45486
▁tools	-9.45789
▁books	-9.45837
▁still	-9.4616
▁darkness	-9.46177
▁flowers	-9.4618
▁successfully	-9.46189
▁knee	-9.46198
▁Windows	-9.46322
▁whatsoever	-9.46393
▁nostril	-9.46456
ous	-9.46867
one	-9.47083
ary	-9.47428
▁balance	-9.47595
▁blind	-9.47699
el	-9.47721
▁concentration	-9.47722
▁creation	-9.47722
▁easily	-9.47722
▁arose	-9.47722
▁rather	-9.47729
▁mine	-9.47753
▁Fill	-9.47754
▁script	-9.47838
▁Many	-9.47859
Talk	-9.4799
▁slide	-9.48025
▁purpose	-9.48055
▁dance	-9.48077
▁7	-9.48394
ure	-9.48441
▁paste	-9.49005
▁import	-9.49049
▁except	-9.49282
▁concern	-9.4931
▁Netbeans	-9.49314
▁bend	-9.49325
ro	-9.49482
▁Course	-9.49681
▁operator	-9.49697
▁element	-9.49701
▁Sita	-9.50108
▁turn	-9.50172
▁break	-9.50216
▁12	-9.50333
However	-9.5042
▁support	-9.50592
▁vertical	-9.50813
▁worthy	-9.50922
▁buy	-9.50922
▁speed	-9.50922
▁thus	-9.50933
▁oxygen	-9.50935
▁trunk	-9.50935
▁automatically	-9.50945
▁capital	-9.50955
▁inhaling	-9.50973
▁healthy	-9.50997
Ye	-9.51222
▁generation	-9.51315
▁heels	-9.51316
6	-9.51546
▁Use	-9.51557
j	-9.51792
▁wish	-9.51935
▁ls	-9.52172
▁shoulder	-9.52265
▁locate	-9.52398
▁images	-9.52466
▁rich	-9.52521
ner	-9.52547
▁exhaling	-9.52562
▁thyself	-9.52562
▁women	-9.52562
▁gradient	-9.52564
▁team	-9.52574
▁Un	-9.52623
▁cup	-9.52625
▁println	-9.52692
▁User	-9.52726
0	-9.52835
▁stored	-9.52843
▁apostles	-9.5296
▁30	-9.52983
▁organs	-9.52999
▁While	-9.53272
▁preach	-9.5349
▁songs	-9.53524
▁drawing	-9.53684
▁operators	-9.53823
NA	-9.53847
▁/	-9.53912
ter	-9.53979
▁hard	-9.54064
▁Operat	-9.54193
▁behind	-9.54228
▁least	-9.54228
▁properties	-9.54228
▁moving	-9.5425
▁eating	-9.54259
▁pure	-9.54276
▁moon	-9.54309
▁desired	-9.54534
▁region	-9.54662
▁performed	-9.54687
▁often	-9.55209
▁General	-9.55225
▁postures	-9.55344
Hav	-9.55506
▁id	-9.55841
▁foot	-9.55863
▁large	-9.55866
▁big	-9.55898
▁became	-9.55923
▁saints	-9.55923
▁easy	-9.55923
▁grep	-9.55923
▁sabbath	-9.55923
▁length	-9.55924
▁choice	-9.55924
▁worshipped	-9.55928
▁carbon	-9.55945
▁Choose	-9.55973
▁Path	-9.56007
▁shell	-9.5605
imply	-9.56088
▁members	-9.56131
▁Behold	-9.56223
▁soul	-9.56404
▁language	-9.56404
▁detail	-9.56428
▁See	-9.56754
▁teach	-9.57372
▁shoulders	-9.5744
▁layers	-9.57515
▁special	-9.57559
▁proper	-9.57583
▁honour	-9.57629
▁cursor	-9.57647
▁ourselves	-9.57647
▁necessary	-9.57648
▁spine	-9.5765
▁likewise	-9.57677
▁Master	-9.5769
▁Shift	-9.57696
▁Gita	-9.5772
▁Take	-9.57802
Saying	-9.57833
▁faithful	-9.57862
▁apart	-9.57902
▁sought	-9.57941
▁kind	-9.58146
▁minute	-9.58168
▁node	-9.58219
▁birds	-9.58264
▁No	-9.58291
▁thighs	-9.58434
for	-9.58583
▁examples	-9.5859
▁relax	-9.58631
▁forms	-9.58803
▁sleep	-9.58868
F	-9.5909
▁Class	-9.5915
mi	-9.59275
▁righteous	-9.59381
ch	-9.594
▁doctrine	-9.59402
▁empty	-9.59403
▁Missi	-9.59405
▁beloved	-9.59406
▁Move	-9.59442
▁t	-9.59446
▁birth	-9.59451
▁Admin	-9.59451
▁Display	-9.59451
▁angle	-9.59494
▁Editor	-9.59507
▁NMEICT	-9.59667
▁studying	-9.59759
ent	-9.59923
▁exercise	-9.5996
▁column	-9.59999
K	-9.60175
▁devotion	-9.61187
▁Draw	-9.61201
▁Vyayama	-9.61211
▁Check	-9.61264
▁getting	-9.61278
▁blessed	-9.61286
taking	-9.61458
▁promise	-9.61574
▁base	-9.61577
▁young	-9.61606
▁walked	-9.61647
▁Be	-9.61677
▁lead	-9.61691
▁benefits	-9.61695
▁J	-9.61736
▁husband	-9.61751
▁movement	-9.61849
▁standing	-9.62119
▁She	-9.62526
ful	-9.62556
ate	-9.626
▁stud	-9.62744
▁respective	-9.62953
▁Mother	-9.6301
▁simultaneously	-9.63011
▁sitting	-9.63018
▁wine	-9.63018
▁Mary	-9.63029
▁universe	-9.63034
▁Employee	-9.63048
▁assigned	-9.63138
▁Account	-9.63154
▁fine	-9.63188
▁follows	-9.63354
▁joints	-9.63494
▁master	-9.63616
▁r	-9.6365
▁posture	-9.63773
nd	-9.63895
he	-9.64224
▁started	-9.64664
▁deep	-9.64697
▁release	-9.6471
▁past	-9.64813
▁throne	-9.64857
▁wrath	-9.64857
▁teeth	-9.64858
▁List	-9.64859
▁alone	-9.64861
▁float	-9.64872
▁built	-9.64891
▁pose	-9.64938
▁buttocks	-9.65124
▁org	-9.65268
▁Or	-9.65441
▁border	-9.6549
▁sons	-9.65494
▁gift	-9.65507
▁molecule	-9.65542
▁letter	-9.65659
▁returned	-9.65752
ag	-9.65765
ni	-9.65781
▁txt	-9.66091
▁god	-9.6629
▁manifest	-9.66439
▁dark	-9.66583
▁sum	-9.66677
▁Panel	-9.66744
▁centre	-9.66744
▁middle	-9.66746
▁importance	-9.6675
▁awareness	-9.66755
▁physical	-9.66759
▁Z	-9.66769
▁multi	-9.66776
▁icons	-9.66814
▁l	-9.66833
▁String	-9.66837
▁mentioned	-9.66887
▁soldiers	-9.66968
▁defined	-9.66992
▁minister	-9.67115
▁killed	-9.67206
▁11	-9.67289
▁Files	-9.6742
▁touching	-9.67435
▁beast	-9.67438
▁state	-9.67443
▁figure	-9.6746
▁makes	-9.67593
▁arrow	-9.67694
▁sections	-9.67843
▁results	-9.67908
▁develop	-9.6839
▁abdomen	-9.68667
▁daily	-9.68667
▁instead	-9.68667
▁friendship	-9.68669
▁Herod	-9.68684
▁relaxation	-9.68687
ge	-9.68693
▁LaTeX	-9.68702
▁Tadasana	-9.68721
▁Pilate	-9.68771
▁throughout	-9.68785
▁grow	-9.68826
▁completely	-9.68836
▁dwell	-9.68851
om	-9.68979
▁Also	-9.69027
▁stars	-9.69119
▁curve	-9.69212
▁Page	-9.69381
▁asanas	-9.69623
▁teachers	-9.69772
um	-9.69884
▁proceed	-9.70166
▁depart	-9.70334
▁declare	-9.70511
▁essential	-9.70628
▁myself	-9.70628
▁correspond	-9.70628
▁Order	-9.70628
▁morning	-9.70629
▁tag	-9.70631
▁range	-9.70646
▁Setup	-9.70686
▁needs	-9.70704
▁*	-9.70734
▁Settings	-9.70812
▁bones	-9.70966
▁mighty	-9.70976
▁bending	-9.71203
▁reduce	-9.71225
▁label	-9.71369
▁chariot	-9.71385
▁Practice	-9.71463
ant	-9.71463
▁rounds	-9.71592
EN	-9.71705
Go	-9.71876
ng	-9.72054
demo	-9.72092
My	-9.72249
▁hearing	-9.72295
1.	-9.72393
▁stitch	-9.72586
▁bound	-9.72619
Education	-9.72628
▁contribute	-9.72628
▁wrote	-9.72628
▁Journal	-9.72634
▁categories	-9.72644
▁poor	-9.72645
▁identify	-9.72654
▁ancient	-9.72706
▁Hav	-9.73074
▁expand	-9.73091
by	-9.73163
▁handle	-9.73176
▁spiritual	-9.73323
▁doth	-9.7338
▁shapes	-9.73387
▁synagogue	-9.73429
▁river	-9.73434
▁boy	-9.73436
▁cell	-9.73505
ा	-9.7366
▁Every	-9.73871
la	-9.74164
while	-9.74167
il	-9.74337
▁knowing	-9.74362
▁places	-9.74438
▁contents	-9.74472
ally	-9.74477
▁best	-9.74479
▁rejoice	-9.74496
▁standard	-9.74645
▁sorrow	-9.74662
▁upper	-9.74668
▁MARC	-9.74669
▁request	-9.74669
▁syntax	-9.74669
▁Person	-9.7467
▁Vishnu	-9.7467
▁National	-9.74678
▁midst	-9.74679
▁Insert	-9.74685
▁Amen	-9.74745
▁grade	-9.74767
▁cooking	-9.74797
▁waste	-9.7509
▁boxes	-9.75172
▁reason	-9.7522
▁depend	-9.75503
▁raga	-9.75525
▁moved	-9.75565
ory	-9.75779
▁letters	-9.76017
Again	-9.76245
▁sort	-9.76365
▁devils	-9.76377
▁str	-9.76472
▁)	-9.76574
line	-9.76609
▁enjoy	-9.76677
▁log	-9.76689
lowly	-9.76703
▁sick	-9.76732
▁represent	-9.76735
▁Explain	-9.76752
▁Patron	-9.76752
▁zero	-9.76752
▁ICT	-9.76753
▁Judaea	-9.76753
▁wait	-9.76754
▁MySQL	-9.76758
▁Earth	-9.768
▁Hatha	-9.76809
▁Water	-9.76822
▁anything	-9.76859
▁Log	-9.76886
▁initialized	-9.76927
▁para	-9.76952
▁served	-9.77
▁looked	-9.77055
▁Where	-9.77129
▁components	-9.77209
▁devotees	-9.77262
age	-9.77354
▁goes	-9.77374
▁praise	-9.77423
▁explained	-9.77439
▁8	-9.77516
▁Shri	-9.77532
▁subject	-9.77573
▁friends	-9.77628
gat	-9.77742
rs	-9.77786
▁learning	-9.77872
ne	-9.78057
9	-9.78127
lo	-9.78273
with	-9.78301
ear	-9.78509
▁match	-9.78553
▁tabs	-9.78564
no	-9.78658
▁six	-9.78835
▁company	-9.7888
▁exhalation	-9.7888
▁qualities	-9.7888
▁exhale	-9.7888
Maintain	-9.78881
▁indeed	-9.78882
ting	-9.78889
▁chosen	-9.78889
▁Finish	-9.78897
▁presence	-9.78897
▁protein	-9.78897
▁KTouch	-9.78918
▁Number	-9.78929
▁Delete	-9.7894
ine	-9.78941
▁everyone	-9.78945
▁fight	-9.78963
▁existing	-9.79113
▁anger	-9.79128
▁turned	-9.79257
▁destroy	-9.79329
▁seeds	-9.79379
▁bond	-9.7938
▁downloaded	-9.79789
▁permission	-9.79817
▁season	-9.79819
No	-9.79948
▁IN	-9.80021
▁song	-9.80122
▁gods	-9.80319
▁pain	-9.80491
▁slides	-9.80561
▁reach	-9.80725
▁feast	-9.81054
Because	-9.81054
▁>>	-9.81055
▁straightway	-9.8106
▁execution	-9.81064
gcc	-9.81066
▁sheep	-9.81071
▁Compile	-9.81116
▁actions	-9.81125
▁development	-9.81154
▁Set	-9.81316
▁spread	-9.81513
▁completed	-9.81517
ad	-9.81863
▁errors	-9.82108
man	-9.8215
▁abide	-9.82164
ut	-9.82389
▁ch	-9.82476
▁molecules	-9.82499
▁causes	-9.82564
number	-9.82774
▁At	-9.82868
▁study	-9.829
▁repeat	-9.82983
!"""	-9.83055
▁demonstrate	-9.83132
▁prepare	-9.83157
▁prison	-9.83205
▁specific	-9.83263
▁OPAC	-9.83276
▁bodies	-9.83276
▁creating	-9.83276
▁fabric	-9.83276
▁patience	-9.83276
▁surface	-9.83276
▁random	-9.83277
▁Alt	-9.83321
▁since	-9.83336
▁Home	-9.83337
▁public	-9.83348
▁scroll	-9.83356
▁activity	-9.83434
▁outside	-9.83435
▁preferences	-9.83513
▁soon	-9.83873
te	-9.83906
▁rotate	-9.841
▁picture	-9.84259
▁role	-9.84294
Y	-9.84308
▁fund	-9.84346
▁loved	-9.84357
ons	-9.84473
▁unit	-9.84707
▁cover	-9.84802
▁design	-9.84824
▁columns	-9.8483
▁15	-9.84987
▁lift	-9.85071
▁formed	-9.85292
▁charge	-9.85322
▁provide	-9.85352
▁Manage	-9.85527
▁Continue	-9.85549
▁HTML	-9.85549
▁Synaptic	-9.85549
▁entry	-9.85549
▁glorified	-9.85549
▁Mudra	-9.85549
▁taste	-9.85549
▁wood	-9.8555
▁salvation	-9.8555
▁compassion	-9.85553
▁Joseph	-9.85555
Neither	-9.85568
▁Google	-9.85578
▁dollar	-9.85579
▁Entry	-9.85579
▁brain	-9.85591
▁N	-9.85603
▁quit	-9.85606
▁tip	-9.85644
▁healed	-9.85686
▁activities	-9.85687
▁bestow	-9.85696
▁protect	-9.85849
▁speaketh	-9.85867
▁pixels	-9.85877
▁Verily	-9.85917
▁weak	-9.86016
▁Brahma	-9.86117
▁cd	-9.86155
▁forum	-9.8618
ri	-9.86195
▁De	-9.86276
▁module	-9.86603
▁wind	-9.86618
▁resource	-9.86643
▁room	-9.86656
if	-9.86739
▁arm	-9.8682
▁40	-9.87162
▁doeth	-9.8719
▁reading	-9.87441
▁labour	-9.87548
▁maintain	-9.8757
▁packages	-9.87688
▁require	-9.8771
side	-9.87768
▁post	-9.87777
▁hundred	-9.87872
▁Internet	-9.87874
▁Source	-9.87874
▁administrator	-9.87874
▁enough	-9.87874
▁erect	-9.87874
▁resurrection	-9.87874
▁sepulchre	-9.87874
▁several	-9.87875
▁Calculus	-9.87877
▁extension	-9.87877
▁reward	-9.87885
em	-9.87885
▁pipe	-9.87891
▁pollution	-9.87894
▁week	-9.87896
▁logo	-9.87923
▁bad	-9.87958
▁height	-9.88036
▁believeth	-9.88058
▁longer	-9.88086
▁clothes	-9.88184
▁Con	-9.88185
▁died	-9.88369
▁removed	-9.88511
▁palm	-9.88561
tic	-9.88706
▁OF	-9.88987
▁service	-9.88995
▁nations	-9.89026
++.	-9.89054
▁prayer	-9.89147
▁Types	-9.89296
nother	-9.8937
▁improve	-9.8956
▁door	-9.89661
▁thence	-9.89759
00	-9.89799
▁focus	-9.89812
▁Hello	-9.89829
All	-9.89847
▁loud	-9.90146
▁eclipse	-9.90255
▁enemies	-9.90255
▁memory	-9.90256
▁Remove	-9.90257
▁sudo	-9.90262
▁authority	-9.90262
▁iron	-9.90274
llel	-9.90279
▁Step	-9.90283
ak	-9.90284
▁Yes	-9.90295
▁Dharma	-9.90298
▁established	-9.90307
▁initialize	-9.90468
▁prepared	-9.90479
▁products	-9.90513
▁nutrients	-9.9057
▁general	-9.90588
▁meet	-9.90697
▁teaching	-9.90886
▁humans	-9.90928
▁"""""""	-9.90968
▁knoweth	-9.91126
▁village	-9.91169
▁parents	-9.9126
▁requirement	-9.91463
▁argument	-9.91469
▁beat	-9.91575
▁local	-9.91603
▁familiar	-9.91619
▁bonds	-9.91628
▁cells	-9.91713
▁ID	-9.91757
Similarly	-9.92186
7	-9.92199
▁recite	-9.92205
▁deliver	-9.92344
slash	-9.92388
ger	-9.92486
▁bright	-9.92546
▁fondness	-9.92694
▁paper	-9.92694
▁speech	-9.92694
▁unique	-9.92694
▁description	-9.92696
▁Drive	-9.92696
▁Avogadro	-9.92701
▁Terminal	-9.92701
▁Image	-9.92751
▁mail	-9.92757
▁army	-9.92761
▁due	-9.92776
▁soft	-9.92777
▁quickly	-9.92798
▁Just	-9.92814
ern	-9.92868
▁printf	-9.92894
ap	-9.93053
▁conditions	-9.93064
ry	-9.93343
▁appeared	-9.93398
▁yea	-9.9341
▁lo	-9.93431
▁printer	-9.93523
▁thanks	-9.93659
ho	-9.9366
▁scriptures	-9.93695
▁measure	-9.93701
▁patterns	-9.93781
▁Sh	-9.93893
▁matter	-9.93932
uch	-9.93987
▁oil	-9.9408
▁learned	-9.94144
▁lie	-9.94202
▁Therefore	-9.94227
▁nation	-9.94504
dot	-9.94809
Some	-9.94845
▁separate	-9.94915
▁asana	-9.95029
▁nigh	-9.95058
▁quick	-9.95088
▁forehead	-9.95194
▁half	-9.95194
▁money	-9.95194
▁session	-9.95194
▁wilt	-9.95195
▁generate	-9.95197
▁stem	-9.95198
▁grass	-9.952
▁James	-9.95214
▁vain	-9.95216
▁style	-9.95227
▁JDK	-9.95252
▁bacteria	-9.95278
▁Menu	-9.953
▁vegetables	-9.95306
▁dropdown	-9.95372
▁recording	-9.95395
▁provided	-9.95417
Be	-9.95426
▁elbows	-9.95462
▁thereof	-9.95526
▁metals	-9.95601
▁sed	-9.95622
▁backwards	-9.95745
▁6.	-9.96089
”."	-9.96098
▁happen	-9.96334
▁disease	-9.96354
▁yogi	-9.96401
▁sword	-9.96471
vi	-9.96524
▁pleased	-9.96828
▁row	-9.96867
'."	-9.9713
ab	-9.97176
How	-9.9725
like	-9.97358
▁j	-9.9737
▁areas	-9.97428
cent	-9.97557
ति	-9.97598
▁Excel	-9.97631
▁num	-9.97726
▁famous	-9.97758
▁wilderness	-9.97758
▁decide	-9.97759
changing	-9.97763
▁cat	-9.97773
▁afraid	-9.97779
▁awkdemo	-9.97783
▁rain	-9.97791
▁mount	-9.97816
▁assume	-9.97816
▁pressure	-9.97895
▁setup	-9.97908
▁Right	-9.97916
▁higher	-9.97943
▁Our	-9.97953
▁Demo	-9.98023
▁sacrifice	-9.98042
▁included	-9.98232
▁Again	-9.98388
▁prayed	-9.98492
▁con	-9.98737
▁painting	-9.98755
▁Web	-9.98768
▁kings	-9.98806
ish	-9.99111
▁stay	-9.99124
▁attempt	-9.9914
▁problem	-9.99145
▁organism	-9.9927
▁placed	-9.99319
pa	-9.9966
▁custom	-9.99979
ana	-10.0003
▁month	-10.0022
▁fix	-10.0024
▁avoid	-10.0027
▁beautiful	-10.0028
▁perish	-10.003
▁demonstration	-10.0039
▁entries	-10.0039
▁extreme	-10.0039
▁future	-10.0039
▁happy	-10.0039
▁individual	-10.0039
▁testimony	-10.0039
▁rebuke	-10.0039
TEXT	-10.0039
▁wealth	-10.0039
▁Mozilla	-10.0041
▁100	-10.0045
▁fish	-10.0045
▁churches	-10.0049
▁Watch	-10.0051
▁connected	-10.0059
▁offered	-10.0066
▁destroyed	-10.0074
ort	-10.008
▁X	-10.0086
are	-10.0087
▁k	-10.0108
▁Vedas	-10.0109
▁lungs	-10.0112
ted	-10.0115
▁attain	-10.0156
▁culture	-10.0184
▁direction	-10.0186
▁thigh	-10.0187
▁feature	-10.0187
▁operation	-10.0188
▁port	-10.019
▁player	-10.0198
▁handles	-10.0203
be	-10.0222
▁understanding	-10.0225
▁duplicate	-10.0248
▁listed	-10.0249
gmail	-10.0258
Also	-10.0259
▁compare	-10.0277
▁upload	-10.0284
ually	-10.0289
▁slow	-10.0299
▁difficult	-10.0301
▁gold	-10.0302
▁9	-10.0306
▁total	-10.0306
▁QUESTIONS	-10.0309
▁Stroke	-10.0309
▁bandwidth	-10.0309
▁beseech	-10.0309
▁inhalation	-10.0309
▁Team	-10.0309
▁division	-10.0309
▁humble	-10.0309
▁popular	-10.031
▁history	-10.031
▁gain	-10.0311
▁capacity	-10.0311
▁Shiva	-10.0312
▁Yama	-10.0313
▁directly	-10.0314
▁branches	-10.0315
▁across	-10.032
▁Fee	-10.0321
▁upwards	-10.0335
▁Inhale	-10.0338
▁covered	-10.0343
▁deeds	-10.0356
▁led	-10.0358
▁foundation	-10.036
▁suffered	-10.0376
▁0.	-10.038
▁fat	-10.0393
▁techniques	-10.0396
▁flow	-10.041
▁closed	-10.0419
▁explains	-10.0421
▁Of	-10.0446
▁chapter	-10.0462
mod	-10.0465
▁tags	-10.048
▁wall	-10.0495
select	-10.0506
▁ear	-10.052
field	-10.0535
Even	-10.0536
Where	-10.0538
▁tables	-10.0544
file	-10.0549
▁Prana	-10.0556
▁branch	-10.0583
▁12.04	-10.0587
▁AND	-10.0587
▁Lamb	-10.0587
▁MariaDB	-10.0587
▁crucified	-10.0587
▁fornication	-10.0587
▁shift	-10.0587
▁PHP	-10.0587
▁twice	-10.0587
▁Suksh	-10.0588
▁namely	-10.059
▁Company	-10.0591
Of	-10.0594
▁void	-10.0595
▁directories	-10.0596
▁Him	-10.0598
▁strengthen	-10.0604
▁sing	-10.0609
▁Look	-10.0611
▁processes	-10.0612
▁adjust	-10.0614
▁Preferences	-10.063
▁sinners	-10.0638
▁th	-10.0662
▁typed	-10.0668
▁W	-10.067
▁Under	-10.0689
▁offer	-10.0694
▁met	-10.0717
▁prompted	-10.0721
▁hair	-10.074
▁resources	-10.0745
▁frame	-10.0746
▁mean	-10.0749
▁disciple	-10.0751
▁Yogi	-10.0761
ans	-10.08
▁commandments	-10.0815
Suppose	-10.0822
X	-10.0822
Behold	-10.0822
▁char	-10.0848
▁invoke	-10.0856
▁wicked	-10.0871
▁graphic	-10.0873
▁journey	-10.0873
▁modify	-10.0873
▁width	-10.0873
▁writing	-10.0873
▁dashboard	-10.0873
▁Surya	-10.0873
▁nice	-10.0873
▁wrong	-10.0873
gimp	-10.0873
▁stuff	-10.0873
▁bank	-10.0873
▁Good	-10.0873
▁Satan	-10.0873
▁Launcher	-10.0873
▁triangle	-10.0875
▁getDetails	-10.0875
▁active	-10.0876
▁powerful	-10.0878
▁late	-10.0879
▁Color	-10.0879
▁growth	-10.088
▁dis	-10.0882
▁revealed	-10.0885
▁pen	-10.0891
▁hid	-10.091
▁heads	-10.0911
2.	-10.0921
ance	-10.093
▁classes	-10.0934
▁converted	-10.0936
▁wherein	-10.0938
▁Serials	-10.0947
anah	-10.0954
et	-10.0967
ble	-10.1004
▁entering	-10.1011
▁improves	-10.1023
▁heat	-10.1031
▁friend	-10.1032
▁rule	-10.1037
▁daughter	-10.1042
▁parable	-10.1043
▁parent	-10.1044
▁Assignment	-10.1046
Yes	-10.1046
▁stream	-10.1047
▁ruler	-10.1049
▁topic	-10.1065
▁join	-10.1078
▁Print	-10.1113
Since	-10.1116
Notice	-10.1117
type	-10.1148
do	-10.1149
tha	-10.1153
▁1.6	-10.1155
▁confirm	-10.1165
▁tongues	-10.1166
▁Barnabas	-10.1167
▁abode	-10.1167
▁operating	-10.1167
▁quality	-10.1167
▁sample	-10.1167
▁procedure	-10.1167
▁school	-10.1167
▁Supreme	-10.1168
▁navigation	-10.1168
▁Read	-10.1168
▁Supine	-10.1169
▁Bank	-10.1169
▁Sync	-10.1171
▁lost	-10.1172
▁insert	-10.1172
▁gedit	-10.1174
▁forgive	-10.1177
▁Bring	-10.1186
▁scale	-10.1187
▁Both	-10.1189
▁Blessed	-10.1191
▁receiveth	-10.1197
▁arise	-10.12
▁Bookmarks	-10.1205
▁lawful	-10.122
un	-10.1224
Try	-10.1238
▁diet	-10.1277
त	-10.1278
▁channel	-10.1294
ise	-10.1318
Name	-10.1322
▁y	-10.1327
▁provides	-10.1328
▁reference	-10.1346
▁scripture	-10.1348
▁goal	-10.1349
▁states	-10.136
▁Accounts	-10.137
▁exercises	-10.1374
ctually	-10.1393
Do	-10.1402
ala	-10.1415
▁h	-10.1416
tra	-10.1422
▁mountains	-10.1424
bout	-10.1425
▁thoughts	-10.1432
sought	-10.1452
▁replace	-10.1453
▁Browse	-10.1464
▁success	-10.1466
▁sharp	-10.1469
▁wide	-10.147
▁Palette	-10.147
▁moodle	-10.147
▁sanskrit	-10.147
▁secret	-10.147
▁supreme	-10.147
▁treasure	-10.147
▁Upload	-10.147
▁font	-10.147
▁happiness	-10.147
▁di	-10.1471
▁auto	-10.1471
▁skin	-10.1471
▁Dandasana	-10.1475
▁darker	-10.1479
▁witnesses	-10.1481
▁brushes	-10.1482
▁updated	-10.1483
▁hence	-10.1485
▁foreground	-10.1486
▁Each	-10.1499
▁comfort	-10.1499
▁listen	-10.1501
U	-10.1512
▁heading	-10.1524
▁touched	-10.1539
Us	-10.1543
▁atoms	-10.1564
hu	-10.1578
▁edges	-10.1579
▁dog	-10.1592
ja	-10.1598
▁rules	-10.1599
▁operations	-10.161
▁Show	-10.162
▁super	-10.1633
▁commit	-10.1635
▁define	-10.1641
▁knows	-10.1642
▁filling	-10.1648
▁checkbox	-10.1654
▁Group	-10.1654
▁stage	-10.1655
▁boys	-10.1657
▁Jew	-10.1661
▁Asana	-10.1673
▁thank	-10.1689
▁Users	-10.1703
▁taketh	-10.1716
Verily	-10.1732
static	-10.1732
Boy	-10.1732
Add	-10.1733
ay	-10.1742
--	-10.1746
▁obey	-10.1753
▁>	-10.177
ia	-10.1781
co	-10.1781
▁Build	-10.1781
—	-10.1782
▁FASTA	-10.1782
▁Jacob	-10.1782
▁Object	-10.1782
▁Saul	-10.1782
▁Typing	-10.1782
▁beyond	-10.1782
▁distance	-10.1782
▁ellipse	-10.1782
▁everlasting	-10.1782
▁period	-10.1782
▁welcome	-10.1782
▁Blur	-10.1782
▁internet	-10.1782
▁Gaussian	-10.1782
▁Xfig	-10.1783
▁programming	-10.1783
▁governor	-10.1783
▁Options	-10.1785
▁shortcut	-10.1785
▁rate	-10.1785
▁sold	-10.1785
▁comfortable	-10.1786
▁harmful	-10.1787
▁wc	-10.1787
▁Philip	-10.1788
▁riches	-10.179
▁indicator	-10.1791
▁committed	-10.1791
▁Trataka	-10.1791
▁risen	-10.1791
▁Line	-10.1793
cial	-10.1794
▁Curves	-10.1796
▁lose	-10.1799
▁accuse	-10.18
ara	-10.18
▁U	-10.1803
▁sides	-10.1807
▁fists	-10.1812
र	-10.183
▁Pandavas	-10.1832
▁remaining	-10.1894
▁Bend	-10.1907
im	-10.1915
po	-10.1917
▁hell	-10.1921
▁goeth	-10.1943
▁therein	-10.1959
▁texts	-10.1966
▁alphabet	-10.197
▁game	-10.1981
▁points	-10.1987
ang	-10.2024
▁"""(	-10.2032
ware	-10.2038
cpp	-10.2054
right	-10.2074
▁increment	-10.2076
▁7.	-10.2077
ning	-10.2092
▁Back	-10.2096
▁unclean	-10.2103
▁author	-10.2104
▁Thank	-10.2105
▁moment	-10.2105
▁push	-10.2105
▁status	-10.2105
▁conscience	-10.2105
▁circumcision	-10.2105
▁hither	-10.2105
▁Prone	-10.2106
▁Elias	-10.2106
▁crown	-10.2106
▁charity	-10.2106
▁specify	-10.2106
▁Server	-10.2106
▁calm	-10.2107
▁Install	-10.2107
▁Administration	-10.2108
▁Pro	-10.2109
▁broken	-10.2109
▁manager	-10.2112
▁ensure	-10.2113
▁Stretch	-10.2121
▁fact	-10.2122
▁Apache	-10.2123
▁11.10	-10.2123
▁generated	-10.2129
▁finished	-10.2131
▁Extensions	-10.2133
▁located	-10.2141
▁breathe	-10.2143
PH	-10.2147
▁internal	-10.216
▁shlokas	-10.2173
▁attributes	-10.2185
val	-10.2193
z	-10.2194
▁exists	-10.2202
▁po	-10.2214
▁However	-10.2215
▁sentences	-10.2218
▁Can	-10.2218
▁houses	-10.2222
und	-10.2222
ip	-10.2223
▁seat	-10.2226
▁playing	-10.2231
ezi	-10.2237
ins	-10.2272
▁consist	-10.2272
▁21	-10.2276
we	-10.2285
▁sister	-10.2314
▁Layer	-10.2314
▁bookmark	-10.2315
ver	-10.232
▁minutes	-10.2338
▁nodes	-10.234
▁Ka	-10.2354
ram	-10.2374
▁starts	-10.2382
▁Align	-10.2383
take	-10.2387
NMEICT	-10.2388
Open	-10.2388
▁blocks	-10.239
▁align	-10.2411
▁sliders	-10.2414
▁deceive	-10.2421
▁extract	-10.2422
े	-10.2438
▁Caesar	-10.2438
▁Auto	-10.2438
▁yesterday	-10.2438
▁thief	-10.2438
▁grant	-10.2438
▁Posture	-10.2439
▁bondage	-10.2439
▁Default	-10.2439
▁astonished	-10.244
▁meditation	-10.244
▁Main	-10.2444
▁percentage	-10.2445
▁insects	-10.2445
▁specified	-10.2446
▁Relax	-10.2446
▁seem	-10.2446
▁People	-10.245
ux	-10.2451
▁cooked	-10.2452
▁manage	-10.2452
▁Learn	-10.2455
▁Y	-10.2457
▁separated	-10.2464
▁undo	-10.2464
▁aligned	-10.2473
▁uploaded	-10.2474
▁speaking	-10.2474
▁fixed	-10.2475
▁judged	-10.2481
▁joining	-10.2491
▁Dur	-10.2492
▁clothed	-10.2506
du	-10.2508
▁ran	-10.251
▁header	-10.2515
ub	-10.2524
HY	-10.2533
▁heed	-10.2534
▁senses	-10.2546
int	-10.2559
lar	-10.2568
▁signs	-10.2572
▁st	-10.2609
▁"""2.	-10.2612
drew	-10.2629
▁drawn	-10.2632
▁rivers	-10.2645
ized	-10.2647
▁ones	-10.265
▁hydrogen	-10.2654
▁stroke	-10.2655
▁Content	-10.2656
▁chair	-10.2656
▁Raja	-10.2657
▁beasts	-10.2658
▁garment	-10.2659
▁salt	-10.2659
▁edge	-10.2661
▁Level	-10.2665
▁Ma	-10.2673
ten	-10.2677
yo	-10.2685
▁seconds	-10.2708
▁Ste	-10.2725
www	-10.2731
ari	-10.2731
▁pro	-10.2731
Please	-10.2733
Hence	-10.2733
home	-10.2734
ize	-10.2736
▁addition	-10.2742
▁possess	-10.2758
▁roots	-10.2761
▁needed	-10.2763
Note	-10.2766
व	-10.2782
▁Nazareth	-10.2783
▁Properties	-10.2783
▁abstract	-10.2783
▁attention	-10.2783
▁cities	-10.2783
▁confidence	-10.2783
▁filter	-10.2783
▁matrix	-10.2783
▁query	-10.2783
▁tabernacle	-10.2783
▁denote	-10.2783
▁carry	-10.2783
Else	-10.2784
▁justified	-10.2785
▁Namaskara	-10.2786
▁including	-10.2786
▁dry	-10.2786
▁manifestation	-10.2787
▁hang	-10.2787
▁Suktam	-10.2787
▁underscore	-10.2789
▁yellow	-10.279
▁dioxide	-10.2793
▁3.3	-10.2793
▁golden	-10.2793
▁Karma	-10.2795
▁Title	-10.2795
▁testdir	-10.2796
▁center	-10.2798
▁chin	-10.2801
▁vision	-10.2804
de	-10.2805
▁heareth	-10.282
▁planets	-10.2825
▁ii	-10.2837
▁Hence	-10.2838
ka	-10.2848
▁Projects	-10.2884
▁increases	-10.2888
▁Vi	-10.2902
▁Us	-10.2913
so	-10.2914
▁promote	-10.2916
=	-10.2922
▁messages	-10.2932
▁months	-10.2946
▁pointer	-10.2958
▁Sri	-10.2967
▁animal	-10.2978
▁act	-10.2988
▁constant	-10.3001
▁pencil	-10.3014
▁price	-10.3015
▁bird	-10.3018
▁sentence	-10.3019
▁w	-10.3019
▁DO	-10.3025
ical	-10.3043
Likewise	-10.3089
pdf	-10.3089
▁finish	-10.3112
▁discuss	-10.312
▁suppose	-10.3127
▁smooth	-10.3129
▁50	-10.3131
39.50	-10.314
▁Database	-10.314
▁Egypt	-10.314
▁Filters	-10.314
▁animation	-10.314
▁beheld	-10.314
▁belief	-10.314
▁covenant	-10.314
▁involve	-10.314
▁proxy	-10.314
▁stomach	-10.314
▁wrought	-10.314
▁Apply	-10.314
▁CTRL	-10.314
▁Password	-10.314
▁grid	-10.314
▁rotation	-10.314
▁smile	-10.314
▁temperature	-10.314
▁subclass	-10.3141
▁Locat	-10.3141
▁Superlibrarian	-10.3141
▁Tax	-10.3141
▁90	-10.3141
▁passover	-10.3142
▁Purusha	-10.3143
▁pay	-10.3144
▁Guru	-10.3145
▁Date	-10.3146
▁appointed	-10.3146
▁nerves	-10.3147
य	-10.3147
▁lying	-10.3148
▁Human	-10.3152
▁highest	-10.3153
▁colon	-10.3153
▁Rest	-10.3156
▁./	-10.3164
▁liveth	-10.3167
▁charged	-10.3167
▁flag	-10.317
▁fourth	-10.3172
▁greatest	-10.3183
▁eateth	-10.3187
▁Judas	-10.3191
▁Arrays	-10.3197
asana	-10.3202
▁eaten	-10.3206
)."	-10.3217
let	-10.3217
ásana	-10.3261
arrow	-10.3297
▁persons	-10.3304
▁editing	-10.3306
▁rows	-10.3316
rd	-10.3324
▁stones	-10.334
act	-10.3348
▁aside	-10.335
▁heavens	-10.3352
▁adj	-10.3362
▁report	-10.3365
▁evening	-10.338
▁ball	-10.3385
▁endow	-10.339
▁lives	-10.3393
▁kinds	-10.3398
▁wear	-10.3408
▁belong	-10.3414
▁dances	-10.3426
▁Import	-10.3432
nside	-10.3434
▁pre	-10.3444
▁forbid	-10.3451
\	-10.3454
▁Maha	-10.3465
▁Books	-10.3465
▁checked	-10.3471
▁connect	-10.3479
▁mention	-10.3483
▁mix	-10.3483
ducts	-10.3488
ि	-10.3501
▁building	-10.3505
▁minerals	-10.351
ika	-10.351
▁AWK	-10.3511
▁Macedonia	-10.3511
▁appropriate	-10.3511
▁associate	-10.3511
▁baptism	-10.3511
▁copied	-10.3511
▁desktop	-10.3511
▁practicing	-10.3511
▁servlet	-10.3511
▁silver	-10.3511
▁womb	-10.3511
▁yourself	-10.3511
▁Explorer	-10.3511
▁honey	-10.3511
▁Opacity	-10.3511
▁alert	-10.3511
▁Dash	-10.3511
▁Microbiology	-10.3511
▁Meet	-10.3511
▁profile	-10.3511
▁Hanuman	-10.3513
▁rose	-10.3513
▁sail	-10.3514
▁exactly	-10.3514
▁View	-10.3516
▁feedback	-10.3518
▁25	-10.3519
▁Today	-10.352
▁Balance	-10.3523
▁Two	-10.3525
▁produced	-10.3527
▁expected	-10.3527
▁Plants	-10.3531
▁tears	-10.3542
▁previously	-10.3553
▁freely	-10.3553
ell	-10.3554
▁foods	-10.3554
ward	-10.3557
▁salute	-10.3558
▁pdf	-10.3564
▁en	-10.3568
▁wash	-10.3568
ali	-10.3584
▁deriv	-10.3597
▁expressions	-10.3608
▁preaching	-10.3614
▁horses	-10.3622
▁GL	-10.3622
▁Downloads	-10.3628
▁nose	-10.3632
▁aware	-10.3637
▁walking	-10.3667
▁shed	-10.3688
▁players	-10.3688
▁villages	-10.3704
thi	-10.3715
▁cleaning	-10.3726
▁tradition	-10.3735
▁sources	-10.3741
ani	-10.3742
▁toolbar	-10.3768
▁occur	-10.3771
▁cloud	-10.3771
▁sense	-10.3772
▁technique	-10.3772
▁Red	-10.3779
▁Na	-10.3785
▁paths	-10.3798
much	-10.3803
tu	-10.3816
▁offering	-10.3832
Remember	-10.3844
▁loose	-10.3845
▁pr	-10.3845
Keep	-10.3845
▁sp	-10.3867
▁divide	-10.3868
▁Creat	-10.3873
▁Rol	-10.3875
▁assign	-10.3882
▁horizontal	-10.3884
▁tail	-10.3889
▁spoke	-10.3891
▁calculate	-10.3892
▁exhibit	-10.3893
▁BLAST	-10.3895
▁Element	-10.3895
▁Python	-10.3895
▁abroad	-10.3895
▁audio	-10.3895
▁confess	-10.3895
▁conversation	-10.3895
▁enhance	-10.3895
▁introduction	-10.3895
▁opacity	-10.3895
▁cool	-10.3895
▁ashamed	-10.3895
Finally	-10.3895
▁humility	-10.3895
▁configure	-10.3895
▁firm	-10.3895
▁English	-10.3895
▁characteristic	-10.3896
▁negative	-10.3896
▁nervous	-10.3896
▁combination	-10.3896
▁grandfather	-10.3896
▁chemical	-10.3896
▁exceeding	-10.3896
▁attachment	-10.3896
▁understood	-10.3896
▁Bhishma	-10.3896
▁homepage	-10.3896
▁hit	-10.3897
▁everywhere	-10.3897
▁Checkout	-10.3898
▁axe	-10.3898
▁boat	-10.3898
▁ahead	-10.3898
▁cold	-10.3899
▁connection	-10.3899
▁Control	-10.39
▁Green	-10.39
▁carried	-10.3903
▁eg	-10.3904
▁neighbour	-10.3905
▁enrolled	-10.3907
▁lion	-10.3908
▁passing	-10.3909
▁iii	-10.3912
▁fig	-10.3913
▁forget	-10.3916
▁miracles	-10.3917
▁deeply	-10.3918
▁Recall	-10.392
▁inhale	-10.3923
▁desir	-10.3924
▁warm	-10.3924
row	-10.393
▁google	-10.393
▁dimension	-10.3932
▁instructions	-10.3937
▁jsp	-10.3939
mote	-10.3948
▁fully	-10.3951
▁Not	-10.3955
▁GUI	-10.3959
▁printing	-10.397
▁uses	-10.3977
▁deleted	-10.3998
▁Rs	-10.4018
▁indicate	-10.4023
▁owner	-10.4033
go	-10.4034
men	-10.4037
▁force	-10.4043
▁games	-10.4046
ga	-10.4051
Re	-10.4056
▁bare	-10.4057
▁topics	-10.406
ASANA	-10.4069
▁sacrifices	-10.4085
▁Ved	-10.4085
olk	-10.4101
▁prayers	-10.4105
▁applications	-10.4135
▁waters	-10.4151
▁gifts	-10.4155
ite	-10.4157
▁worlds	-10.4159
▁pleasure	-10.4168
sha	-10.4171
▁tribe	-10.4176
▁degree	-10.4179
%	-10.418
▁sage	-10.4181
▁setting	-10.4184
▁sh	-10.4184
iv	-10.4189
▁supports	-10.4197
▁Bar	-10.4204
▁colors	-10.4209
▁Basic	-10.4216
▁structures	-10.4219
▁sharpen	-10.4231
Not	-10.4233
▁atom	-10.4234
Welcome	-10.4245
awk	-10.4247
▁effects	-10.4254
▁repent	-10.4266
▁offend	-10.4267
▁medicin	-10.4276
▁Stand	-10.4277
▁update	-10.4285
Or	-10.4292
▁Bhramari	-10.4295
▁Geeta	-10.4295
▁MikTeX	-10.4295
▁pranayama	-10.4295
▁remembrance	-10.4295
▁Lecture	-10.4295
▁glorify	-10.4295
▁spiral	-10.4295
▁ability	-10.4295
▁Quiz	-10.4295
▁deny	-10.4295
▁tribulation	-10.4295
▁Update	-10.4295
▁Design	-10.4295
▁morrow	-10.4295
▁sutra	-10.4296
▁medium	-10.4296
▁Ramayana	-10.4296
▁overcome	-10.4296
▁household	-10.4296
▁Saviour	-10.4296
▁null	-10.4296
▁Generate	-10.4297
▁Tab	-10.4298
▁Bio	-10.4299
xml	-10.4299
▁echo	-10.4301
ita	-10.4302
▁fishes	-10.4302
▁held	-10.4302
▁Hold	-10.4303
▁sell	-10.4303
▁doctor	-10.4303
▁sixth	-10.4305
▁Purchase	-10.4305
▁copies	-10.4311
▁ink	-10.4313
▁Food	-10.4316
▁Improve	-10.4316
▁exit	-10.4318
▁pages	-10.4319
▁properly	-10.4321
ide	-10.4322
▁Exhale	-10.4324
▁cap	-10.4326
▁rm	-10.4331
▁butter	-10.4333
▁guidelines	-10.4339
▁smaller	-10.4341
▁Configur	-10.435
▁iv	-10.4358
ain	-10.4358
ada	-10.4359
▁cleanse	-10.4361
▁relaxed	-10.4362
▁Suppose	-10.4368
▁Sam	-10.439
this	-10.44
▁pieces	-10.44
▁lusts	-10.4411
▁limit	-10.4418
▁heavenly	-10.4425
▁programs	-10.4433
remen	-10.4439
▁buttons	-10.4453
▁rulers	-10.4468
escribe	-10.4489
▁exist	-10.4512
set	-10.4524
▁seasons	-10.4529
▁arrows	-10.4561
all	-10.4564
▁describe	-10.4569
▁throw	-10.4583
▁shine	-10.4583
▁sweet	-10.4583
ors	-10.4586
▁thumb	-10.4587
▁Application	-10.4587
▁horse	-10.4588
▁vitamin	-10.4597
▁ex	-10.4599
den	-10.46
▁pot	-10.4601
▁Sutra	-10.4604
▁Are	-10.4612
▁!	-10.4619
GIN	-10.4622
▁calling	-10.4626
ending	-10.4629
most	-10.4632
Intro	-10.4661
Type	-10.4662
java	-10.4664
Save	-10.4664
Say	-10.4675
▁tempt	-10.4681
▁betray	-10.4684
▁reverse	-10.4696
▁extra	-10.4696
▁bold	-10.4701
▁mental	-10.4701
▁regular	-10.4702
▁low	-10.4703
ama	-10.4705
▁office	-10.4706
▁private	-10.4706
▁eight	-10.4707
▁foolish	-10.471
]	-10.4712
▁Double	-10.4712
▁compilation	-10.4712
▁configuration	-10.4712
▁flexibility	-10.4712
▁glass	-10.4712
▁mandatory	-10.4712
▁marry	-10.4712
▁modification	-10.4712
▁occasion	-10.4712
▁ocean	-10.4712
▁ordained	-10.4712
▁precious	-10.4712
▁stipend	-10.4712
▁vendor	-10.4712
▁vineyard	-10.4712
▁Kapalabhati	-10.4712
▁prevent	-10.4712
▁Preview	-10.4712
▁North	-10.4712
▁fail	-10.4712
▁Biopython	-10.4712
▁excellent	-10.4712
▁repentance	-10.4712
▁salutation	-10.4712
▁armies	-10.4714
▁Indra	-10.4718
▁science	-10.472
▁maths	-10.472
▁fit	-10.4722
▁briefly	-10.4723
▁dear	-10.4723
▁card	-10.4724
▁early	-10.4728
▁trouble	-10.4729
▁troubled	-10.473
▁bind	-10.4733
▁outline	-10.4737
▁respectively	-10.4737
▁almost	-10.4738
▁washed	-10.4746
▁partakers	-10.4752
▁sir	-10.4753
▁clearly	-10.4753
▁Remember	-10.4768
▁Say	-10.4771
▁mostly	-10.4785
▁Even	-10.4789
▁u	-10.4792
▁18	-10.4822
▁allowed	-10.4829
▁sages	-10.4843
▁windows	-10.4847
▁clouds	-10.4849
!"	-10.4869
▁Layers	-10.487
-"	-10.4876
▁ago	-10.4894
av	-10.4909
▁wanted	-10.4929
▁goods	-10.4934
AL	-10.4939
▁outer	-10.4947
▁destroys	-10.4957
▁synagogues	-10.4973
▁observ	-10.4983
▁Ch	-10.4989
▁captain	-10.5016
▁suggest	-10.5018
▁lust	-10.5021
▁plugin	-10.5023
▁benefit	-10.5026
▁Download	-10.5035
▁differences	-10.506
▁spirits	-10.5061
▁quote	-10.5074
body	-10.5074
▁70	-10.508
See	-10.508
space	-10.508
▁skip	-10.5082
specially	-10.5096
example	-10.5097
which	-10.5097
New	-10.5097
meet	-10.5097
▁stops	-10.5098
Dur	-10.5102
▁explore	-10.5109
rew	-10.5111
▁reign	-10.5116
▁flat	-10.5119
▁10.	-10.5124
mp	-10.5129
▁Va	-10.5131
▁stores	-10.5134
▁brief	-10.5136
▁strange	-10.514
▁enable	-10.5143
▁info	-10.5144
्	-10.5145
▁Mark	-10.5145
SQL	-10.5145
▁Refer	-10.5147
▁Colour	-10.5147
▁Germany	-10.5147
▁Lanka	-10.5147
▁Vajrasana	-10.5147
▁brake	-10.5147
▁flame	-10.5147
▁invisible	-10.5147
▁marriage	-10.5147
▁positive	-10.5147
▁smell	-10.5147
▁hunger	-10.5147
▁whither	-10.5147
▁Background	-10.5147
▁Grade	-10.5147
▁concept	-10.5147
▁Bond	-10.5147
▁rice	-10.5147
▁Format	-10.5147
▁applet	-10.5148
▁digestion	-10.5149
▁catalog	-10.515
▁satisfied	-10.515
▁maximum	-10.515
▁protection	-10.5152
▁catch	-10.5153
▁forgiven	-10.5153
▁recommended	-10.5154
▁grown	-10.5156
▁Bhagavad	-10.5157
▁dwelleth	-10.516
▁eyeballs	-10.5161
▁mango	-10.5164
▁attached	-10.5165
▁sealed	-10.5166
▁CD	-10.5171
our	-10.5171
▁loosed	-10.5174
▁Pada	-10.5176
▁discussed	-10.5182
▁warriors	-10.5183
▁crying	-10.5185
▁Test	-10.5185
▁Navigat	-10.5187
hara	-10.519
क	-10.5198
▁moves	-10.5201
▁%	-10.5202
▁alive	-10.5207
▁instruments	-10.5217
▁cases	-10.5228
▁multitudes	-10.523
▁Swa	-10.5239
▁giveth	-10.5259
▁feared	-10.5278
▁inter	-10.5282
▁personal	-10.5284
▁steal	-10.5292
▁garments	-10.5306
▁powers	-10.5307
▁hide	-10.533
ius	-10.5332
▁directions	-10.5352
▁Brahman	-10.5356
ions	-10.5356
▁answers	-10.5371
▁permissions	-10.5406
W	-10.5406
4.	-10.5419
bed	-10.542
▁accept	-10.5445
fore	-10.5455
▁BE	-10.546
▁exception	-10.5479
▁JSP	-10.5486
▁digit	-10.5502
▁joint	-10.5506
▁Items	-10.5517
▁ra	-10.553
Your	-10.5544
jsp	-10.555
bracket	-10.5551
though	-10.5552
form	-10.5556
▁experience	-10.5559
▁fulfil	-10.5572
▁Art	-10.5576
▁deal	-10.5582
▁escape	-10.5587
▁corrupt	-10.5598
▁progress	-10.5601
▁inherit	-10.5601
▁Address	-10.5601
▁Antioch	-10.5601
▁GenBank	-10.5601
▁Isaac	-10.5601
▁Label	-10.5601
▁centurion	-10.5601
▁council	-10.5601
▁divine	-10.5601
▁liberty	-10.5601
▁loaves	-10.5601
▁ratio	-10.5601
▁tomorrow	-10.5601
▁urine	-10.5601
▁woe	-10.5601
▁stress	-10.5601
▁inheritance	-10.5602
▁Clone	-10.5602
▁unrighteousness	-10.5602
▁counsel	-10.5602
▁wax	-10.5602
▁external	-10.5602
▁battle	-10.5602
▁circulation	-10.5602
▁declaration	-10.5602
▁Raise	-10.5602
▁raw	-10.5602
▁adultery	-10.5602
▁temptation	-10.5603
▁resize	-10.5604
▁summer	-10.5606
▁Raju	-10.5608
▁continuously	-10.5608
▁wheat	-10.5608
▁helpful	-10.5609
▁sown	-10.5609
ande	-10.561
▁Girl	-10.561
▁swaras	-10.561
▁fungi	-10.5612
▁Clean	-10.5614
▁Sage	-10.5615
▁noble	-10.5616
▁dung	-10.5617
▁species	-10.5619
▁abdominal	-10.5622
▁offence	-10.5627
▁Per	-10.5633
▁compiler	-10.5635
▁braces	-10.5639
▁customer	-10.5645
▁sometimes	-10.5648
▁finally	-10.5649
1,	-10.5665
ping	-10.5665
▁sayest	-10.5679
▁Li	-10.568
▁singing	-10.568
▁knowest	-10.5681
▁medicines	-10.5691
▁wonders	-10.5692
▁perceive	-10.5695
▁Similarly	-10.5698
pt	-10.5702
har	-10.5713
▁crops	-10.5715
bei	-10.5721
▁notes	-10.5725
dra	-10.5734
kara	-10.5751
▁Being	-10.576
far	-10.5773
▁bookmarks	-10.5774
Li	-10.5784
ids	-10.5828
ms	-10.5831
▁event	-10.5851
ba	-10.587
▁sequences	-10.5877
▁Veda	-10.5887
▁tells	-10.5894
▁load	-10.5897
▁chant	-10.5905
▁continu	-10.5933
▁girl	-10.5953
▁Serial	-10.5954
▁lung	-10.5954
over	-10.5957
▁expression	-10.596
▁pair	-10.5966
▁piece	-10.5967
▁blessing	-10.5985
▁produce	-10.5986
▁desires	-10.599
nt	-10.5997
wise	-10.601
▁Jan	-10.6012
Data	-10.6024
▁hate	-10.6024
Thus	-10.6027
Thou	-10.6027
Tutorial	-10.6027
▁Mask	-10.6029
▁redirect	-10.6047
▁descend	-10.6052
▁glad	-10.6064
▁safe	-10.6066
▁MarcEdit	-10.6075
▁reap	-10.6075
▁exhort	-10.6076
▁harm	-10.6076
aintenance	-10.6077
▁conch	-10.6077
▁Category	-10.6077
▁Esaias	-10.6077
▁MyFirstProject	-10.6077
▁Question	-10.6077
▁TeXworks	-10.6077
▁Turn	-10.6077
▁Vasudeva	-10.6077
▁apply	-10.6077
▁console	-10.6077
▁context	-10.6077
▁desert	-10.6077
▁harvest	-10.6077
▁potato	-10.6077
▁serving	-10.6077
▁smoke	-10.6077
▁split	-10.6077
▁Samsara	-10.6077
▁Sky	-10.6077
▁angry	-10.6078
▁ornament	-10.6078
▁financ	-10.6078
▁waist	-10.6078
▁modesty	-10.6078
▁Maths	-10.6078
▁Description	-10.6078
▁Damascus	-10.6078
▁Staff	-10.6078
▁Sample	-10.6078
▁sthiti	-10.6078
▁hidden	-10.6078
▁cleanliness	-10.6078
▁Ganga	-10.6078
▁bought	-10.6078
▁definition	-10.6079
▁dirty	-10.608
▁pour	-10.6081
▁Asia	-10.6081
▁seeth	-10.6081
▁Patanjali	-10.6081
▁CPU	-10.6081
▁pH	-10.6081
▁cycle	-10.6084
▁pause	-10.6084
▁Submit	-10.6086
▁Fire	-10.6089
▁Help	-10.609
▁lotus	-10.609
▁absorbed	-10.6095
▁Most	-10.6099
rt	-10.6101
▁Become	-10.6103
▁fallen	-10.6108
▁tempted	-10.611
▁fold	-10.6114
▁attained	-10.6129
▁Thus	-10.613
▁strings	-10.6131
▁conditional	-10.6137
▁Don	-10.6142
▁developed	-10.615
▁manifested	-10.6158
test	-10.6159
▁performs	-10.6165
▁Pa	-10.6167
ps	-10.6167
pat	-10.6183
▁Sama	-10.6193
size	-10.62
▁Sutras	-10.6222
▁model	-10.6223
8	-10.6225
▁indicat	-10.624
▁pa	-10.6248
da	-10.6257
▁folders	-10.6259
▁com	-10.6266
▁Bharata	-10.6274
▁references	-10.6278
▁squares	-10.6292
ify	-10.6293
▁walls	-10.6296
’."	-10.6299
nam	-10.6314
IS	-10.6317
▁chariots	-10.6384
Fear	-10.6385
11	-10.6392
teth	-10.6393
1'	-10.6401
▁decrease	-10.6447
▁Ne	-10.6448
▁Ram	-10.645
▁Supplier	-10.645
▁transaction	-10.645
▁discussion	-10.645
▁crop	-10.6454
▁attribute	-10.6454
▁apostle	-10.6455
▁devotee	-10.6455
▁gate	-10.6456
▁net	-10.647
str	-10.6491
▁arrays	-10.6502
unto	-10.6518
▁aspect	-10.6522
न	-10.6525
Last	-10.6526
Demo	-10.6527
Select	-10.6527
Inhale	-10.6531
▁plac	-10.6542
ubbing	-10.6543
▁11.10,	-10.6549
AR	-10.656
▁elect	-10.6574
á	-10.6577
▁approach	-10.6577
▁16.05	-10.6577
▁Blue	-10.6577
▁Categories	-10.6577
▁Himself	-10.6577
▁Ravana	-10.6577
▁Software	-10.6577
▁contribution	-10.6577
▁currency	-10.6577
▁dumb	-10.6577
▁dwelt	-10.6577
▁earthquake	-10.6577
▁equation	-10.6577
▁ghost	-10.6577
▁gradually	-10.6577
▁jump	-10.6577
▁krishna	-10.6577
▁lecture	-10.6577
▁major	-10.6577
▁mystery	-10.6577
▁patient	-10.6577
▁prince	-10.6577
▁prophesy	-10.6577
▁separator	-10.6577
▁victory	-10.6577
▁3.7.0	-10.6577
▁Goddess	-10.6577
▁Seq	-10.6577
▁calf	-10.6577
▁pwd	-10.6577
▁logged	-10.6577
▁Tamas	-10.6578
▁asleep	-10.6578
▁glorious	-10.6578
▁business	-10.6578
▁contrast	-10.6578
▁parenthesis	-10.6578
▁summary	-10.6578
▁lake	-10.6578
▁horns	-10.6578
▁tarry	-10.6578
▁altar	-10.6578
▁industries	-10.6578
▁shut	-10.6578
▁easier	-10.6578
▁candle	-10.6578
▁herbs	-10.6578
▁abound	-10.6578
▁Wai	-10.6578
▁100%	-10.6579
▁undefined	-10.6579
▁BufferedReader	-10.6579
▁kidney	-10.6579
▁_____	-10.6579
▁Sitting	-10.658
iscal	-10.658
▁cutting	-10.658
▁carefully	-10.658
▁Bhakti	-10.6581
▁family	-10.6581
▁anywhere	-10.6582
▁Thy	-10.6583
▁nine	-10.6583
▁sheet	-10.6583
▁Rotate	-10.6583
▁rename	-10.6584
▁Dharana	-10.6584
▁completes	-10.6584
▁henceforth	-10.6585
▁cout	-10.6585
▁curd	-10.6586
▁asterisk	-10.6587
jane	-10.6589
▁tried	-10.6589
User	-10.659
▁heel	-10.6592
▁described	-10.6599
▁hypocrites	-10.6607
▁leaven	-10.6608
▁accepted	-10.661
▁betrayed	-10.6612
▁traditional	-10.6622
▁released	-10.6637
▁thinking	-10.6642
▁bed	-10.6649
ural	-10.6651
▁adopt	-10.6652
▁ministered	-10.6654
▁Get	-10.6655
▁leaders	-10.6662
▁Since	-10.6666
▁imported	-10.667
light	-10.6682
▁linen	-10.6687
▁rhythmic	-10.6705
les	-10.6736
▁occurs	-10.6742
▁Unit	-10.6746
▁Rajas	-10.6766
▁sisters	-10.6769
rust	-10.6788
atch	-10.6791
III	-10.6793
▁asking	-10.6802
ki	-10.6803
▁problems	-10.6821
▁Me	-10.6835
▁formats	-10.6837
▁suit	-10.6838
▁yog	-10.6842
▁Over	-10.6855
▁sa	-10.6868
dir	-10.689
▁holding	-10.6895
▁curves	-10.6907
Knowing	-10.691
▁pit	-10.6914
▁remov	-10.6923
▁divers	-10.6943
ft	-10.6949
▁languages	-10.6953
▁Tel	-10.6968
▁chain	-10.6979
ence	-10.698
▁elder	-10.6981
▁organ	-10.6988
▁presentation	-10.699
▁verse	-10.7021
▁May	-10.7024
▁interest	-10.703
ksha	-10.7042
Woe	-10.705
dimension	-10.7053
Each	-10.7053
;)	-10.7054
Other	-10.7063
▁cry	-10.7065
else	-10.7068
▁collect	-10.7071
ious	-10.7073
▁idea	-10.7076
▁materials	-10.708
▁despise	-10.7081
▁bin	-10.7082
▁origin	-10.7084
Whom	-10.7093
▁goddess	-10.7099
▁express	-10.7101
▁respirat	-10.7101
▁fellow	-10.7102
▁beside	-10.7102
▁complex	-10.7103
▁guide	-10.7103
▁5.6.30	-10.7104
▁Capernaum	-10.7104
▁Currency	-10.7104
▁Maharshi	-10.7104
▁Mathematics	-10.7104
▁Mumbai	-10.7104
▁Saturation	-10.7104
▁World	-10.7104
▁bliss	-10.7104
▁descriptor	-10.7104
▁enemy	-10.7104
▁epistle	-10.7104
▁fault	-10.7104
▁fourteen	-10.7104
▁pentagon	-10.7104
▁raiment	-10.7104
▁skeleton	-10.7104
▁thieves	-10.7104
▁wild	-10.7104
▁Font	-10.7104
▁goshala	-10.7104
▁marvelled	-10.7104
▁verify	-10.7104
▁Tree	-10.7104
▁Samyama	-10.7104
▁hurt	-10.7104
▁naked	-10.7104
▁society	-10.7104
▁Development	-10.7105
gently	-10.7105
▁sufficient	-10.7105
▁Priya	-10.7105
▁sunlight	-10.7105
▁gentleness	-10.7106
▁appearance	-10.7106
▁alignment	-10.7106
▁orgname	-10.7106
cular	-10.7107
▁sanctified	-10.7107
▁assembled	-10.7107
▁War	-10.7107
▁maid	-10.7107
▁collection	-10.7108
▁persuaded	-10.7108
▁ignorance	-10.7108
Quick	-10.7109
▁stitches	-10.7115
▁mineral	-10.7115
▁fresh	-10.7116
▁Ramu	-10.7117
▁Bandha	-10.7119
Output	-10.712
▁larger	-10.7122
▁Follow	-10.7122
▁determined	-10.7123
NU	-10.7125
▁---	-10.7126
▁override	-10.7126
▁abc	-10.7131
▁registered	-10.7131
▁fertilizers	-10.7136
▁Yagya	-10.7142
▁bottles	-10.7148
▁normally	-10.715
▁healing	-10.7156
▁mixed	-10.7158
▁avoided	-10.7162
▁heal	-10.7163
▁happened	-10.7164
▁insom	-10.7165
▁sharpening	-10.7165
hah	-10.7166
▁feeling	-10.7167
▁talents	-10.7169
▁conquer	-10.7169
ST	-10.7178
▁transform	-10.7182
▁cpp	-10.7191
Moreover	-10.7205
▁Hydrogens	-10.721
▁terms	-10.7217
्य	-10.7227
gre	-10.7228
aka	-10.724
▁remembered	-10.7241
ea	-10.7243
▁girls	-10.7244
▁ring	-10.7251
▁Sw	-10.7263
▁Applications	-10.7269
▁Sub	-10.7279
ups	-10.7284
▁Sum	-10.7297
ped	-10.7309
Pause	-10.7319
ding	-10.734
▁attains	-10.7355
bit	-10.7356
▁Pha	-10.7371
ual	-10.7373
▁requirements	-10.7382
▁Ar	-10.7406
yah	-10.7408
hall	-10.7409
De	-10.7422
▁corners	-10.7427
nana	-10.7439
▁dwells	-10.7454
nu	-10.7458
aternal	-10.7458
2)	-10.7463
▁masters	-10.7472
▁leads	-10.748
▁sayings	-10.7487
▁lock	-10.7499
▁souls	-10.7501
▁Out	-10.7518
▁Niyama	-10.7532
ow	-10.7533
▁creature	-10.7534
▁component	-10.7536
ook	-10.7537
▁backward	-10.7549
J	-10.7556
kar	-10.7568
▁Heman	-10.7573
Un	-10.7603
▁Tools	-10.7606
Return	-10.7608
google	-10.7608
Take	-10.7609
point	-10.7609
▁complet	-10.761
▁31	-10.7613
▁Car	-10.7614
▁direct	-10.7615
His	-10.7616
▁treat	-10.7617
ship	-10.7624
▁Pra	-10.7626
▁condemn	-10.7629
▁register	-10.7631
.........	-10.7638
veda	-10.764
▁translate	-10.7649
▁successful	-10.765
▁construct	-10.7654
▁meditati	-10.7655
▁reflect	-10.7657
▁digest	-10.7657
way	-10.7657
fold	-10.7658
python	-10.7659
Nevertheless	-10.7659
▁Answer	-10.7659
▁Baptist	-10.7659
▁Duryodhana	-10.7659
▁Lazarus	-10.7659
▁Value	-10.7659
▁abundance	-10.7659
▁amazed	-10.7659
▁behavior	-10.7659
▁caught	-10.7659
▁crystal	-10.7659
▁distribute	-10.7659
▁distribution	-10.7659
▁festival	-10.7659
▁fetch	-10.7659
▁flood	-10.7659
▁innumerable	-10.7659
▁ministry	-10.7659
▁paragraph	-10.7659
▁supply	-10.7659
▁trumpet	-10.7659
▁fame	-10.7659
▁Sinha	-10.7659
▁Hue	-10.7659
▁excretion	-10.7659
▁Find	-10.7659
▁vector	-10.7659
▁destruction	-10.7659
▁exchange	-10.766
▁segment	-10.766
▁Total	-10.766
▁micro	-10.766
▁conversion	-10.766
▁thick	-10.766
▁mudra	-10.766
▁shame	-10.766
▁surname	-10.766
▁flee	-10.766
▁husbandmen	-10.766
▁255	-10.7661
▁webpage	-10.7661
▁elephant	-10.7661
▁testify	-10.7661
▁prove	-10.7663
▁cost	-10.7663
▁exclamation	-10.7664
▁ro	-10.7664
▁relational	-10.7664
▁Duplicate	-10.7664
▁dna	-10.7667
▁localhost	-10.7667
▁Drag	-10.7667
▁Current	-10.7667
▁Static	-10.7667
▁refu	-10.7668
▁cleansing	-10.7668
▁conformer	-10.767
mino	-10.7672
q	-10.7673
▁Sometimes	-10.7673
▁Forum	-10.7674
▁curse	-10.7676
▁ascending	-10.7677
▁Year	-10.7677
▁Great	-10.7679
▁ampersand	-10.7682
▁maketh	-10.7683
▁perfection	-10.7685
▁Did	-10.7687
▁attendance	-10.7688
▁collected	-10.769
▁"""3.	-10.7695
hana	-10.7698
▁Kauravas	-10.7699
▁Devas	-10.7701
▁idols	-10.7706
▁Email	-10.7708
▁doesn	-10.771
▁comforted	-10.7713
▁filename	-10.7713
▁promised	-10.7714
▁publicans	-10.7715
▁joined	-10.7715
▁Last	-10.7717
ASH	-10.7718
▁Other	-10.7733
▁reached	-10.7735
▁weapons	-10.7735
▁Greeks	-10.7742
▁Kriyas	-10.775
egular	-10.775
▁asks	-10.7757
tify	-10.7769
▁documents	-10.777
▁begins	-10.777
▁town	-10.7776
▁growing	-10.7795
▁played	-10.7798
lampp	-10.7805
▁constructors	-10.7809
▁shines	-10.783
▁thumbs	-10.783
▁vitamins	-10.783
▁throws	-10.783
▁profit	-10.7831
▁Di	-10.7834
▁reports	-10.7852
10	-10.7865
▁blanks	-10.787
▁receives	-10.7871
ism	-10.7871
▁alphabets	-10.7881
ack	-10.7883
▁Sat	-10.7888
▁streams	-10.7903
▁drinking	-10.7906
▁checking	-10.7916
▁ports	-10.7925
▁installing	-10.7926
▁greatly	-10.7932
dependent	-10.7937
consistenc	-10.7945
ight	-10.7952
▁actual	-10.7983
her	-10.7987
▁groups	-10.8015
otten	-10.8029
▁figures	-10.8036
tma	-10.8056
▁recorded	-10.8058
bha	-10.8064
var	-10.8082
yan	-10.8096
Hello	-10.8108
uk	-10.8111
▁diagram	-10.8117
▁subscription	-10.8119
▁term	-10.8123
▁shloka	-10.8125
▁Pharisee	-10.8125
▁wheel	-10.8125
▁afterward	-10.8127
▁Action	-10.8128
▁Normal	-10.8131
▁Ni	-10.8143
▁US	-10.8155
▁tax	-10.8163
▁burn	-10.8164
AC	-10.8171
Sa	-10.8175
ving	-10.8181
50	-10.8183
▁bless	-10.8185
angled	-10.8191
Like	-10.8195
check	-10.8195
Email	-10.8197
Paul	-10.8197
Enter	-10.8197
Look	-10.8198
vin	-10.8198
from	-10.8199
Teacher	-10.8201
▁accord	-10.8203
▁weep	-10.8203
but	-10.8205
▁implement	-10.8215
▁torment	-10.8219
▁via	-10.8224
▁extend	-10.8225
▁Fold	-10.8228
▁fore	-10.8231
▁fun	-10.8231
▁commend	-10.8241
enefits	-10.8245
▁Brush	-10.8245
ण	-10.8247
Earlier	-10.8248
Fragment	-10.8248
Tomorrow	-10.8248
▁Copies	-10.8248
▁Ephesus	-10.8248
▁JPEG	-10.8248
▁Jordan	-10.8248
▁Pattern	-10.8248
▁Width	-10.8248
▁bridegroom	-10.8248
▁clutter	-10.8248
▁destination	-10.8248
▁dissolution	-10.8248
▁iniquity	-10.8248
▁leaving	-10.8248
▁meditate	-10.8248
▁palette	-10.8248
▁silence	-10.8248
▁strait	-10.8248
▁Alpha	-10.8248
▁Service	-10.8248
▁job	-10.8248
▁purifie	-10.8248
▁stedfast	-10.8248
▁Host	-10.8248
▁contract	-10.8248
▁Dronacharya	-10.8248
▁opposite	-10.8248
▁slain	-10.8248
▁Silas	-10.8248
testScore	-10.8248
▁polit	-10.8248
▁sinned	-10.8248
▁Panini	-10.8248
▁south	-10.8248
▁charioteer	-10.8248
▁quantity	-10.8248
▁decimal	-10.8248
▁deficiency	-10.8248
▁godliness	-10.8248
▁Caesarea	-10.8248
▁Janaka	-10.8248
▁nanotube	-10.8248
▁road	-10.8248
▁hot	-10.8248
▁Exit	-10.8249
▁brick	-10.8249
▁scope	-10.8249
▁combine	-10.8249
▁applied	-10.8249
▁sitteth	-10.8249
▁THE	-10.825
▁worse	-10.825
▁suddenly	-10.825
▁performance	-10.825
▁clay	-10.825
▁Username	-10.8251
▁administration	-10.8251
▁latex	-10.8251
▁Installation	-10.8251
▁dust	-10.8251
▁End	-10.8252
▁Fruit	-10.8252
▁optimize	-10.8253
▁workspace	-10.8253
▁strand	-10.8253
▁ceased	-10.8255
▁arranged	-10.8255
▁Samadhi	-10.8255
▁belly	-10.8256
▁fever	-10.8256
▁Training	-10.8259
▁otherwise	-10.8259
▁anointed	-10.8261
▁Copy	-10.8262
▁nested	-10.8262
▁scattered	-10.8263
▁dragon	-10.8266
▁training	-10.8269
▁Gent	-10.827
▁Non	-10.8272
▁Amount	-10.8274
▁thorns	-10.8274
▁cleansed	-10.8276
▁Grace	-10.8276
▁condemned	-10.8278
▁->	-10.8278
▁younger	-10.8278
hand	-10.8286
▁$	-10.8287
▁weeping	-10.8294
▁burning	-10.8294
▁sand	-10.8295
▁gas	-10.8295
▁strangers	-10.8298
▁curved	-10.8301
▁Return	-10.8303
eat	-10.8309
▁correctly	-10.8312
▁Data	-10.8312
▁devices	-10.8313
▁outwards	-10.8313
▁sharpened	-10.8314
ple	-10.832
▁holes	-10.832
▁washing	-10.8325
▁usage	-10.8333
▁widows	-10.8336
▁mor	-10.8338
▁Satya	-10.8344
▁rent	-10.8352
▁liked	-10.8357
ber	-10.8368
▁Whom	-10.8388
▁sounded	-10.8398
▁meter	-10.8402
▁digits	-10.8413
▁9.	-10.8418
▁links	-10.842
▁clothing	-10.8431
▁su	-10.8443
wa	-10.8445
jo	-10.8449
▁lists	-10.8457
mm	-10.8474
IN	-10.8496
▁parables	-10.8506
▁consume	-10.8514
dvanced	-10.8525
▁Know	-10.8528
▁Lo	-10.8529
ff	-10.8538
ane	-10.8545
▁80	-10.8557
pra	-10.8575
▁protects	-10.8579
▁systems	-10.8589
SANA	-10.8597
etc	-10.8602
▁passive	-10.8613
▁ragas	-10.8616
eep	-10.8616
▁Bharat	-10.8619
gu	-10.8621
has	-10.8632
write	-10.8634
▁doors	-10.8641
▁forgot	-10.865
hra	-10.8654
▁Libr	-10.8682
ix	-10.869
mic	-10.8701
▁feed	-10.8707
▁35	-10.8711
▁wonder	-10.8719
red	-10.872
▁orders	-10.8728
▁fragment	-10.8743
▁rock	-10.8746
▁Customer	-10.8746
▁sloka	-10.875
▁Animal	-10.8751
▁Field	-10.8751
▁Hydrogen	-10.8756
▁Cow	-10.8757
▁Table	-10.8765
▁agree	-10.878
▁60	-10.8795
▁execut	-10.88
▁Pur	-10.8813
clock	-10.8818
cha	-10.8819
Office	-10.8819
back	-10.8821
Blessed	-10.8822
println	-10.8822
Breathing	-10.8822
related	-10.8822
pole	-10.8822
Create	-10.8823
Many	-10.8823
▁wander	-10.8825
law	-10.8826
power	-10.8831
roll	-10.8835
▁disappear	-10.8842
▁refresh	-10.8843
bi	-10.8852
▁clone	-10.8855
▁disable	-10.8859
bhu	-10.8862
▁resist	-10.8872
▁effort	-10.8872
▁Carbon	-10.8873
▁GAMESS	-10.8873
▁Science	-10.8873
▁Volume	-10.8873
▁algorithm	-10.8873
▁arithmetic	-10.8873
▁borrow	-10.8873
▁creative	-10.8873
▁devour	-10.8873
▁dream	-10.8873
▁hermitage	-10.8873
▁infirmities	-10.8873
▁invoice	-10.8873
▁juice	-10.8873
▁religious	-10.8873
▁rupees	-10.8873
▁shadow	-10.8873
▁spoil	-10.8873
▁supper	-10.8873
▁truly	-10.8873
▁twenty	-10.8873
▁unbelief	-10.8873
▁yield	-10.8873
uzz	-10.8873
▁Tyre	-10.8873
▁increasing	-10.8873
▁thirst	-10.8873
▁Self	-10.8873
▁damsel	-10.8873
▁fair	-10.8873
▁ghee	-10.8873
▁spot	-10.8873
▁blow	-10.8873
▁kiss	-10.8873
▁Circulation	-10.8873
▁dragging	-10.8873
▁kitchen	-10.8873
anirban	-10.8873
▁Single	-10.8873
▁testtree	-10.8873
▁brochure	-10.8873
▁cord	-10.8873
▁twist	-10.8873
▁perhaps	-10.8873
▁Mode	-10.8873
▁fled	-10.8873
▁primary	-10.8873
ittle	-10.8873
▁alter	-10.8874
▁Sheet	-10.8874
▁50%	-10.8874
▁Ganesha	-10.8874
▁grave	-10.8874
▁Fix	-10.8875
▁management	-10.8875
▁completion	-10.8876
▁persecution	-10.8876
▁denied	-10.8876
▁Distribute	-10.8877
▁launcher	-10.8877
▁Subject	-10.8878
▁Block	-10.8878
▁Ardha	-10.8879
▁Arise	-10.888
▁Root	-10.8881
▁Devotee	-10.8881
▁passage	-10.8881
maya	-10.8882
▁endure	-10.8882
▁RGB	-10.8884
▁tied	-10.8885
charya	-10.8885
▁cl	-10.8886
cket	-10.8887
▁Stor	-10.8887
▁Example	-10.8888
lew	-10.8893
▁Author	-10.8896
▁meal	-10.8899
▁Cataloging	-10.89
▁sung	-10.89
▁parse	-10.8904
▁overloading	-10.8904
▁sounds	-10.8904
▁poster	-10.8906
▁rays	-10.8909
▁Up	-10.891
rising	-10.8913
▁inode	-10.8914
▁Functions	-10.8918
▁offended	-10.8918
▁demonstrated	-10.8922
▁Para	-10.8926
▁situations	-10.8934
ph	-10.8934
▁calleth	-10.8938
Being	-10.8942
▁balanced	-10.8946
▁findeth	-10.8947
▁Intro	-10.8951
ON	-10.8974
▁container	-10.8981
▁minds	-10.8983
▁skills	-10.8983
▁increased	-10.8991
▁Ex	-10.8994
▁Actions	-10.9008
ING	-10.901
▁creatures	-10.9016
▁proceeding	-10.9025
▁gates	-10.9034
▁accepts	-10.9049
br	-10.9077
ED	-10.9094
▁200	-10.91
▁encourage	-10.9103
▁salts	-10.9106
▁seeking	-10.9109
▁hours	-10.9113
▁seats	-10.9121
▁Dis	-10.9136
eness	-10.915
nah	-10.916
time	-10.9161
▁chapters	-10.9165
▁gra	-10.9168
▁offers	-10.9171
▁Proper	-10.9184
io	-10.9187
,""""	-10.9189
yam	-10.9229
▁nourish	-10.9254
▁co	-10.9257
ick	-10.9265
▁Practices	-10.9283
▁grows	-10.9293
▁examin	-10.9295
▁doest	-10.9297
long	-10.9329
limited	-10.933
ji	-10.9356
day	-10.9382
Seeing	-10.9384
ok	-10.9389
ated	-10.9392
▁issue	-10.9395
▁engine	-10.9409
▁Method	-10.9411
▁acid	-10.9414
▁Manu	-10.9416
▁sinner	-10.9423
▁medicine	-10.944
ification	-10.9442
tar	-10.9451
▁classifie	-10.9465
ery	-10.9469
▁Navigati	-10.9475
posture	-10.9489
address	-10.9489
Ubuntu	-10.9489
book	-10.9492
▁boast	-10.9492
▁car	-10.9493
Con	-10.9495
Make	-10.9495
food	-10.9495
▁rid	-10.9503
▁falls	-10.9507
▁reveal	-10.9511
▁sakes	-10.9512
ron	-10.9518
Yea	-10.9522
▁modifie	-10.9524
▁intellect	-10.9525
▁va	-10.953
▁Sukta	-10.9532
▁pick	-10.9535
ithila	-10.9536
▁processing	-10.9537
▁navigat	-10.9537
▁gentle	-10.9537
▁differ	-10.9538
▁Front	-10.9539
ु	-10.9539
▁transfer	-10.9539
▁broad	-10.9539
▁Optimiz	-10.9539
▁constrain	-10.9539
}	-10.9539
▁4.6.1	-10.9539
▁Dhyana	-10.9539
▁Measure	-10.9539
▁PDF	-10.9539
▁Soldier	-10.9539
▁Space	-10.9539
▁Syntax	-10.9539
▁brilliance	-10.9539
▁commerc	-10.9539
▁damnation	-10.9539
▁decrement	-10.9539
▁engage	-10.9539
▁excess	-10.9539
▁glimpse	-10.9539
▁ignorant	-10.9539
▁impossible	-10.9539
▁mathematical	-10.9539
▁minimum	-10.9539
▁patron	-10.9539
▁prophecy	-10.9539
▁religion	-10.9539
▁superior	-10.9539
▁unjust	-10.9539
▁Sidon	-10.9539
▁Bella	-10.9539
▁Pvt	-10.9539
▁expert	-10.9539
▁spinal	-10.9539
▁Samaria	-10.9539
▁wives	-10.9539
Various	-10.9539
▁staff	-10.9539
▁axis	-10.9539
▁fiber	-10.9539
▁potential	-10.9539
▁thither	-10.9539
▁network	-10.9539
xcf	-10.954
▁Otherwise	-10.954
▁holiness	-10.954
▁Arrow	-10.954
▁lodge	-10.954
▁crucify	-10.954
▁hook	-10.954
▁Stage	-10.954
▁Shraddha	-10.954
▁strike	-10.954
▁scan	-10.954
raising	-10.954
▁Lakshmana	-10.954
123	-10.954
▁poem	-10.954
▁testified	-10.954
▁plug	-10.9541
▁Connection	-10.9541
▁roof	-10.9541
▁Ekalavya	-10.9541
▁transparent	-10.9541
▁married	-10.9542
▁True	-10.9542
▁March	-10.9542
▁organic	-10.9542
▁tabular	-10.9542
▁shaken	-10.9543
▁NR	-10.9543
▁east	-10.9543
▁Information	-10.9544
▁property	-10.9544
▁slightly	-10.9544
▁specifier	-10.9544
▁pesticides	-10.9544
▁department	-10.9544
▁Input	-10.9544
▁Sugriva	-10.9545
▁spring	-10.9545
▁Time	-10.9545
▁bigger	-10.9545
▁drive	-10.9547
▁Expand	-10.9548
▁Rebecca	-10.9548
▁Trash	-10.9549
▁debugging	-10.9549
▁grieved	-10.9549
▁Gmail	-10.9552
▁Advanced	-10.9553
tah	-10.9554
▁compost	-10.9554
▁brighter	-10.9555
▁Classes	-10.9556
ी	-10.9558
▁[1]	-10.9559
▁spent	-10.956
▁achieved	-10.9562
▁Folder	-10.9563
▁exalted	-10.9565
▁Servlet	-10.957
▁mantra	-10.957
▁wondered	-10.9571
▁nas	-10.9572
▁burned	-10.9572
▁13	-10.9575
ail	-10.9579
▁hips	-10.9579
▁hated	-10.9579
▁manually	-10.9579
▁beg	-10.9583
rc	-10.9586
▁voices	-10.9588
▁repented	-10.9588
▁noise	-10.9596
▁rejoiced	-10.9597
▁extracted	-10.9598
▁incremented	-10.96
▁destroyer	-10.9602
▁monkeys	-10.9605
lak	-10.9605
▁Shlokas	-10.9614
▁forwards	-10.9616
▁Standing	-10.9618
other	-10.9634
Whe	-10.9635
▁Likewise	-10.9638
▁San	-10.9648
▁titles	-10.9651
▁borne	-10.9651
▁vessels	-10.9658
▁Su	-10.9666
▁acids	-10.9667
▁gmail	-10.9671
▁solution	-10.9674
▁seal	-10.9677
▁mayest	-10.9678
▁sore	-10.9679
Salut	-10.9679
▁br	-10.9688
▁reads	-10.9689
▁aspects	-10.9711
▁du	-10.9728
▁supporting	-10.9737
▁positions	-10.9741
▁sha	-10.9747
▁lessons	-10.9747
▁Th	-10.975
ible	-10.9751
▁ends	-10.9755
ii	-10.9762
▁Teachers	-10.9763
Giv	-10.9767
shma	-10.9771
▁visited	-10.9783
▁stretching	-10.9789
▁Am	-10.9789
adi	-10.9792
▁Ja	-10.9795
ile	-10.9825
▁openly	-10.9826
used	-10.9828
iness	-10.983
▁Yogis	-10.9844
eps	-10.9848
▁practiced	-10.9856
म	-10.9861
tri	-10.9862
▁appearing	-10.9864
pura	-10.9878
nk	-10.9901
then	-10.9901
cap	-10.9911
्वा	-10.9938
▁faces	-10.9953
▁reasons	-10.9962
▁Bha	-10.9984
▁Ga	-11.0004
unt	-11.0019
vah	-11.003
▁cook	-11.0046
▁disp	-11.0074
▁var	-11.0085
▁Tutorials	-11.0088
part	-11.0093
lightly	-11.0097
lend	-11.0105
▁teaches	-11.0124
▁implementation	-11.0125
▁serpent	-11.0126
▁Variable	-11.0127
▁Leave	-11.0127
▁affliction	-11.0128
▁vessel	-11.0128
▁skill	-11.0129
▁suggestion	-11.0131
dopt	-11.0144
putting	-11.0151
▁Men	-11.0159
ility	-11.0175
▁comments	-11.0178
work	-11.0201
scale	-11.0202
Exhale	-11.0202
Stand	-11.0203
minus	-11.0203
“	-11.0203
Come	-11.0204
▁stor	-11.0205
Rama	-11.0207
MA	-11.0207
▁delight	-11.0224
vid	-11.0229
Every	-11.0231
▁activate	-11.0235
▁sow	-11.0236
▁purchase	-11.0236
▁achieve	-11.0239
▁discipline	-11.024
▁opt	-11.0242
▁continuous	-11.0244
▁greed	-11.0247
▁shake	-11.0249
show	-11.025
ehicle	-11.0253
▁Rig	-11.0253
▁horizon	-11.0254
{	-11.0254
▁Sadducees	-11.0254
▁Titus	-11.0254
▁redemption	-11.0254
▁regulate	-11.0254
▁tribute	-11.0254
▁ungodly	-11.0254
Confirm	-11.0254
▁Abhimanyu	-11.0254
▁Access	-11.0254
▁Centre	-11.0254
▁Character	-11.0254
▁Column	-11.0254
▁Karna	-11.0254
▁Message	-11.0254
▁Nitrogen	-11.0254
▁Raymond	-11.0254
▁StudentEnroll	-11.0254
▁Zebedee	-11.0254
▁bridge	-11.0254
▁circumcised	-11.0254
▁competition	-11.0254
▁consolation	-11.0254
▁dancing	-11.0254
▁disobedient	-11.0254
▁eloquent	-11.0254
▁fervent	-11.0254
▁illustrate	-11.0254
▁jogging	-11.0254
▁laptop	-11.0254
▁magazine	-11.0254
▁ointment	-11.0254
▁practise	-11.0254
▁rejoicing	-11.0254
▁serial	-11.0254
▁skull	-11.0254
▁swear	-11.0254
▁variety	-11.0254
▁History	-11.0254
▁testament	-11.0254
▁typical	-11.0254
▁Moon	-11.0254
▁employee	-11.0254
▁geeta	-11.0254
▁histogram	-11.0254
▁narrate	-11.0254
▁END	-11.0254
▁lakh	-11.0254
▁Medha	-11.0254
▁slay	-11.0254
▁gaze	-11.0254
▁Export	-11.0254
▁target	-11.0254
▁concave	-11.0254
▁Martha	-11.0254
▁winter	-11.0254
▁drain	-11.0254
▁Anuloma	-11.0254
▁punishment	-11.0254
▁absent	-11.0254
▁mistake	-11.0254
▁meekness	-11.0254
▁solve	-11.0254
▁Report	-11.0254
▁immunity	-11.0254
▁pride	-11.0254
▁damage	-11.0254
▁Paint	-11.0254
▁err	-11.0254
▁raster	-11.0254
▁sensory	-11.0254
▁Toolbar	-11.0254
▁Standard	-11.0255
▁digestive	-11.0255
▁praising	-11.0255
▁geometry	-11.0255
▁duty	-11.0255
▁stories	-11.0255
▁roam	-11.0255
▁chance	-11.0255
▁radio	-11.0255
▁Full	-11.0255
▁diligently	-11.0256
▁Structure	-11.0256
▁Node	-11.0256
(2,	-11.0256
▁condemnation	-11.0256
▁Peptide	-11.0257
▁overview	-11.0257
▁Navigator	-11.0258
▁loss	-11.0258
▁confirmation	-11.0258
▁Linear	-11.0258
▁drunken	-11.0259
▁doGet	-11.0259
▁disk	-11.0259
▁logout	-11.0259
▁Local	-11.0259
▁ctrl	-11.0259
▁formatting	-11.0259
▁Timotheus	-11.0259
▁Stop	-11.0259
▁memorize	-11.0259
▁existence	-11.026
▁numer	-11.0261
▁ego	-11.0263
▁originated	-11.0263
menu	-11.0264
▁cosm	-11.0265
▁sober	-11.0266
▁guru	-11.0267
▁classical	-11.0267
▁share	-11.0267
▁Second	-11.0271
▁bash	-11.0271
▁modifier	-11.0271
▁Send	-11.0271
▁regularly	-11.0273
▁alms	-11.0274
▁rejected	-11.0274
▁instructed	-11.0276
▁Gunas	-11.0277
▁coasts	-11.0277
▁checkout	-11.0278
not	-11.0278
▁brave	-11.0279
▁shared	-11.0281
▁farmer	-11.0282
▁Relaxation	-11.0283
▁newline	-11.0285
▁stronger	-11.0285
▁bus	-11.0286
▁identifi	-11.0286
▁plagues	-11.0287
▁missing	-11.0293
▁sewing	-11.0293
▁logical	-11.0294
▁invoked	-11.0301
apital	-11.0313
▁breeds	-11.0315
▁programme	-11.0316
▁Sea	-11.0317
▁thousands	-11.0318
▁soles	-11.032
▁spell	-11.032
▁farm	-11.0321
▁deed	-11.0325
▁fo	-11.0332
▁Om	-11.0339
▁Yea	-11.0342
▁goodness	-11.0343
ull	-11.0344
▁protected	-11.0347
▁meant	-11.0357
some	-11.0365
▁sticks	-11.0372
▁-(	-11.0374
▁singer	-11.038
▁afflictions	-11.0381
▁sufferings	-11.0381
▁gene	-11.0394
.............	-11.0396
▁focusing	-11.0398
▁Sta	-11.04
▁slokas	-11.04
▁ma	-11.0401
OM	-11.0405
▁suffering	-11.0424
print	-11.0425
▁mothers	-11.0427
ike	-11.0437
coming	-11.0451
▁experiences	-11.046
▁High	-11.0463
ily	-11.0466
▁levels	-11.0485
▁tribes	-11.049
▁offerings	-11.0496
▁traditions	-11.0497
▁belongs	-11.0506
▁40.	-11.0507
DD	-11.0508
▁mis	-11.051
▁loops	-11.0528
boxes	-11.0562
clicking	-11.0584
▁attempts	-11.0611
▁Notes	-11.0626
▁blast	-11.0634
bin	-11.0643
FF	-11.0665
▁viewing	-11.0673
▁accounting	-11.0679
TH	-11.0712
▁resemble	-11.0717
ternal	-11.0718
▁processed	-11.0727
▁reduces	-11.0732
use	-11.0744
▁husbands	-11.0775
spect	-11.0783
▁band	-11.0814
▁def	-11.0836
▁assignments	-11.0838
▁Bo	-11.0853
ational	-11.0855
▁purposes	-11.0855
van	-11.0858
char	-11.0859
▁absorb	-11.0863
oke	-11.087
hari	-11.088
Give	-11.0888
▁Gradient	-11.0893
▁fool	-11.0894
▁stick	-11.0894
▁virtue	-11.0894
▁basket	-11.0897
▁instrument	-11.0898
▁Pandava	-11.0899
rrange	-11.0909
▁Kriya	-11.0917
▁leader	-11.0923
lways	-11.0927
▁dri	-11.0939
▁receiv	-11.0954
▁Gra	-11.0958
ctor	-11.096
▁mat	-11.0964
script	-11.0968
Instead	-11.0968
$	-11.0969
▁Som	-11.0969
According	-11.0969
Due	-11.0969
defined	-11.097
Recall	-11.0972
Yoga	-11.0972
Choose	-11.0972
Bring	-11.0972
Pranayama	-11.0972
Student	-11.0972
Those	-11.0973
▁plan	-11.0973
human	-11.0974
living	-11.0974
left	-11.0975
▁envy	-11.0975
Dep	-11.0976
▁launch	-11.0987
▁affect	-11.0991
▁wound	-11.0993
▁dur	-11.0994
▁lots	-11.0994
▁specifie	-11.1
▁defile	-11.1003
rit	-11.1005
▁warn	-11.1006
▁Arjun	-11.1014
▁Hath	-11.1015
▁corn	-11.1016
▁relation	-11.1018
rethren	-11.102
OSS	-11.1022
▁steward	-11.1023
ल	-11.1023
Through	-11.1023
▁Agrippa	-11.1023
▁Appearance	-11.1023
▁BREATHING	-11.1023
▁Crystal	-11.1023
▁Evolutes	-11.1023
▁Hebrew	-11.1023
▁Pradesh	-11.1023
▁Sequence	-11.1023
▁Snake	-11.1023
▁Solomon	-11.1023
▁Vikasaka	-11.1023
▁central	-11.1023
▁creator	-11.1023
▁dominion	-11.1023
▁education	-11.1023
▁harmony	-11.1023
▁longsuffering	-11.1023
▁mixture	-11.1023
▁movie	-11.1023
▁nevertheless	-11.1023
▁plastic	-11.1023
▁provoke	-11.1023
▁purple	-11.1023
▁saturation	-11.1023
▁shepherd	-11.1023
▁tasty	-11.1023
▁uncircumcision	-11.1023
gnuhata	-11.1023
▁Festus	-11.1023
▁basis	-11.1023
▁redeem	-11.1023
▁Goshala	-11.1023
▁Word	-11.1023
▁carnal	-11.1023
▁enlarge	-11.1023
▁strife	-11.1023
▁caption	-11.1023
▁modern	-11.1023
▁ninth	-11.1023
▁subtle	-11.1023
▁oath	-11.1023
▁synchronize	-11.1023
▁Cash	-11.1023
▁cheer	-11.1023
▁liar	-11.1023
▁cement	-11.1023
▁cowshed	-11.1023
▁enlist	-11.1023
▁Ltd	-11.1023
▁contrary	-11.1023
▁pulses	-11.1023
▁superclass	-11.1023
▁polygon	-11.1023
▁Bhujangasana	-11.1023
▁saving	-11.1023
▁preferred	-11.1023
crete	-11.1023
▁Viloma	-11.1023
▁Old	-11.1023
▁tarrie	-11.1023
▁collapse	-11.1023
▁exile	-11.1023
▁hill	-11.1024
▁unknown	-11.1024
▁sensitive	-11.1024
▁submitted	-11.1024
▁remission	-11.1024
▁duck	-11.1024
▁nought	-11.1024
▁personality	-11.1024
▁inches	-11.1025
▁filthy	-11.1025
▁atmosphere	-11.1025
▁token	-11.1025
▁Undo	-11.1025
▁jungle	-11.1025
▁shoes	-11.1025
▁128	-11.1025
▁Ego	-11.1025
▁Mahabharata	-11.1026
▁showDetails	-11.1026
▁beamer	-11.1027
▁corruption	-11.1027
▁uncleanness	-11.1028
▁submit	-11.1029
▁colt	-11.1029
▁peacock	-11.1029
▁Process	-11.1029
▁Sithila	-11.103
▁representation	-11.103
▁bitter	-11.1031
▁consciousness	-11.1033
▁intestine	-11.1033
▁Pop	-11.1033
▁inverted	-11.1033
▁Allow	-11.1034
▁nutrition	-11.1034
▁vary	-11.1035
▁sco	-11.1035
ative	-11.1036
▁deploy	-11.1036
▁organized	-11.1037
▁bidden	-11.1037
▁persecuted	-11.1037
▁chamber	-11.1037
Dear	-11.1039
▁carbohydrates	-11.1041
▁Pratyahara	-11.1042
▁photosynthesis	-11.1042
▁deselect	-11.1042
▁Hand	-11.1043
▁boldly	-11.1043
▁accomplished	-11.1044
▁clockwise	-11.1046
▁Pre	-11.1046
that	-11.1046
▁Andrew	-11.1048
▁cp	-11.1054
▁factor	-11.1056
▁separately	-11.1057
▁nam	-11.1058
▁loudly	-11.1059
▁enabled	-11.106
▁plays	-11.106
▁arr	-11.1063
▁employ	-11.1063
▁directed	-11.1064
▁deceived	-11.1064
▁bic	-11.1068
▁lawyers	-11.1069
▁godly	-11.107
▁customize	-11.1072
▁perceived	-11.1073
▁Selection	-11.1074
▁struct	-11.1078
▁operands	-11.1079
▁shortly	-11.1084
▁Any	-11.1093
▁Krishnah	-11.1097
▁habits	-11.1099
▁chanting	-11.11
▁Adi	-11.1106
▁score	-11.111
Height	-11.1115
▁reduced	-11.1115
▁toggle	-11.1118
▁pin	-11.112
▁Funds	-11.112
▁intent	-11.1122
▁didn	-11.1124
▁Hear	-11.1126
▁Documents	-11.113
▁Ragas	-11.1141
▁forceful	-11.1142
Vasu	-11.1148
▁inward	-11.1161
▁Leaves	-11.1161
▁suggestions	-11.1162
spire	-11.1163
fi	-11.1163
▁issues	-11.1172
Pro	-11.1176
▁Til	-11.118
▁Fields	-11.1182
▁Cows	-11.1182
▁Well	-11.1224
▁demo	-11.1225
An	-11.1233
▁relaxing	-11.1237
▁turning	-11.1256
▁clicked	-11.1268
▁Define	-11.128
▁Nas	-11.129
▁pencils	-11.1306
▁Tri	-11.1308
sion	-11.1324
aga	-11.133
▁news	-11.1334
▁thereon	-11.1339
▁remembering	-11.1356
▁Com	-11.1365
▁Post	-11.1386
▁Wherefore	-11.1387
▁Form	-11.1395
jan	-11.1398
live	-11.1404
▁hu	-11.1411
che	-11.1414
▁services	-11.1453
▁Man	-11.1464
formed	-11.1484
प	-11.1504
▁64	-11.1529
▁स	-11.1535
▁labels	-11.1537
date	-11.1552
▁borders	-11.1569
mus	-11.1572
add	-11.1575
▁camel	-11.1581
ization	-11.1589
▁promises	-11.1591
▁blaspheme	-11.1597
bar	-11.1638
▁eats	-11.1652
ably	-11.1653
▁ending	-11.1664
▁Ra	-11.1673
struct	-11.1675
▁ref	-11.168
▁minded	-11.1688
▁II	-11.1703
ias	-11.1712
▁tests	-11.1712
▁hymn	-11.1725
▁widow	-11.1731
▁Greek	-11.1731
▁Array	-11.1732
▁Raga	-11.1732
▁Preference	-11.1733
▁buttock	-11.1733
▁muscle	-11.1734
▁grain	-11.1734
▁alway	-11.1734
ula	-11.1746
▁bone	-11.1747
▁pixel	-11.1749
▁member	-11.1751
called	-11.1757
ood	-11.1758
02	-11.1761
ist	-11.1761
verse	-11.1776
▁metal	-11.1786
vision	-11.1803
admin	-11.1806
Firefox	-11.1806
when	-11.1806
Right	-11.1807
contact	-11.1809
May	-11.1809
amah	-11.181
▁arch	-11.1811
Our	-11.1814
▁sew	-11.1815
page	-11.1815
▁wi	-11.1819
cut	-11.1821
▁Record	-11.1823
▁render	-11.1824
1)	-11.1825
▁attach	-11.1826
▁lack	-11.1826
RA	-11.1843
▁plain	-11.1844
▁Except	-11.1845
▁Push	-11.185
ndex	-11.1852
ह	-11.1854
eloved	-11.1854
▁sugar	-11.1854
▁____	-11.1854
lobal	-11.1855
▁danger	-11.1855
▁vital	-11.1856
▁interact	-11.1856
▁Monday	-11.1856
▁convenient	-11.1856
Different	-11.1856
Simultaneously	-11.1856
equestDispatcher	-11.1856
yahoo	-11.1856
▁Abstract	-11.1856
▁Almighty	-11.1856
▁Applet	-11.1856
▁Babylon	-11.1856
▁Barabbas	-11.1856
▁GreetingServlet	-11.1856
▁ISSN	-11.1856
▁Introduction	-11.1856
▁Jframe	-11.1856
▁Kurukshetra	-11.1856
▁Language	-11.1856
▁Magdalene	-11.1856
▁Moksha	-11.1856
▁Monkey	-11.1856
▁Multiply	-11.1856
▁Prepare	-11.1856
▁Priest	-11.1856
▁Rectang	-11.1856
▁Scale	-11.1856
▁Thomas	-11.1856
▁Threshold	-11.1856
▁Transaction	-11.1856
▁Vendor	-11.1856
▁aloud	-11.1856
▁browsing	-11.1856
▁calcium	-11.1856
▁century	-11.1856
▁diligence	-11.1856
▁indices	-11.1856
▁liquid	-11.1856
▁manufactur	-11.1856
▁oblation	-11.1856
▁organisation	-11.1856
▁palace	-11.1856
▁prowess	-11.1856
▁ritual	-11.1856
▁sacred	-11.1856
▁spacing	-11.1856
▁statue	-11.1856
▁subcategory	-11.1856
▁trembling	-11.1856
▁Section	-11.1856
▁sorry	-11.1856
▁average	-11.1856
▁pertain	-11.1856
▁shoot	-11.1856
▁dress	-11.1856
▁Framework	-11.1856
▁Vrusha	-11.1856
▁brass	-11.1856
▁8080	-11.1856
▁shining	-11.1856
▁studied	-11.1856
▁Subscription	-11.1856
▁anchor	-11.1856
▁POST	-11.1856
▁permanent	-11.1856
▁blameless	-11.1856
▁blurred	-11.1856
▁archery	-11.1856
▁embed	-11.1856
▁drama	-11.1856
Chandra	-11.1856
▁relationship	-11.1856
▁Plugins	-11.1856
▁overwritten	-11.1856
▁preview	-11.1856
▁fellowship	-11.1856
▁veins	-11.1856
▁revelation	-11.1856
upine	-11.1857
▁beneficial	-11.1857
▁definite	-11.1857
▁purificat	-11.1857
▁Radius	-11.1857
▁Namah	-11.1857
▁intelligence	-11.1857
▁Woman	-11.1857
▁accompanied	-11.1857
▁accusation	-11.1857
▁rotten	-11.1857
▁Renew	-11.1857
▁shore	-11.1857
▁Mille	-11.1858
▁comprises	-11.1858
▁production	-11.1858
▁Row	-11.1858
▁nitrogen	-11.1859
▁Bhasmasura	-11.1859
▁advantage	-11.1859
▁errorMsgs	-11.1859
▁Dimension	-11.1859
▁homework	-11.1859
▁cultural	-11.186
▁blend	-11.186
▁handling	-11.186
▁sets	-11.186
▁suck	-11.1861
▁spare	-11.1861
▁withered	-11.1861
▁cutter	-11.1862
▁Brushes	-11.1862
▁gases	-11.1862
▁merged	-11.1863
▁Ashta	-11.1863
cept	-11.1863
▁abundantly	-11.1863
▁stamp	-11.1863
▁mv	-11.1864
▁Janu	-11.1865
▁thrown	-11.1865
▁murmured	-11.1865
▁subjection	-11.1867
▁HelloWorld	-11.1868
▁discover	-11.1868
▁strive	-11.1868
▁agriculture	-11.1869
▁Statement	-11.1869
नि	-11.1869
▁bush	-11.1869
ore	-11.187
▁300	-11.1871
▁Asuras	-11.1872
▁std	-11.1873
▁OR	-11.1873
▁withdraw	-11.1875
▁timing	-11.1875
▁zip	-11.1877
▁issued	-11.1878
ular	-11.1879
▁validate	-11.188
▁agreed	-11.1881
God	-11.1882
▁purifying	-11.1883
▁setter	-11.1884
▁reaches	-11.1884
▁affected	-11.1888
escribed	-11.189
main	-11.1894
▁toolbox	-11.1895
▁[	-11.1895
▁IT	-11.1898
uck	-11.19
▁textbox	-11.1901
▁transformed	-11.1903
▁integers	-11.1903
▁Dog	-11.1903
▁installer	-11.1905
▁Light	-11.1906
▁fly	-11.1907
new	-11.1909
▁seventh	-11.1911
▁cart	-11.1911
▁recall	-11.1913
▁anyone	-11.1915
▁garlands	-11.1917
▁prerequisites	-11.1917
▁recipients	-11.1917
▁lips	-11.1917
▁breaths	-11.1919
▁Nat	-11.1924
anam	-11.1926
change	-11.1927
▁manure	-11.193
▁caret	-11.1931
▁interesting	-11.1932
tiny	-11.194
▁guests	-11.194
▁determine	-11.1942
▁Ter	-11.1944
▁surroundings	-11.1951
▁loosen	-11.1955
▁Air	-11.1955
▁miss	-11.1956
▁reasoned	-11.1979
▁trib	-11.1981
nce	-11.1982
owed	-11.1985
▁websites	-11.1989
▁tend	-11.199
sana	-11.1996
▁baskets	-11.1996
▁commander	-11.2
til	-11.2001
▁learners	-11.2006
▁Variables	-11.2007
▁Additional	-11.2009
▁accordingly	-11.2012
▁specially	-11.2014
▁ST	-11.2024
▁Animals	-11.203
▁feeds	-11.203
▁pi	-11.203
user	-11.2033
▁Cc	-11.2036
▁heir	-11.2042
▁compiled	-11.2053
▁Van	-11.2063
▁sy	-11.2086
wn	-11.2093
oli	-11.2095
▁Dep	-11.2099
yama	-11.2103
▁suggests	-11.2109
▁edited	-11.211
”"	-11.2111
▁objective	-11.2112
▁stu	-11.2124
▁Ras	-11.2146
▁additional	-11.2153
▁buildings	-11.2154
tam	-11.2158
▁fasting	-11.216
▁falling	-11.2172
▁optional	-11.2177
▁Heal	-11.2181
▁accessed	-11.2197
▁reed	-11.221
▁cr	-11.2212
▁defines	-11.2213
▁bi	-11.222
▁Assignments	-11.2234
view	-11.2239
वा	-11.224
▁frames	-11.2245
▁cha	-11.2265
म्	-11.2267
▁haven	-11.2278
ction	-11.2284
▁matters	-11.2303
▁accounts	-11.2309
▁writes	-11.2309
ze	-11.2315
ATION	-11.2315
▁Ta	-11.2316
▁roles	-11.2349
▁consum	-11.2361
();	-11.2363
▁acknowledge	-11.2364
late	-11.2386
▁grades	-11.2399
Su	-11.2403
she	-11.2411
▁watching	-11.2416
▁hum	-11.2428
▁se	-11.2452
▁runs	-11.2472
▁follower	-11.2473
▁bases	-11.2478
▁regions	-11.2523
ati	-11.2526
▁rhythm	-11.2532
ck	-11.2535
gr	-11.2536
keth	-11.254
fully	-11.2545
▁Courses	-11.2559
▁host	-11.2566
bal	-11.2568
▁19	-11.2576
▁experienc	-11.2591
Use	-11.2602
▁Shit	-11.2614
anda	-11.2624
ological	-11.2632
comes	-11.2634
▁burden	-11.2634
▁bride	-11.2635
▁task	-11.2637
▁Document	-11.2639
▁weapon	-11.264
▁west	-11.2641
▁Juda	-11.2641
loka	-11.2643
▁egg	-11.2644
ively	-11.2645
▁bag	-11.2646
Bean	-11.2647
▁nutrient	-11.265
▁24	-11.2669
aking	-11.267
>	-11.2671
Know	-11.2676
give	-11.2685
▁bows	-11.2687
▁Count	-11.2689
load	-11.269
▁overload	-11.2692
after	-11.2695
*	-11.2699
▁flu	-11.2699
&	-11.2702
pass	-11.2704
tan	-11.2705
2017	-11.2711
Apache	-11.2714
Pilate	-11.2715
energy	-11.2715
fruit	-11.2715
system	-11.2715
equal	-11.2715
read	-11.2719
dge	-11.2721
MM	-11.2724
▁Sir	-11.2731
▁climb	-11.2734
▁distress	-11.2735
Plants	-11.2737
Nor	-11.2742
▁persecute	-11.2743
▁enroll	-11.2745
▁Kan	-11.2746
▁univers	-11.275
▁leaf	-11.2758
▁chose	-11.2761
▁divid	-11.2762
▁conscious	-11.2763
iddle	-11.2764
द	-11.2764
▁attract	-11.2764
dients	-11.2764
rimary	-11.2764
▁Levi	-11.2765
▁automatic	-11.2765
▁State	-11.2765
orizontal	-11.2765
▁debt	-11.2765
ज	-11.2765
▁lame	-11.2765
▁bud	-11.2765
sequent	-11.2765
▁Milk	-11.2765
▁Modif	-11.2765
▁copper	-11.2765
▁discern	-11.2765
▁distinct	-11.2765
▁footstool	-11.2765
▁indignation	-11.2765
▁institute	-11.2765
SPACE	-11.2765
करोत	-11.2765
छ	-11.2765
▁4.3.1	-11.2765
▁Algae	-11.2765
▁Bethany	-11.2765
▁Congress	-11.2765
▁Difference	-11.2765
▁Felix	-11.2765
▁Iscariot	-11.2765
▁Joppa	-11.2765
▁Krsna	-11.2765
▁Miscellaneous	-11.2765
▁Multiple	-11.2765
▁Picker	-11.2765
▁Strengthen	-11.2765
▁advice	-11.2765
▁algae	-11.2765
▁assessment	-11.2765
▁auspicious	-11.2765
▁calendar	-11.2765
▁communication	-11.2765
▁concentrate	-11.2765
▁conclude	-11.2765
▁delimiter	-11.2765
▁dishonour	-11.2765
▁displayMessage	-11.2765
▁duties	-11.2765
▁equivalent	-11.2765
▁essence	-11.2765
▁faint	-11.2765
▁fashion	-11.2765
▁flavour	-11.2765
▁gnash	-11.2765
▁groan	-11.2765
▁herself	-11.2765
▁liberation	-11.2765
▁merchant	-11.2765
▁nucle	-11.2765
▁nucleotide	-11.2765
▁obedience	-11.2765
▁perspective	-11.2765
▁prominent	-11.2765
▁quiet	-11.2765
▁restaurant	-11.2765
▁savour	-11.2765
▁steady	-11.2765
▁television	-11.2765
▁template	-11.2765
▁twain	-11.2765
▁variation	-11.2765
▁virtuous	-11.2765
▁Rome	-11.2765
▁Tapas	-11.2765
▁penny	-11.2765
▁steam	-11.2765
▁uproar	-11.2765
▁attitude	-11.2765
▁Olives	-11.2765
▁attack	-11.2765
▁grandson	-11.2765
▁Biology	-11.2765
▁optimization	-11.2765
▁ultimate	-11.2765
▁Cancel	-11.2765
▁fulness	-11.2765
▁Bcc	-11.2765
▁scourge	-11.2765
▁TestEmployee	-11.2765
Below	-11.2765
▁stole	-11.2765
▁behave	-11.2765
▁swine	-11.2765
▁rough	-11.2765
▁wedding	-11.2765
que	-11.2765
▁Garuda	-11.2765
▁cattle	-11.2765
▁White	-11.2765
▁smite	-11.2765
svg	-11.2766
▁Ashok	-11.2766
▁priority	-11.2766
▁mosquitoes	-11.2766
▁Eye	-11.2766
▁stack	-11.2766
electronics	-11.2766
▁trick	-11.2766
▁robe	-11.2766
▁Nadi	-11.2766
▁stimulate	-11.2766
▁meditating	-11.2766
▁arrangement	-11.2766
▁translation	-11.2766
▁goats	-11.2766
pendi	-11.2766
▁afflicted	-11.2767
▁global	-11.2767
▁stopped	-11.2767
▁depth	-11.2767
▁Constructor	-11.2767
▁interpretation	-11.2767
▁Inhaling	-11.2767
▁blog	-11.2767
▁onwards	-11.2767
▁treatment	-11.2768
ura	-11.2768
▁Bacteria	-11.2768
▁Kalidas	-11.2768
▁Lakshmi	-11.2768
▁somewhat	-11.2768
Maha	-11.2769
▁Increase	-11.2769
▁exhortation	-11.2769
▁Crop	-11.2769
▁market	-11.2769
▁conceived	-11.2769
0808	-11.277
▁respiration	-11.277
▁hire	-11.277
Books	-11.277
▁ease	-11.277
▁instructor	-11.277
▁Vali	-11.2771
▁studies	-11.2772
▁everyday	-11.2772
▁pace	-11.2772
▁male	-11.2772
▁wickedness	-11.2773
▁craft	-11.2773
▁Peace	-11.2773
▁unwanted	-11.2773
▁Bhimsen	-11.2773
▁Keyboard	-11.2773
▁Horse	-11.2773
▁Kara	-11.2774
▁stable	-11.2774
▁portion	-11.2774
▁Reference	-11.2778
▁spend	-11.278
▁mid	-11.278
▁favour	-11.278
▁highlighted	-11.2781
▁frying	-11.2781
▁Enroll	-11.2783
▁Browser	-11.2783
▁Printer	-11.2783
▁ascended	-11.2783
▁Arguments	-11.2784
▁sur	-11.2786
▁Cut	-11.2786
▁journal	-11.2787
Work	-11.2787
▁Mac	-11.2788
▁ISBN	-11.2788
▁Program	-11.2788
▁Salutation	-11.2788
▁Suryanamaskara	-11.2788
▁Arch	-11.2792
▁phone	-11.2792
ill	-11.2794
▁constantly	-11.2794
▁vow	-11.2794
▁None	-11.2796
▁rod	-11.2796
▁limbs	-11.2796
▁heavy	-11.2797
▁numerical	-11.2799
▁translated	-11.2804
score	-11.2807
▁orbitals	-11.2808
▁Compos	-11.2808
▁tenth	-11.2809
coding	-11.281
▁-10	-11.2812
▁Ok	-11.2814
▁replaced	-11.2819
▁tile	-11.282
▁प	-11.2821
▁Perform	-11.2824
▁warning	-11.2824
▁Writer	-11.2825
tick	-11.2827
▁boasting	-11.283
▁supposed	-11.2832
▁utensils	-11.2833
▁poets	-11.2833
▁wipe	-11.2835
▁reproduce	-11.2836
▁TH	-11.2838
▁rotated	-11.2839
?""""	-11.284
▁satellites	-11.2845
▁Music	-11.2849
▁Part	-11.2853
▁however	-11.2853
▁waves	-11.2854
▁Rupees	-11.2857
ave	-11.2858
ates	-11.2858
▁tie	-11.2859
appa	-11.2861
▁rem	-11.2864
▁north	-11.2866
▁instruct	-11.287
RE	-11.2871
▁repeated	-11.2879
▁Recit	-11.2883
▁chooser	-11.2891
▁www	-11.2909
▁drinks	-11.2921
▁heirs	-11.2925
▁AT	-11.2926
▁serpents	-11.2931
त्य	-11.2936
94	-11.2939
rah	-11.2952
▁palming	-11.2955
▁rocks	-11.2956
▁protecting	-11.296
▁spreading	-11.2969
▁recit	-11.2986
▁functioning	-11.2989
▁verses	-11.2993
▁dwelling	-11.2996
sir	-11.3003
ral	-11.3003
▁Suppliers	-11.3006
▁transactions	-11.3006
▁Accounting	-11.301
▁Initial	-11.301
▁chants	-11.3019
▁plugins	-11.3044
▁describes	-11.3056
▁Wil	-11.3065
▁talking	-11.3071
atma	-11.3082
▁Vya	-11.3091
▁acts	-11.3109
dah	-11.3116
▁chairs	-11.3118
▁Leg	-11.3125
▁Contents	-11.3136
paternal	-11.315
▁equals	-11.3189
▁committ	-11.3193
▁flows	-11.3209
▁sings	-11.3221
Sri	-11.3234
fic	-11.3245
▁abid	-11.3252
begin	-11.3262
Describ	-11.3295
▁winds	-11.3295
rom	-11.3299
▁vi	-11.334
my	-11.3345
▁Ver	-11.3371
▁scientist	-11.3384
wara	-11.3407
▁75	-11.3419
Alternate	-11.3419
dev	-11.3429
2'	-11.3438
▁angles	-11.3466
yal	-11.3499
▁Ms	-11.3501
▁Greet	-11.3507
rise	-11.3508
iti	-11.3513
izing	-11.3516
String	-11.353
▁Cl	-11.3556
llow	-11.356
ham	-11.3563
▁nostrils	-11.3566
ू	-11.3587
▁45	-11.3592
▁Budgets	-11.3592
▁searching	-11.3592
put	-11.3606
▁Plan	-11.3628
▁Mantra	-11.3637
▁hole	-11.364
▁talent	-11.3641
▁planet	-11.3642
▁soldier	-11.3643
▁Fund	-11.3645
▁revolve	-11.3651
ier	-11.3653
ruta	-11.3654
sign	-11.3666
tur	-11.3681
Bas	-11.3682
Any	-11.3682
run	-11.3683
lear	-11.3688
initial	-11.3699
ries	-11.37
▁tr	-11.3704
▁worked	-11.3706
mission	-11.3711
Though	-11.3713
dharma	-11.3713
order	-11.3713
40	-11.3713
Stretch	-11.3714
Learn	-11.3714
Yogi	-11.3714
Just	-11.3715
public	-11.3715
Check	-11.3715
Close	-11.3715
Food	-11.3715
open	-11.3715
position	-11.3716
water	-11.3716
Basic	-11.3716
▁mourn	-11.3717
▁reduc	-11.3717
yoga	-11.3718
▁kern	-11.372
who	-11.372
tex	-11.3722
gave	-11.3723
▁believes	-11.3727
▁interpret	-11.3728
▁exp	-11.3729
abc	-11.3734
▁par	-11.3735
▁pluck	-11.3736
plants	-11.3736
▁reject	-11.3736
▁keywords	-11.3736
▁renew	-11.3737
▁uncheck	-11.3738
▁introduce	-11.3747
▁valid	-11.3748
▁organize	-11.3749
▁scrip	-11.3749
▁Comp	-11.3751
▁mad	-11.3757
▁tea	-11.376
ugh	-11.376
▁molecul	-11.376
▁acquire	-11.3761
▁vanish	-11.3761
भ	-11.3761
▁Shakt	-11.3762
▁Sandhya	-11.3764
ान्	-11.3765
▁thunder	-11.3765
▁lad	-11.3765
▁preced	-11.3765
ilikarana	-11.3765
ो	-11.3765
nputStreamReader	-11.3765
ster	-11.3765
श्लोक	-11.3765
▁2019	-11.3765
▁3.20.1	-11.3765
▁ARGV	-11.3765
▁Accessories	-11.3765
▁Achaia	-11.3765
▁Ayodhya	-11.3765
▁Channel	-11.3765
▁Convert	-11.3765
▁Elisabeth	-11.3765
▁Execut	-11.3765
▁Friend	-11.3765
▁Interface	-11.3765
▁Knowledge	-11.3765
▁Laodicea	-11.3765
▁Melchisedec	-11.3765
▁NCBI	-11.3765
▁PATH	-11.3765
▁Perspective	-11.3765
▁Principal	-11.3765
▁SHAKT	-11.3765
▁Session	-11.3765
▁Sidebar	-11.3765
▁VIKASAKA	-11.3765
▁Vitamin	-11.3765
▁appeal	-11.3765
▁behalf	-11.3765
▁believing	-11.3765
▁chapati	-11.3765
▁convince	-11.3765
▁creativity	-11.3765
▁doPost	-11.3765
▁drank	-11.3765
▁esteem	-11.3765
▁fellowservant	-11.3765
▁female	-11.3765
▁fifth	-11.3765
▁flock	-11.3765
▁gazing	-11.3765
▁gender	-11.3765
▁graphite	-11.3765
▁hexagon	-11.3765
▁identity	-11.3765
▁implicit	-11.3765
▁incident	-11.3765
▁industry	-11.3765
▁injury	-11.3765
▁iostream	-11.3765
▁libraries	-11.3765
▁license	-11.3765
▁manipulate	-11.3765
▁mudrá	-11.3765
▁oneself	-11.3765
▁palsy	-11.3765
▁pelvi	-11.3765
▁photo	-11.3765
▁purity	-11.3765
▁queries	-11.3765
▁rotating	-11.3765
▁thrice	-11.3765
▁uniform	-11.3765
▁2.4.7	-11.3765
▁Resources	-11.3765
▁Status	-11.3765
▁buried	-11.3765
▁eagle	-11.3765
▁navel	-11.3765
▁quizzes	-11.3765
▁wrist	-11.3765
▁Apollos	-11.3765
▁Jonas	-11.3765
▁grind	-11.3765
▁secure	-11.3765
▁yajna	-11.3765
▁proud	-11.3765
▁tiger	-11.3765
▁Saint	-11.3765
▁Sister	-11.3765
▁sports	-11.3765
▁transparency	-11.3765
▁travail	-11.3765
response	-11.3765
▁Assets	-11.3765
▁Reena	-11.3765
▁html	-11.3765
▁vlc	-11.3765
▁ptr	-11.3765
▁boon	-11.3765
▁furniture	-11.3765
▁nails	-11.3765
▁bullet	-11.3765
▁thanksgiving	-11.3765
▁Kaivalya	-11.3766
▁incline	-11.3766
▁orientation	-11.3766
▁cube	-11.3766
▁prefix	-11.3766
▁adversary	-11.3766
▁grandmother	-11.3766
▁orange	-11.3766
▁harp	-11.3766
▁relative	-11.3766
▁worry	-11.3766
▁Aryabhatt	-11.3766
▁huge	-11.3766
▁loving	-11.3766
▁Vyasa	-11.3766
▁economy	-11.3766
▁Durga	-11.3766
▁wonderful	-11.3766
▁studentDetail	-11.3767
▁Siva	-11.3767
▁cock	-11.3767
▁strain	-11.3767
▁Truth	-11.3767
▁covetousness	-11.3767
Besides	-11.3767
▁wings	-11.3767
▁arya	-11.3767
▁Correctness	-11.3767
nary	-11.3767
▁cave	-11.3767
Meaning	-11.3767
▁entangle	-11.3767
▁revision	-11.3767
▁Receive	-11.3768
▁frequently	-11.3768
▁Amazon	-11.3768
▁Environment	-11.3768
▁Arithmetic	-11.3768
▁mace	-11.3768
▁grew	-11.3769
▁MethodDemo	-11.3769
▁dull	-11.3769
▁acceptable	-11.3769
▁Enhance	-11.3769
▁reset	-11.377
▁multiplied	-11.377
▁vine	-11.377
▁showData	-11.3771
▁sickle	-11.3772
▁agricultur	-11.3772
▁lady	-11.3772
▁explicitly	-11.3773
▁privileges	-11.3773
▁Location	-11.3773
onour	-11.3773
▁soweth	-11.3774
▁diamond	-11.3774
▁mustard	-11.3774
▁3.7	-11.3774
▁differentiate	-11.3774
▁peril	-11.3774
▁Day	-11.3775
▁chasten	-11.3775
▁won	-11.3775
▁mangoes	-11.3775
▁obstacles	-11.3776
▁Kama	-11.3777
▁coal	-11.3777
▁Chin	-11.3777
▁Develop	-11.3778
▁overcometh	-11.3778
▁forthwith	-11.3778
▁htdocs	-11.3779
▁reproduction	-11.3779
▁tilde	-11.3779
▁manual	-11.378
▁Sunday	-11.3781
▁edifying	-11.3783
▁Share	-11.3783
▁Size	-11.3783
▁Fine	-11.3784
▁brown	-11.3785
▁darkened	-11.3785
▁Relati	-11.3787
▁Exception	-11.3788
ork	-11.3788
▁defiled	-11.3788
▁mocked	-11.3788
▁gladly	-11.3789
▁Children	-11.379
▁Bhima	-11.3791
▁श	-11.3791
▁Zo	-11.3792
▁cable	-11.3792
▁highlighting	-11.3793
▁awake	-11.3796
zone	-11.3796
▁despised	-11.3799
▁vibrations	-11.3799
▁possession	-11.38
▁touches	-11.3801
▁Chooser	-11.3801
▁expel	-11.3802
▁Put	-11.3803
▁Ask	-11.3803
▁Sort	-11.3804
▁shop	-11.3809
▁enrollments	-11.3813
▁calculations	-11.3813
▁cite	-11.3814
▁FS	-11.3815
▁ir	-11.3816
kin	-11.3818
▁dharma	-11.3818
▁calculated	-11.3823
▁cure	-11.3825
▁compounds	-11.3827
liness	-11.383
▁Though	-11.383
▁tolera	-11.3833
get	-11.3833
▁cin	-11.3836
▁camera	-11.3836
▁vertically	-11.3837
▁officers	-11.3842
▁becoming	-11.3846
nga	-11.3846
▁reported	-11.3849
fix	-11.385
▁Details	-11.385
seat	-11.3851
▁streets	-11.3854
▁lobes	-11.3854
▁pole	-11.3862
▁obeyed	-11.3863
▁ill	-11.3868
▁drums	-11.3873
▁reader	-11.3874
▁downwards	-11.3881
anga	-11.3887
Initial	-11.3894
▁revolves	-11.3895
▁island	-11.3902
▁formation	-11.3906
rung	-11.3907
▁tasks	-11.3908
▁multiples	-11.3909
▁Sirs	-11.391
▁matched	-11.3911
▁grains	-11.3931
▁inwards	-11.3935
▁stoned	-11.394
▁Methods	-11.3963
▁seals	-11.3965
▁ka	-11.3967
Begin	-11.3971
▁Tables	-11.3978
▁covering	-11.3984
▁bonding	-11.3996
▁Niyamas	-11.4005
ela	-11.401
dhara	-11.4016
▁besides	-11.4019
log	-11.4019
▁tin	-11.4019
▁prays	-11.4027
▁nets	-11.4031
land	-11.4034
▁loads	-11.4049
▁sleeping	-11.405
▁planted	-11.4056
▁cm	-11.4058
16-	-11.4086
...........	-11.4087
▁pots	-11.4088
▁pleasures	-11.4102
▁Maya	-11.4109
taka	-11.4125
▁Nay	-11.4128
owl	-11.4131
▁constants	-11.4144
▁gathering	-11.4146
Sir	-11.417
,000	-11.4181
Details	-11.4184
▁watched	-11.4189
eground	-11.421
▁sacrific	-11.4211
formation	-11.4212
ified	-11.4226
▁daughters	-11.4228
▁@	-11.4228
aster	-11.4236
▁presented	-11.4239
rush	-11.4244
▁ships	-11.4252
▁tra	-11.4254
▁hairs	-11.4262
▁praying	-11.4269
▁liken	-11.4271
Art	-11.4273
uri	-11.4278
▁tooth	-11.4278
itable	-11.4287
krut	-11.4289
ew	-11.429
▁Co	-11.4314
▁measures	-11.4318
▁lies	-11.432
nant	-11.4323
thira	-11.4344
▁mu	-11.4351
▁trans	-11.4353
mous	-11.4354
▁rooms	-11.4356
▁restrain	-11.4358
▁Jo	-11.437
ause	-11.4394
▁praises	-11.4414
▁cont	-11.4438
▁tar	-11.4452
▁Siddh	-11.4459
▁Pages	-11.447
tent	-11.4477
▁ministers	-11.448
▁colored	-11.4496
▁videos	-11.4513
alent	-11.4528
22	-11.4547
▁wor	-11.4559
▁fi	-11.456
▁1.7	-11.4564
▁ban	-11.4568
▁interfaces	-11.4569
▁perceiv	-11.4572
ital	-11.4598
▁conc	-11.4606
vit	-11.4612
▁Sav	-11.4612
▁coloured	-11.4614
PID	-11.4647
ought	-11.468
table	-11.4687
tres	-11.469
▁Sarva	-11.4693
▁chit	-11.4719
tial	-11.4732
▁Grid	-11.4744
▁incarnation	-11.4744
▁physician	-11.4746
▁Molecul	-11.4747
▁Rishi	-11.4748
▁instruction	-11.4748
▁kindred	-11.4748
▁Shloka	-11.4751
▁device	-11.4753
▁Bookmark	-11.4753
▁elbow	-11.4753
▁preference	-11.4753
▁guideline	-11.4753
▁Window	-11.4754
▁identifier	-11.4756
riti	-11.4758
▁coat	-11.4761
djust	-11.4767
▁surrounding	-11.4769
▁needles	-11.4769
▁downward	-11.4773
▁prisoner	-11.4775
▁electro	-11.4781
▁product	-11.4789
▁outward	-11.4789
▁scatter	-11.4798
▁overlap	-11.4801
nsure	-11.4802
▁प्र	-11.4803
ev	-11.4811
where	-11.4816
▁fee	-11.4818
Q	-11.4823
Servlet	-11.4823
[	-11.4824
case	-11.4825
Grace	-11.4825
Most	-11.4825
Practice	-11.4826
Simon	-11.4826
block	-11.4826
Observe	-11.4826
knowledge	-11.4826
execute	-11.4826
value	-11.4826
default	-11.4826
Watch	-11.4826
life	-11.4826
fig	-11.4827
brush	-11.4829
Pada	-11.483
▁Catalog	-11.483
shell	-11.4831
▁bury	-11.4831
result	-11.4832
▁releas	-11.4833
Up	-11.4838
Item	-11.4841
▁utter	-11.4845
▁boil	-11.4846
▁exalt	-11.4848
▁pitch	-11.4848
center	-11.4851
▁pane	-11.4852
▁clothe	-11.4854
▁grieve	-11.4859
▁drunk	-11.4863
▁Super	-11.4865
▁exact	-11.4867
->	-11.4869
▁murder	-11.4869
▁tight	-11.4869
▁jerk	-11.487
▁administrati	-11.487
place	-11.4871
▁emp	-11.4871
▁scienti	-11.4872
▁effective	-11.4872
randfather	-11.4875
▁courage	-11.4875
▁greet	-11.4876
▁Sign	-11.4876
▁plough	-11.4876
ActionPerformed	-11.4876
▁11.04	-11.4876
▁convention	-11.4876
▁fierce	-11.4876
▁imbalance	-11.4876
▁regulation	-11.4876
▁statistic	-11.4876
▁thirty	-11.4876
NAME	-11.4876
Rejoice	-11.4876
cobalt	-11.4876
~	-11.4876
▁Ananias	-11.4876
▁Bibliographic	-11.4876
▁Buddha	-11.4876
▁Caiaphas	-11.4876
▁Context	-11.4876
▁Dasharatha	-11.4876
▁December	-11.4876
▁Divine	-11.4876
▁Draupadi	-11.4876
▁Features	-11.4876
▁LMS	-11.4876
▁Narada	-11.4876
▁Optional	-11.4876
▁Overlay	-11.4876
▁Quotation	-11.4876
▁Sattwa	-11.4876
▁Summary	-11.4876
▁Syria	-11.4876
▁Tádásana	-11.4876
▁assembly	-11.4876
▁blade	-11.4876
▁brimstone	-11.4876
▁bulk	-11.4876
▁circular	-11.4876
▁constitute	-11.4876
▁consumption	-11.4876
▁deities	-11.4876
▁delusion	-11.4876
▁dynamic	-11.4876
▁evolute	-11.4876
▁frontacc	-11.4876
▁grammar	-11.4876
▁grievous	-11.4876
▁guilty	-11.4876
▁harlot	-11.4876
▁hungred	-11.4876
▁hungry	-11.4876
▁imagine	-11.4876
▁jitter	-11.4876
▁lemon	-11.4876
▁mRNA	-11.4876
▁minimize	-11.4876
▁mushroom	-11.4876
▁necessity	-11.4876
▁participant	-11.4876
▁photograph	-11.4876
▁plenty	-11.4876
▁relieve	-11.4876
▁signature	-11.4876
▁sincerity	-11.4876
▁slept	-11.4876
▁summarise	-11.4876
▁tetrarch	-11.4876
▁tidings	-11.4876
▁unlearned	-11.4876
▁vinegar	-11.4876
▁visual	-11.4876
▁forearms	-11.4876
▁freedom	-11.4876
▁rapid	-11.4876
▁steel	-11.4876
▁Break	-11.4876
▁gopika	-11.4876
▁staves	-11.4876
▁submissions	-11.4876
▁tired	-11.4876
▁explanation	-11.4876
▁dishes	-11.4876
▁shelter	-11.4876
Focus	-11.4876
SRU	-11.4876
▁Bold	-11.4876
▁grey	-11.4876
▁heathen	-11.4876
▁midnight	-11.4876
▁consult	-11.4876
▁responsibility	-11.4876
mrk	-11.4876
▁asunder	-11.4876
▁dense	-11.4876
▁firstfruits	-11.4876
▁reverence	-11.4876
▁absence	-11.4876
▁biological	-11.4876
ात्र	-11.4876
Available	-11.4876
▁rainfall	-11.4876
▁subcategories	-11.4876
▁Nadishuddhi	-11.4877
▁Desi	-11.4877
▁Barcode	-11.4877
▁capture	-11.4877
---------------	-11.4877
▁communicate	-11.4877
▁brahmins	-11.4877
▁stability	-11.4877
▁marvel	-11.4877
▁Shashankasana	-11.4877
▁kriya	-11.4877
▁Shuddhi	-11.4877
▁Financ	-11.4877
▁insulin	-11.4877
▁uppercase	-11.4877
xlsx	-11.4877
▁sales	-11.4877
▁Homepage	-11.4877
▁preparation	-11.4877
▁begun	-11.4877
▁koha	-11.4877
▁blasphemy	-11.4877
▁tuck	-11.4877
▁yoke	-11.4877
▁Assign	-11.4877
▁shade	-11.4877
▁resistant	-11.4877
▁hundredfold	-11.4877
▁evolved	-11.4877
▁Replace	-11.4878
▁trespasses	-11.4878
▁Docs	-11.4878
▁pollute	-11.4878
▁foam	-11.4878
▁breakpoint	-11.4878
Small	-11.4878
▁initialization	-11.4878
▁Bengali	-11.4879
▁potter	-11.4879
▁review	-11.4879
▁IITB	-11.4879
▁girdle	-11.4879
▁256	-11.4879
▁Scrap	-11.4879
▁tall	-11.4879
▁hierarchy	-11.4879
▁tension	-11.4879
karma	-11.4879
▁eleventh	-11.488
▁pink	-11.488
▁Administrator	-11.488
▁Yudhishthra	-11.488
▁boolean	-11.488
▁crocodile	-11.488
▁dinosaur	-11.488
▁protozoa	-11.488
▁accusers	-11.488
▁GST	-11.488
▁127	-11.488
▁sorrowful	-11.488
▁Pass	-11.4881
▁dancers	-11.4881
▁forsake	-11.4882
▁intensi	-11.4882
▁Star	-11.4882
▁Jala	-11.4882
dcast	-11.4884
▁firstborn	-11.4884
Test	-11.4885
▁enjoyment	-11.4885
▁earnestly	-11.4885
▁layout	-11.4885
▁approved	-11.4885
▁Asteya	-11.4886
▁poison	-11.4886
▁revolution	-11.4886
▁stablish	-11.4886
▁boost	-11.4886
▁000	-11.4886
▁cage	-11.4886
▁succession	-11.4887
▁publication	-11.4887
▁weakness	-11.4888
▁Calculator	-11.4888
▁bigge	-11.4889
▁repeatedly	-11.489
▁tones	-11.4891
▁(&	-11.4892
▁eighth	-11.4892
▁Hindi	-11.4892
▁astronomy	-11.4892
▁Black	-11.4892
▁survive	-11.4893
▁arrive	-11.4895
▁dam	-11.4896
▁Vis	-11.4896
these	-11.4896
▁spra	-11.4897
▁Command	-11.4898
▁versa	-11.4899
▁Land	-11.4899
▁Touch	-11.4899
▁retained	-11.4899
▁polluted	-11.4899
▁jewels	-11.49
▁pearls	-11.49
▁wrapp	-11.4901
▁gar	-11.4901
▁emotions	-11.4901
▁blinking	-11.4902
▁burnt	-11.4905
▁castle	-11.4907
▁digging	-11.4907
▁namespace	-11.4909
▁endured	-11.4909
▁plucked	-11.491
▁interpreted	-11.491
▁exceedingly	-11.491
▁Head	-11.4911
shastra	-11.4912
▁beneath	-11.4913
iya	-11.4914
ium	-11.4915
▁swim	-11.4919
▁fulfill	-11.492
▁soap	-11.4927
▁breadcrumbs	-11.493
▁tormented	-11.4934
▁harden	-11.4935
▁deer	-11.4938
▁watches	-11.4945
▁Done	-11.4946
▁descended	-11.4948
▁fasten	-11.4951
▁anti	-11.4951
▁sowing	-11.4952
▁invite	-11.4955
▁Thing	-11.4956
▁reckon	-11.4958
▁Acquisitions	-11.4961
▁Jivas	-11.4961
▁substances	-11.4961
▁Operators	-11.4963
▁MM	-11.4963
ALT	-11.4964
▁sawest	-11.4969
solu	-11.4969
Avoid	-11.4974
▁Like	-11.4982
▁wouldest	-11.4982
▁entirely	-11.4986
▁ok	-11.5005
▁Rishis	-11.5007
▁ha	-11.5007
12	-11.5012
▁villager	-11.5014
▁Mantras	-11.5022
▁Sion	-11.5027
lks	-11.5033
▁eggs	-11.5038
2--	-11.5038
▁computers	-11.5049
▁7.0	-11.5049
▁aid	-11.5058
uli	-11.5066
▁virtues	-11.5068
▁fools	-11.5068
▁influence	-11.5074
▁logarithm	-11.5075
▁flowing	-11.5079
▁Pen	-11.5081
▁toString	-11.5087
Th	-11.5101
▁ver	-11.5108
dri	-11.511
uddhi	-11.5115
▁2'	-11.5122
bel	-11.5125
▁blur	-11.5126
▁wheels	-11.5131
▁sta	-11.5136
▁inquire	-11.514
▁sorting	-11.5145
▁inher	-11.5152
rop	-11.5154
ient	-11.5159
was	-11.516
▁presentations	-11.5162
▁chains	-11.5162
can	-11.5178
▁Anna	-11.5185
▁afore	-11.519
▁reserve	-11.5192
▁pairs	-11.5193
ila	-11.5201
▁JSPs	-11.5209
▁overwrit	-11.5232
▁14.04,	-11.5232
▁sweets	-11.524
▁pe	-11.524
▁nights	-11.524
rm	-11.5249
Hint	-11.5253
▁7.0.	-11.526
21	-11.5277
▁forces	-11.5278
you	-11.5281
▁sits	-11.5282
▁balls	-11.5287
▁Spe	-11.5291
▁strokes	-11.5319
▁Levels	-11.5319
▁shy	-11.5341
▁stages	-11.5366
▁Groups	-11.5366
SO	-11.5372
▁beam	-11.5384
▁tri	-11.5393
nder	-11.5419
LL	-11.5431
▁cultures	-11.5447
▁stays	-11.5462
▁rec	-11.5474
Never	-11.5475
more	-11.5492
▁oils	-11.5493
▁MO	-11.5502
▁0.48.4	-11.5503
▁participat	-11.5535
gif	-11.5535
▁wa	-11.5552
core	-11.5573
▁pric	-11.5577
any	-11.5588
▁copying	-11.5602
▁subjects	-11.5607
mpact	-11.5608
Ex	-11.5629
▁sho	-11.5652
profitable	-11.5655
▁Ank	-11.5672
ric	-11.5678
▁ve	-11.569
HE	-11.569
▁referr	-11.5703
reserved	-11.5779
▁Hi	-11.5835
▁generations	-11.5836
▁Marc	-11.5866
▁Shah	-11.587
olutions	-11.5871
class	-11.5901
▁Rat	-11.5903
complete	-11.5925
▁whoso	-11.593
▁talks	-11.594
500	-11.5941
organism	-11.5946
▁Pet	-11.5951
avy	-11.5985
▁Himalaya	-11.5994
▁margin	-11.5997
▁saree	-11.5997
▁habit	-11.5997
▁Rupee	-11.5999
▁guest	-11.5999
▁monkey	-11.6001
▁partaker	-11.6002
▁murderer	-11.6003
▁Setting	-11.6007
▁publican	-11.6009
▁fist	-11.6011
▁situation	-11.6012
▁sometime	-11.6021
▁Area	-11.6024
▁em	-11.6033
▁upward	-11.6048
link	-11.6056
▁demon	-11.6061
▁declar	-11.6062
Think	-11.6071
hello	-11.6071
Alright	-11.6073
copies	-11.6075
Two	-11.6075
noun	-11.6075
Z	-11.6076
Path	-11.6076
Sutra	-11.6076
application	-11.6076
group	-11.6076
function	-11.6076
Krishna	-11.6076
Peter	-11.6076
Press	-11.6076
Start	-11.6076
Change	-11.6076
because	-11.6076
development	-11.6076
heart	-11.6076
Amount	-11.6077
File	-11.6077
will	-11.6078
▁Addition	-11.6078
Gita	-11.6079
same	-11.6079
chief	-11.6079
Bend	-11.608
sharpened	-11.6081
▁lean	-11.6081
▁suppos	-11.6082
▁delet	-11.6083
soft	-11.6088
Sama	-11.6093
▁terminat	-11.6095
▁train	-11.6096
▁expect	-11.6096
▁disturb	-11.6096
▁prevail	-11.6096
▁laugh	-11.6096
▁dissolv	-11.6096
▁travel	-11.6096
▁anoint	-11.6098
▁mock	-11.6098
▁establish	-11.6098
flower	-11.61
▁Tulsi	-11.6101
▁forbear	-11.6103
▁devi	-11.6103
▁resolve	-11.6108
▁cease	-11.6109
code	-11.6111
▁Rotat	-11.6111
▁Rabbi	-11.6112
▁abundant	-11.6115
about	-11.6117
▁Custom	-11.6119
▁browse	-11.612
▁knock	-11.612
▁originate	-11.6121
emicolon	-11.6121
asket	-11.6122
▁Correct	-11.6124
ã	-11.6125
hemical	-11.6125
ontact	-11.6125
Turtle	-11.6125
rinciples	-11.6125
▁prosper	-11.6125
erhaps	-11.6126
abilities	-11.6126
civi	-11.6126
▁civil	-11.6126
fasta	-11.6126
▁BibTeX	-11.6126
▁chlorophyll	-11.6126
▁purse	-11.6126
▁sprinkl	-11.6126
▁stiff	-11.6126
▁अर्जुन	-11.6126
Attribute	-11.6126
Immediately	-11.6126
Jatru	-11.6126
▁2018	-11.6126
▁ARGC	-11.6126
▁April	-11.6126
▁Bhagya	-11.6126
▁Boolean	-11.6126
▁Calendar	-11.6126
▁Daughter	-11.6126
▁Deposit	-11.6126
▁Eraser	-11.6126
▁Error	-11.6126
▁Friday	-11.6126
▁Fung	-11.6126
▁Hosanna	-11.6126
▁JESUS	-11.6126
▁Jericho	-11.6126
▁Proxy	-11.6126
▁Release	-11.6126
▁Scatter	-11.6126
▁Spray	-11.6126
▁Support	-11.6126
▁Svasti	-11.6126
▁Troas	-11.6126
▁VYAYAMA	-11.6126
▁Warrior	-11.6126
▁Workspace	-11.6126
▁Zacharias	-11.6126
▁allocate	-11.6126
▁audience	-11.6126
▁beauty	-11.6126
▁comparison	-11.6126
▁confident	-11.6126
▁coordination	-11.6126
▁cotton	-11.6126
▁desolate	-11.6126
▁emphasize	-11.6126
▁expedient	-11.6126
▁famine	-11.6126
▁flexible	-11.6126
▁getParameter	-11.6126
▁globe	-11.6126
▁hygiene	-11.6126
▁illusion	-11.6126
▁lump	-11.6126
▁magenta	-11.6126
▁magnify	-11.6126
▁obedient	-11.6126
▁occurrence	-11.6126
▁perdition	-11.6126
▁pleasing	-11.6126
▁precautions	-11.6126
▁rakshasa	-11.6126
▁reaction	-11.6126
▁scissors	-11.6126
▁sensitivity	-11.6126
▁spices	-11.6126
▁supplication	-11.6126
▁swelling	-11.6126
▁throat	-11.6126
▁tumult	-11.6126
▁unbelieving	-11.6126
▁unleavened	-11.6126
▁userExists	-11.6126
▁vehemently	-11.6126
Notwithstanding	-11.6126
fileinfo	-11.6126
▁Bliss	-11.6126
▁CSV	-11.6126
▁Carboxyl	-11.6126
▁Surname	-11.6126
▁camp	-11.6126
▁complicated	-11.6126
▁headache	-11.6126
▁muscular	-11.6126
▁particles	-11.6126
▁tidy	-11.6126
▁1.1.1	-11.6126
▁Blood	-11.6126
▁foul	-11.6126
▁multiply	-11.6126
▁snare	-11.6126
▁Vivekananda	-11.6126
▁liberated	-11.6126
▁Paste	-11.6126
▁buttonhole	-11.6126
▁consent	-11.6126
▁clipboard	-11.6126
▁Bhee	-11.6126
▁swallow	-11.6126
▁Sodom	-11.6126
▁Nested	-11.6126
▁Style	-11.6126
▁resort	-11.6126
▁violence	-11.6126
▁Straight	-11.6126
▁wizard	-11.6126
Multi	-11.6126
▁Network	-11.6126
▁neglect	-11.6126
▁Debugger	-11.6126
▁barren	-11.6126
▁Lystra	-11.6126
▁shortened	-11.6127
▁cough	-11.6127
Garden	-11.6127
▁Pont	-11.6127
▁uttermost	-11.6127
▁coconut	-11.6127
▁Version	-11.6127
▁population	-11.6127
▁shock	-11.6127
▁pests	-11.6127
▁defeat	-11.6127
▁immortality	-11.6127
▁transferred	-11.6127
▁Kunti	-11.6127
▁TestStudent	-11.6127
▁lament	-11.6127
▁massage	-11.6127
▁novel	-11.6127
▁banana	-11.6127
▁samskritam	-11.6127
Sahasra	-11.6127
▁greetings	-11.6127
▁zealous	-11.6127
▁expans	-11.6127
▁export	-11.6127
▁energies	-11.6127
▁knot	-11.6127
▁eras	-11.6127
▁tilt	-11.6127
▁puffe	-11.6127
▁Herodias	-11.6127
▁vowel	-11.6127
▁grasp	-11.6127
▁KTurtle	-11.6128
ित	-11.6128
Half	-11.6128
▁countries	-11.6128
▁tower	-11.6128
Madhu	-11.6128
▁Kruta	-11.6128
▁community	-11.6128
▁portlet	-11.6128
▁bajra	-11.6128
का	-11.6128
▁ladies	-11.6128
▁resona	-11.6128
▁10.04.	-11.6128
▁dispute	-11.6128
▁flute	-11.6128
▁jealousy	-11.6129
▁loins	-11.6129
▁avenge	-11.6129
▁unprofitable	-11.6129
▁controlling	-11.6129
▁Invalid	-11.6129
▁stripes	-11.6129
▁allot	-11.6129
▁recitation	-11.6129
▁Narayana	-11.6129
▁vice	-11.6129
▁maintenance	-11.6129
▁wage	-11.6129
▁duration	-11.6129
▁FOSS	-11.613
▁dash	-11.613
OU	-11.613
▁Agastya	-11.613
▁merciful	-11.613
▁semi	-11.613
▁Vibhuti	-11.6131
▁Highest	-11.6131
▁blew	-11.6131
▁bath	-11.6132
▁tares	-11.6132
▁Free	-11.6132
▁payment	-11.6132
▁Four	-11.6133
▁entreated	-11.6133
flies	-11.6133
▁habitation	-11.6133
▁election	-11.6133
▁foolishness	-11.6133
▁planes	-11.6134
▁tries	-11.6134
▁ashes	-11.6134
▁MarcEditor	-11.6134
▁oxen	-11.6135
▁lid	-11.6135
▁accuracy	-11.6135
▁fearful	-11.6136
▁transgression	-11.6136
▁nay	-11.6136
▁interlocked	-11.6136
▁forgiveness	-11.6137
▁Kali	-11.6137
▁cooker	-11.6137
▁incr	-11.6137
▁Fish	-11.6137
▁Enjoy	-11.6137
▁Reproduction	-11.6137
▁enumerate	-11.6137
▁Phone	-11.6137
▁sharpness	-11.6137
▁offline	-11.6138
▁ox	-11.6138
▁specification	-11.6138
▁greedy	-11.6138
witch	-11.6138
▁brightness	-11.6139
▁despiseth	-11.6139
ertical	-11.614
▁Ayurveda	-11.614
▁reconciled	-11.614
▁refused	-11.6141
▁sickness	-11.6141
▁trod	-11.6142
FT	-11.6142
▁repetition	-11.6143
urge	-11.6144
▁reply	-11.6144
▁Play	-11.6144
▁wake	-11.6145
▁organization	-11.6145
▁Sura	-11.6145
▁Vishva	-11.6145
▁Repeatable	-11.6147
▁pet	-11.6147
्या	-11.6148
▁published	-11.6148
▁Acharya	-11.6148
▁Pull	-11.6149
Are	-11.6149
▁Sound	-11.615
▁adorn	-11.615
▁ग	-11.6151
▁acquired	-11.6151
▁Reduce	-11.6151
▁feather	-11.6151
▁involutes	-11.6153
▁Cost	-11.6153
▁principles	-11.6154
▁Eli	-11.6155
harshita	-11.6155
▁abst	-11.6155
▁odd	-11.6156
▁Relation	-11.6156
▁softer	-11.6157
▁Creator	-11.6158
▁purchased	-11.6158
▁वि	-11.6158
▁mysql	-11.6158
▁Such	-11.6161
▁partial	-11.6161
▁correction	-11.6161
▁mentally	-11.6162
stdio	-11.6163
hood	-11.6164
▁250	-11.6165
▁Yahoo	-11.6166
▁kit	-11.6166
▁72	-11.6166
▁Bala	-11.6166
hree	-11.6167
▁deeper	-11.6168
▁"""5.	-11.6168
▁IIT	-11.6174
▁Calculat	-11.6176
▁bid	-11.6176
▁wounded	-11.6177
▁judgeth	-11.6177
▁texture	-11.6177
▁Alright	-11.618
chi	-11.6181
▁reversed	-11.6182
▁totally	-11.6183
▁escaped	-11.6184
▁q	-11.6187
▁kerning	-11.6187
▁ropes	-11.6188
▁remaineth	-11.6188
▁creepers	-11.6188
▁sowed	-11.6188
▁stirre	-11.6189
▁0%	-11.6189
▁counter	-11.6192
▁lightness	-11.6194
▁14	-11.6196
luminous	-11.6197
organisms	-11.6199
Hit	-11.62
▁ideal	-11.6201
▁miser	-11.6201
▁bark	-11.6202
▁Romans	-11.6205
▁getter	-11.6206
▁ador	-11.6209
▁standeth	-11.6214
▁23	-11.6214
▁According	-11.6216
▁Due	-11.6216
▁pond	-11.6217
▁diseased	-11.6219
▁quarters	-11.6223
▁notifications	-11.6223
▁wandering	-11.6225
▁thereby	-11.6226
▁feeding	-11.6227
▁tick	-11.6229
▁arc	-11.6236
▁dal	-11.6237
▁Topics	-11.624
▁virgins	-11.624
war	-11.6243
credit	-11.6247
evel	-11.6249
born	-11.6257
▁wave	-11.6257
▁margins	-11.6258
▁sarees	-11.6258
data	-11.6259
▁murderers	-11.6259
▁greatness	-11.6259
▁perfectly	-11.6261
0%	-11.6262
▁rust	-11.6264
▁incomplete	-11.6264
▁Areas	-11.6265
udge	-11.6267
▁straighten	-11.6273
▁kindreds	-11.6275
▁Jana	-11.6275
▁identifiers	-11.6278
▁workers	-11.6282
▁wept	-11.6285
ength	-11.6285
▁processor	-11.6297
rest	-11.63
▁mil	-11.63
▁arrange	-11.63
labourers	-11.6306
Gopal	-11.6314
▁\	-11.6316
inary	-11.6318
▁objectives	-11.6323
dSum	-11.6324
shta	-11.6333
▁Gett	-11.6334
245	-11.6338
▁Gradients	-11.6346
▁hiding	-11.6347
▁Claim	-11.6364
▁cooks	-11.6365
▁heap	-11.6369
ards	-11.6378
▁kneel	-11.6385
ranya	-11.6387
illing	-11.6391
▁fragments	-11.6399
▁lifting	-11.6408
avas	-11.6417
▁subscriptions	-11.6417
riya	-11.6426
nta	-11.643
▁learner	-11.6431
▁commanders	-11.6432
▁intend	-11.6433
▁mere	-11.6441
▁honest	-11.6447
▁apt	-11.6451
▁feelings	-11.6453
▁mi	-11.6475
▁blessings	-11.6488
▁exceptions	-11.6509
Fe	-11.651
▁haste	-11.652
rjuna	-11.6532
treated	-11.6533
▁Bi	-11.6541
nanda	-11.6546
▁Expir	-11.6553
▁commun	-11.6555
▁goest	-11.6556
▁degrees	-11.656
make	-11.6564
▁toolbars	-11.6578
▁hat	-11.66
losing	-11.6603
▁Sar	-11.6614
▁prices	-11.6619
▁hydrogens	-11.6633
त्	-11.6637
▁Cli	-11.6643
▁Liv	-11.6645
▁resembl	-11.6656
▁flowering	-11.6666
hyayi	-11.6666
tip	-11.6672
cus	-11.6679
times	-11.6682
cml	-11.6692
▁recognize	-11.6713
▁marker	-11.6723
OS	-11.6723
▁familiarize	-11.6728
isc	-11.6735
▁artist	-11.678
Flowers	-11.6781
Everyone	-11.6789
ency	-11.6793
ground	-11.6804
esha	-11.6806
net	-11.6813
▁swords	-11.6816
esh	-11.6818
kru	-11.6839
lings	-11.684
▁Hid	-11.6848
yana	-11.6865
▁Fea	-11.6868
),"	-11.6872
▁Supta	-11.6873
▁detergent	-11.6887
lling	-11.689
App	-11.6891
▁modules	-11.6893
▁funds	-11.6908
▁pictures	-11.6908
▁rotates	-11.6909
▁reproach	-11.6927
▁spreads	-11.693
istic	-11.6934
▁compos	-11.6948
▁effectual	-11.699
▁Jyoti	-11.6991
▁expands	-11.7
tile	-11.7002
▁..........	-11.7018
attam	-11.7021
lab	-11.7036
arah	-11.7042
nan	-11.7055
cd	-11.7106
aries	-11.7169
▁fan	-11.7197
▁alternate	-11.7212
▁improv	-11.7215
search	-11.7242
alk	-11.7306
▁salut	-11.7365
ggle	-11.7374
ounded	-11.7375
▁accomplish	-11.7412
▁las	-11.7419
redit	-11.7421
▁candlestick	-11.7422
▁Dialog	-11.7422
▁snake	-11.7422
▁spreadsheet	-11.7422
▁vehicle	-11.7424
▁virgin	-11.7425
▁pound	-11.7426
▁street	-11.7427
▁drum	-11.7427
▁satellite	-11.7428
▁Topic	-11.7428
▁breed	-11.7429
▁lobe	-11.743
▁idol	-11.743
▁brace	-11.743
▁warrior	-11.7431
▁Extension	-11.7431
▁bottle	-11.7435
▁plate	-11.7435
▁tear	-11.7447
07	-11.7448
▁stranger	-11.745
▁accus	-11.7465
या	-11.7467
Pray	-11.7478
▁ascend	-11.7479
▁Yaj	-11.7482
even	-11.749
account	-11.75
move	-11.75
know	-11.7501
IIT	-11.7502
Music	-11.7503
Author	-11.7503
▁min	-11.7503
Great	-11.7503
Follow	-11.7503
degree	-11.7504
▁loos	-11.7504
colon	-11.7504
Human	-11.7504
Title	-11.7504
Karma	-11.7504
People	-11.7504
happen	-11.7504
directories	-11.7504
bacteria	-11.7504
generate	-11.7504
Water	-11.7504
Place	-11.7504
http	-11.7505
Search	-11.7505
paste	-11.7505
front	-11.7505
Relaxation	-11.7505
John	-11.7505
Java	-11.7505
speak	-11.7505
testdir	-11.7505
count	-11.7505
Lord	-11.7505
create	-11.7505
close	-11.7505
between	-11.7506
▁leap	-11.7506
Indian	-11.7506
shop	-11.7506
▁Guide	-11.7506
dung	-11.7506
▁purify	-11.7508
Over	-11.7509
▁exceed	-11.7509
ulate	-11.7511
bow	-11.7511
based	-11.7511
made	-11.7511
Line	-11.7513
organs	-11.7515
▁Serv	-11.7517
email	-11.7517
▁Cook	-11.7519
▁carri	-11.7523
▁retain	-11.7525
▁Enrol	-11.7526
▁logic	-11.7527
▁transgress	-11.7527
EW	-11.7532
▁choos	-11.7532
VIR	-11.7533
ctivity	-11.7533
▁Rule	-11.7535
▁baptize	-11.7538
pair	-11.7543
▁earnest	-11.7544
▁explicit	-11.7544
▁Melakart	-11.7546
▁Suryanamaskar	-11.7547
▁profession	-11.7549
pecify	-11.755
▁dirt	-11.755
▁lover	-11.7551
ental	-11.7552
▁prop	-11.7552
ock	-11.7553
▁compass	-11.7553
▁Attach	-11.7553
ounsel	-11.7553
▁covetous	-11.7553
▁zeal	-11.7554
▁Plug	-11.7554
)------------	-11.7555
▁sketch	-11.7555
Á	-11.7555
qblast	-11.7555
itude	-11.7555
▁Setubandh	-11.7555
Suddenly	-11.7555
YYYY	-11.7555
luminium	-11.7555
usterities	-11.7555
▁2017-2018	-11.7555
▁Agency	-11.7555
▁Animation	-11.7555
▁Antialiasing	-11.7555
▁Bethlehem	-11.7555
▁Bethsaida	-11.7555
▁Bhagwa	-11.7555
▁Bhakta	-11.7555
▁Bombay	-11.7555
▁Bookkeeping	-11.7555
▁Chrome	-11.7555
▁Cilicia	-11.7555
▁Clipping	-11.7555
▁Cornelius	-11.7555
▁Cyprus	-11.7555
▁Ellipse	-11.7555
▁FNR	-11.7555
▁Fahrenheit	-11.7555
▁Galilaean	-11.7555
▁Happiness	-11.7555
▁Ignore	-11.7555
▁Include	-11.7555
▁Ktouch	-11.7555
▁LORD	-11.7555
▁Latex	-11.7555
▁Material	-11.7555
▁Micro	-11.7555
▁Oxygen	-11.7555
▁PLANTS	-11.7555
▁Pencil	-11.7555
▁Pradipika	-11.7555
▁Samruddhi	-11.7555
▁Simeon	-11.7555
▁Subhadra	-11.7555
▁Timothy	-11.7555
▁Viparitakarani	-11.7555
▁accident	-11.7555
▁admonish	-11.7555
▁affirm	-11.7555
▁artificial	-11.7555
▁assurance	-11.7555
▁authentication	-11.7555
▁bodily	-11.7555
▁bount	-11.7555
▁brilliant	-11.7555
▁captivity	-11.7555
▁categorize	-11.7555
▁ceiling	-11.7555
▁confusion	-11.7555
▁convey	-11.7555
▁countenance	-11.7555
▁deserve	-11.7555
▁draupadi	-11.7555
▁equip	-11.7555
▁fertility	-11.7555
▁forefingers	-11.7555
▁gesture	-11.7555
▁grief	-11.7555
▁illustration	-11.7555
▁impurities	-11.7555
▁iniquities	-11.7555
▁isomerism	-11.7555
▁jasper	-11.7555
▁kerchief	-11.7555
▁kilograms	-11.7555
▁linux	-11.7555
▁lucre	-11.7555
▁lunch	-11.7555
▁maimed	-11.7555
▁marvellous	-11.7555
▁mediator	-11.7555
▁merchandise	-11.7555
▁milliseconds	-11.7555
▁monitor	-11.7555
▁neutral	-11.7555
▁outstretched	-11.7555
▁phrase	-11.7555
▁practical	-11.7555
▁practising	-11.7555
▁replies	-11.7555
▁rescue	-11.7555
▁stamina	-11.7555
▁sustentation	-11.7555
▁varieties	-11.7555
▁welfare	-11.7555
▁अह	-11.7555
[2]	-11.7555
▁7.1.1.	-11.7555
▁Aniline	-11.7555
▁Norman	-11.7555
▁Poet	-11.7555
▁SVG	-11.7555
▁apache	-11.7555
▁buffalo	-11.7555
▁captive	-11.7555
▁decorate	-11.7555
▁guile	-11.7555
▁hinder	-11.7555
▁immense	-11.7555
▁instantiate	-11.7555
▁porch	-11.7555
▁sustain	-11.7555
▁volu	-11.7555
▁yagya	-11.7555
ष	-11.7555
▁Galatia	-11.7555
▁Tenali	-11.7555
▁afternoon	-11.7555
▁couple	-11.7555
▁devout	-11.7555
▁dinner	-11.7555
▁equipments	-11.7555
▁idolater	-11.7555
▁impart	-11.7555
▁manifold	-11.7555
▁oven	-11.7555
▁sodium	-11.7555
कृत	-11.7555
▁ENTRY	-11.7555
▁deaf	-11.7555
▁quickeneth	-11.7555
▁Padmasana	-11.7555
▁Price	-11.7555
▁Stephen	-11.7555
▁resizing	-11.7555
▁riot	-11.7555
inferior	-11.7555
▁Angle	-11.7555
▁Chakrasana	-11.7555
▁gainsay	-11.7555
▁salary	-11.7555
▁Center	-11.7555
▁attentive	-11.7555
▁hearken	-11.7555
▁ordinary	-11.7555
▁phase	-11.7555
▁pool	-11.7555
▁sinneth	-11.7555
▁merry	-11.7555
▁scare	-11.7555
▁housetop	-11.7555
▁viper	-11.7555
cade	-11.7555
▁slip	-11.7555
▁transpose	-11.7555
▁bowels	-11.7555
▁isomers	-11.7555
▁experiment	-11.7555
▁literal	-11.7555
▁malice	-11.7555
▁musician	-11.7555
▁blockages	-11.7555
▁irritati	-11.7555
Gradually	-11.7555
▁hatred	-11.7555
▁connectivity	-11.7555
▁verification	-11.7555
NOT	-11.7555
▁Ease	-11.7555
▁burdensome	-11.7555
▁superscription	-11.7555
▁craftiness	-11.7555
▁resolution	-11.7555
Repent	-11.7555
▁glucose	-11.7555
▁gaps	-11.7555
▁precedence	-11.7555
▁prostrat	-11.7555
▁winner	-11.7555
▁estate	-11.7555
▁Customize	-11.7555
▁manipulati	-11.7555
▁Benzene	-11.7555
▁utiliz	-11.7555
▁dying	-11.7555
▁moisture	-11.7555
▁hypocrisy	-11.7555
▁utterance	-11.7555
▁Satyaki	-11.7555
▁spit	-11.7555
▁emerge	-11.7556
▁mobility	-11.7556
▁detect	-11.7556
▁BOOKS	-11.7556
▁Powa	-11.7556
▁germ	-11.7556
▁restart	-11.7556
▁veil	-11.7556
▁clip	-11.7556
▁alias	-11.7556
nonym	-11.7556
▁prosperity	-11.7556
metallic	-11.7556
▁Akash	-11.7556
murti	-11.7556
▁lowercase	-11.7556
▁purge	-11.7556
▁expiration	-11.7556
▁priesthood	-11.7556
▁clavicular	-11.7556
▁Visit	-11.7556
▁attractive	-11.7556
▁wail	-11.7556
▁fountain	-11.7557
▁MyServlet	-11.7557
▁track	-11.7557
▁Unix	-11.7557
▁continually	-11.7557
▁supplier	-11.7557
▁excellences	-11.7557
▁Aaron	-11.7557
▁भव	-11.7557
▁restore	-11.7557
▁minor	-11.7558
▁KING	-11.7558
▁crow	-11.7558
▁failure	-11.7558
▁Branches	-11.7558
▁Khari	-11.7558
▁deletion	-11.7558
▁Wom	-11.7558
▁patch	-11.7558
▁Virat	-11.7558
▁accessible	-11.7559
▁mass	-11.7559
OW	-11.7559
▁fade	-11.7559
▁accurately	-11.7559
olute	-11.7559
▁doves	-11.7559
▁hygienic	-11.756
▁Ravivarma	-11.756
article	-11.756
legged	-11.756
▁scanf	-11.756
horn	-11.756
▁Linker	-11.756
Rich	-11.756
▁Shakti	-11.7561
▁strname	-11.7561
▁race	-11.7561
▁formula	-11.7562
▁gladness	-11.7562
▁reflection	-11.7562
▁persecutest	-11.7562
geet	-11.7563
Later	-11.7563
▁vigorously	-11.7563
▁instantly	-11.7563
▁tract	-11.7564
▁interpreter	-11.7564
▁foes	-11.7564
▁prophesied	-11.7565
▁Q	-11.7565
▁defileth	-11.7565
▁lowest	-11.7565
▁mobile	-11.7566
▁idle	-11.7567
▁sower	-11.7567
▁Artha	-11.7567
▁dropping	-11.7567
▁Madhya	-11.7568
▁Provide	-11.7568
▁Yogasanas	-11.7568
स्य	-11.7568
▁Gray	-11.7568
▁swap	-11.7568
▁Devaki	-11.7568
lyric	-11.757
apur	-11.757
▁Buil	-11.7571
▁Hari	-11.7571
▁quenched	-11.7571
▁girded	-11.7571
▁1000	-11.7573
▁<	-11.7573
▁Neti	-11.7573
▁brahm	-11.7574
▁construction	-11.7575
▁Call	-11.7575
▁deceitful	-11.7575
▁appreciate	-11.7575
▁Cell	-11.7575
▁resolved	-11.7576
▁optical	-11.7576
▁voluntary	-11.7576
▁Five	-11.7577
uffer	-11.7577
▁philosophy	-11.7577
▁illuminate	-11.7578
▁introduced	-11.7581
▁shipment	-11.7582
▁Heart	-11.7583
▁Builder	-11.7583
▁editable	-11.7584
▁TO	-11.7584
▁Preetam	-11.7584
▁jdk	-11.7584
▁Okay	-11.7585
▁wider	-11.7585
▁tithes	-11.7586
▁Bhava	-11.7586
▁29	-11.7587
also	-11.7587
lash	-11.7589
▁travell	-11.7589
▁dissolved	-11.759
▁laughed	-11.759
▁wire	-11.7592
▁difficulty	-11.7592
▁Exhaling	-11.7592
▁merit	-11.7593
▁flyer	-11.7594
▁darken	-11.7594
▁uttered	-11.7594
▁proof	-11.7597
▁emotional	-11.7598
▁disabled	-11.7598
▁Cho	-11.7599
▁horizontally	-11.7599
▁sink	-11.76
▁Dru	-11.7602
▁smoothly	-11.7603
▁alphabetical	-11.7603
▁distressed	-11.7604
▁Complete	-11.7605
▁Issues	-11.7606
▁lepers	-11.7606
▁cured	-11.7606
▁abs	-11.7608
▁harder	-11.7608
▁integrate	-11.7609
▁Shall	-11.7612
▁Tra	-11.7615
▁cu	-11.7617
▁substr	-11.7619
Protect	-11.7621
▁DE	-11.7621
▁Chatur	-11.7621
▁Listen	-11.7625
ential	-11.7626
▁Samaritans	-11.7626
▁Statistics	-11.7626
▁ordinances	-11.7626
▁Tags	-11.7626
▁PID	-11.7627
Servant	-11.7627
▁refreshed	-11.7627
ench	-11.7629
TS	-11.763
mrc	-11.7634
selected	-11.7636
▁interested	-11.7641
▁2017	-11.7642
▁demons	-11.7644
▁babes	-11.7647
▁blinks	-11.7647
▁envying	-11.7648
▁redirected	-11.765
sop	-11.7651
▁loaded	-11.7652
▁RE	-11.7664
▁existed	-11.7666
▁subchapters	-11.7667
ulla	-11.7671
▁22	-11.7673
ountain	-11.7676
▁GI	-11.7678
ccession	-11.7679
▁2.4	-11.7682
▁builders	-11.7682
▁assumed	-11.7683
▁Office	-11.7684
▁pounds	-11.7687
▁liver	-11.7693
▁believest	-11.7693
▁न	-11.7693
▁der	-11.7697
▁understandeth	-11.7697
▁ON	-11.77
▁measur	-11.7701
▁Woe	-11.771
Lay	-11.7714
▁Rabi	-11.7718
lunar	-11.7723
▁coats	-11.7728
▁physicians	-11.7728
▁perished	-11.773
▁particularly	-11.7735
▁prisoners	-11.7738
▁listener	-11.7741
▁Lif	-11.7743
▁ko	-11.7759
SH	-11.776
▁burdens	-11.777
▁bags	-11.777
Sit	-11.777
▁brides	-11.7771
stern	-11.7779
▁expanded	-11.7784
▁hymns	-11.779
▁Printing	-11.7807
shvarah	-11.7811
▁absorbs	-11.7812
▁bands	-11.7813
▁implementations	-11.7832
▁cri	-11.7843
▁lastly	-11.785
▁engines	-11.7852
dhama	-11.7859
▁Cana	-11.786
▁Amar	-11.786
▁signifie	-11.7862
▁Customers	-11.7875
▁graceful	-11.7877
▁byte	-11.7891
▁diagrams	-11.7894
▁predict	-11.7905
▁trusted	-11.791
itha	-11.7915
▁locks	-11.7916
▁remained	-11.7917
Sta	-11.7943
debit	-11.7948
▁decreases	-11.7957
▁discussions	-11.7958
mitted	-11.7963
AW	-11.7972
▁afterwards	-11.7977
▁produces	-11.7978
▁passion	-11.798
IP	-11.7992
non	-11.7994
ching	-11.8007
42	-11.801
▁captains	-11.802
▁hides	-11.8029
diversity	-11.805
▁Purchases	-11.8053
▁equally	-11.8055
them	-11.806
natha	-11.8063
▁Tara	-11.8063
▁Net	-11.8075
LC	-11.8094
Anant	-11.8134
▁len	-11.8153
▁scientists	-11.8158
uel	-11.8163
kana	-11.8175
▁Vana	-11.8189
rima	-11.8208
ajrásana	-11.8208
Balance	-11.8227
▁hero	-11.8228
65	-11.824
(1)	-11.8264
▁joyful	-11.8278
▁retrieve	-11.8309
▁0.48.4"	-11.8325
ady	-11.8327
▁imp	-11.8337
▁struc	-11.8357
myoutput	-11.8372
64	-11.8382
▁SH	-11.8437
▁bur	-11.8442
quired	-11.8446
para	-11.846
Ar	-11.8462
▁VI	-11.8462
▁PO	-11.8482
ayah	-11.8524
hale	-11.8543
▁promot	-11.8564
▁ri	-11.8573
▁prefer	-11.8576
anu	-11.8609
pose	-11.8637
▁writer	-11.8641
adduser	-11.866
Sprin	-11.8697
bhava	-11.8699
▁Parvat	-11.8703
200	-11.8718
▁16	-11.8731
▁Synchroniz	-11.8733
▁raj	-11.8734
mini	-11.8756
die	-11.877
minded	-11.8804
chal	-11.8817
rived	-11.8828
▁swa	-11.883
▁deform	-11.8832
wea	-11.8905
ृ	-11.8908
void	-11.8916
▁Char	-11.893
compose	-11.8938
dhan	-11.894
Sum	-11.8951
SL	-11.8958
▁determin	-11.8982
rick	-11.8992
cite	-11.8996
lute	-11.8998
pha	-11.8999
anaan	-11.9002
ATE	-11.9007
aq	-11.9012
Download	-11.9038
rou	-11.9047
lice	-11.9055
▁Mal	-11.9058
hol	-11.9075
▁Pun	-11.9084
▁subchapter	-11.9091
hanam	-11.9091
▁quarter	-11.9092
▁Acquisition	-11.9093
▁substance	-11.9093
▁utensil	-11.9094
▁Jiva	-11.9094
▁prerequisite	-11.9095
▁recipient	-11.9095
▁garland	-11.9095
▁operand	-11.9095
▁Function	-11.9096
▁poet	-11.9096
▁Kaurava	-11.9097
▁lip	-11.9099
ctivities	-11.9113
▁officer	-11.9119
ically	-11.9136
▁...............	-11.9136
wk	-11.9138
flow	-11.9139
▁effortless	-11.9139
itation	-11.9147
nical	-11.9151
▁highlight	-11.9151
grade	-11.9154
▁Role	-11.9162
▁Flow	-11.9163
▁builder	-11.9166
neath	-11.9166
sharp	-11.9166
▁conque	-11.9167
▁dig	-11.9168
Yahoo	-11.9168
Relax	-11.9169
product	-11.9169
[1]	-11.917
Bandha	-11.917
clockwise	-11.917
spent	-11.917
JSP	-11.917
piece	-11.917
Clean	-11.917
Display	-11.9171
Hanuman	-11.9171
dioxide	-11.9171
Trataka	-11.9171
giving	-11.9171
Both	-11.9171
resources	-11.9171
Compile	-11.9171
Delete	-11.9171
Home	-11.9171
milk	-11.9171
Shift	-11.9171
Admin	-11.9171
build	-11.9171
Tadasana	-11.9171
Text	-11.9171
material	-11.9171
question	-11.9171
birth	-11.9171
return	-11.9171
process	-11.9171
Eclipse	-11.9171
elements	-11.9171
Ctrl	-11.9171
Koha	-11.9171
together	-11.9171
bones	-11.9171
root	-11.9171
focus	-11.9172
server	-11.9172
Level	-11.9172
▁Sharpen	-11.9172
computers	-11.9172
▁overrid	-11.9173
abdominal	-11.9173
Show	-11.9174
through	-11.9175
Manager	-11.9175
Cow	-11.9175
Him	-11.9178
▁digg	-11.9178
Gent	-11.9179
▁Mus	-11.9187
iii	-11.9189
fish	-11.9189
talk	-11.919
ployment	-11.919
received	-11.9191
▁deposit	-11.9191
▁publish	-11.9192
▁recommend	-11.9193
▁appoint	-11.9193
proper	-11.9196
List	-11.9196
yasa	-11.9196
Recording	-11.9198
Sun	-11.9199
▁vial	-11.9202
▁sect	-11.9202
▁modul	-11.9203
▁notification	-11.921
▁immediate	-11.9211
▁Namaskar	-11.9214
ology	-11.9214
▁wit	-11.9215
▁moth	-11.9215
▁Link	-11.9216
▁eleven	-11.9216
▁sanctif	-11.9217
She	-11.9217
▁Tim	-11.9218
ndustrial	-11.9218
▁Bengal	-11.9218
▁subtract	-11.9219
पि	-11.9219
▁profess	-11.9219
egetables	-11.9221
Photo	-11.9221
ajra	-11.9221
▁Engine	-11.9222
▁Vivek	-11.9222
embodi	-11.9222
stlibreoffice	-11.9222
NameHandler	-11.9222
▁ELEMENTS	-11.9222
▁Hymn	-11.9222
▁fraction	-11.9222
▁inflict	-11.9222
▁threaten	-11.9222
▁कथ	-11.9222
/2017-10	-11.9222
Believe	-11.9222
JFileChooser	-11.9222
Kaikeyi	-11.9222
Physical	-11.9222
Prajapati	-11.9222
Request	-11.9222
SPOKEN	-11.9222
TIME	-11.9222
Transfer	-11.9222
austerity	-11.9222
electricity	-11.9222
iambecky	-11.9222
ndraprastha	-11.9222
ookAlreadyIssued	-11.9222
oordinat	-11.9222
च्	-11.9222
▁0.91	-11.9222
▁260	-11.9222
▁4.2.24	-11.9222
▁5.5.19	-11.9222
▁5.5.30	-11.9222
▁Alexander	-11.9222
▁Amoeba	-11.9222
▁Angulimala	-11.9222
▁Aquila	-11.9222
▁Attempt	-11.9222
▁Brightness	-11.9222
▁Celsius	-11.9222
▁Central	-11.9222
▁Cyren	-11.9222
▁Dasaratha	-11.9222
▁Degrees	-11.9222
▁Effect	-11.9222
▁Elbow	-11.9222
▁Elder	-11.9222
▁Glass	-11.9222
▁Hamsasana	-11.9222
▁IOException	-11.9222
▁Iconium	-11.9222
▁Inventory	-11.9222
▁Laptop	-11.9222
▁Leader	-11.9222
▁Makarasana	-11.9222
▁Mineral	-11.9222
▁NUMBER	-11.9222
▁PIPE	-11.9222
▁Pralaya	-11.9222
▁Puja	-11.9222
▁Rajasthan	-11.9222
▁Retail	-11.9222
▁Rudra	-11.9222
▁SYSTEM	-11.9222
▁Santhosha	-11.9222
▁Saturday	-11.9222
▁SeqIO	-11.9222
▁Shavasana	-11.9222
▁Shipment	-11.9222
▁Spacing	-11.9222
▁Stability	-11.9222
▁Stitch	-11.9222
▁Surface	-11.9222
▁Thursday	-11.9222
▁Thyatira	-11.9222
▁Translat	-11.9222
▁Triangle	-11.9222
▁Tuesday	-11.9222
▁Valmiki	-11.9222
▁Wednesday	-11.9222
▁announcements	-11.9222
▁anxiety	-11.9222
▁availability	-11.9222
▁bamboo	-11.9222
▁beheaded	-11.9222
▁ceasing	-11.9222
▁citizen	-11.9222
▁combat	-11.9222
▁conflict	-11.9222
▁confused	-11.9222
▁crawl	-11.9222
▁disobedience	-11.9222
▁domestic	-11.9222
▁draught	-11.9222
▁enzyme	-11.9222
▁fifteen	-11.9222
▁fifty	-11.9222
▁fundamental	-11.9222
▁furlongs	-11.9222
▁genome	-11.9222
▁guidance	-11.9222
▁imagination	-11.9222
▁infirmity	-11.9222
▁intercession	-11.9222
▁irregular	-11.9222
▁kusha	-11.9222
▁leather	-11.9222
▁leprosy	-11.9222
▁lethargy	-11.9222
▁literature	-11.9222
▁malaria	-11.9222
▁melodies	-11.9222
▁messenger	-11.9222
▁ministration	-11.9222
▁mirror	-11.9222
▁mismatch	-11.9222
▁multiplication	-11.9222
▁mysteries	-11.9222
▁obeisance	-11.9222
▁obstructed	-11.9222
▁pepper	-11.9222
▁perineum	-11.9222
▁pervades	-11.9222
▁primitive	-11.9222
▁profane	-11.9222
▁reactive	-11.9222
▁reprobate	-11.9222
▁respond	-11.9222
▁robber	-11.9222
▁sackcloth	-11.9222
▁samadhi	-11.9222
▁sanctuary	-11.9222
▁scarlet	-11.9222
▁selves	-11.9222
▁showOrgData	-11.9222
▁spawn	-11.9222
▁spontaneous	-11.9222
▁stature	-11.9222
▁substitute	-11.9222
▁transcend	-11.9222
▁unbelievers	-11.9222
▁unmarried	-11.9222
▁virus	-11.9222
▁wrestling	-11.9222
Borrowed	-11.9222
nitrophenol	-11.9222
orporate	-11.9222
▁Awareness	-11.9222
▁Beamer	-11.9222
▁Crete	-11.9222
▁Declar	-11.9222
▁Jupiter	-11.9222
▁Publisher	-11.9222
▁disorders	-11.9222
▁disputing	-11.9222
▁knit	-11.9222
▁tempest	-11.9222
▁unnecessar	-11.9222
reproductive	-11.9222
▁2.3.0	-11.9222
▁Jesse	-11.9222
▁Subtract	-11.9222
▁Yudhis	-11.9222
▁behaviour	-11.9222
▁glow	-11.9222
▁pump	-11.9222
▁sequential	-11.9222
▁signifying	-11.9222
▁sparrows	-11.9222
▁suktam	-11.9222
▁Cloning	-11.9222
▁Lower	-11.9222
▁Mira	-11.9222
▁Organisation	-11.9222
▁felt	-11.9222
▁sattva	-11.9222
▁Fog	-11.9222
▁cloning	-11.9222
▁mulch	-11.9222
▁neem	-11.9222
▁silently	-11.9222
▁Invert	-11.9222
▁begging	-11.9222
▁celebrat	-11.9222
▁mortal	-11.9222
▁codon	-11.9222
▁entertain	-11.9222
▁inhabit	-11.9222
▁spoon	-11.9222
▁clue	-11.9222
▁Damar	-11.9222
XML	-11.9222
ktouch	-11.9222
▁STAND	-11.9222
▁Universe	-11.9222
▁queen	-11.9222
▁Balarama	-11.9222
▁Jason	-11.9222
▁SIT	-11.9222
▁psychological	-11.9222
▁evildoer	-11.9222
▁energize	-11.9222
Univers	-11.9222
▁Joses	-11.9222
▁Shalabhasana	-11.9222
▁apps	-11.9222
Moving	-11.9222
▁dippe	-11.9222
▁sideways	-11.9222
▁bishop	-11.9222
poshan	-11.9222
anhita	-11.9222
▁Wizard	-11.9222
▁बालक	-11.9222
▁Mind	-11.9222
▁nutritious	-11.9222
puja	-11.9222
▁01/01/2017	-11.9222
▁Less	-11.9222
▁budget	-11.9222
▁Effortlessnes	-11.9222
▁butterfly	-11.9222
▁Adam	-11.9222
▁Dashboard	-11.9222
▁bruis	-11.9222
▁wastage	-11.9222
DVD	-11.9222
odic	-11.9222
▁Urine	-11.9222
HSV	-11.9222
▁recover	-11.9222
▁Bhoj	-11.9222
▁controller	-11.9222
▁virasana	-11.9222
▁funny	-11.9222
Video	-11.9222
▁offspring	-11.9222
▁stamen	-11.9222
▁Relieve	-11.9222
incense	-11.9222
HelloWeb	-11.9222
▁dispatch	-11.9222
▁omniscience	-11.9222
▁clarity	-11.9222
simha	-11.9222
▁Charge	-11.9222
▁debtors	-11.9222
▁excrete	-11.9222
▁articles	-11.9222
▁Button	-11.9222
▁petals	-11.9222
▁dhritarashtra	-11.9222
▁toxic	-11.9222
▁chew	-11.9223
▁Ganapati	-11.9223
avatar	-11.9223
erator	-11.9223
▁sidhant	-11.9223
▁refuse	-11.9223
▁errorfree	-11.9223
▁testchown	-11.9223
▁Nataka	-11.9223
▁Vayu	-11.9223
▁treatise	-11.9223
▁advise	-11.9223
▁Pointers	-11.9223
▁security	-11.9223
▁practitioner	-11.9223
▁radiation	-11.9223
▁tread	-11.9223
▁fragrance	-11.9223
▁battlefield	-11.9223
▁Hexammine	-11.9223
▁ORG	-11.9223
▁fuel	-11.9223
▁unexpected	-11.9224
▁Incremental	-11.9224
▁theorem	-11.9224
▁Meditation	-11.9224
▁Alas	-11.9224
▁ark	-11.9224
▁armour	-11.9224
▁earning	-11.9224
▁expectation	-11.9224
▁Three	-11.9224
esterday	-11.9224
▁सं	-11.9225
Crea	-11.9225
▁validation	-11.9225
▁sensation	-11.9225
onsider	-11.9225
▁पित	-11.9225
▁Varah	-11.9225
▁Bhaskar	-11.9225
▁Deliver	-11.9225
▁max	-11.9225
77	-11.9225
▁worrie	-11.9226
▁Whi	-11.9226
▁Atman	-11.9226
▁bull	-11.9227
orac	-11.9227
▁Chapter	-11.9227
▁Skeleton	-11.9227
▁acquisition	-11.9227
▁membrane	-11.9227
▁Alphabet	-11.9227
▁carries	-11.9227
▁reprove	-11.9227
Games	-11.9227
▁assure	-11.9228
▁evident	-11.9228
▁cele	-11.9229
▁Breathe	-11.9229
▁boundary	-11.9229
▁bill	-11.923
▁reviled	-11.923
▁Dig	-11.923
▁pierced	-11.923
irds	-11.923
▁Logout	-11.9231
▁adoption	-11.9231
Well	-11.9232
chlori	-11.9232
▁jerky	-11.9232
▁impli	-11.9232
known	-11.9232
▁pant	-11.9232
▁handsome	-11.9233
Opera	-11.9233
dfrac	-11.9233
▁instructional	-11.9233
▁driven	-11.9233
▁eyesight	-11.9234
▁lifetime	-11.9234
मि	-11.9234
▁exhibition	-11.9234
▁transport	-11.9235
▁percent	-11.9235
▁roare	-11.9235
▁otherorganisms	-11.9235
▁pillar	-11.9235
▁Point	-11.9235
▁Peri	-11.9235
▁punished	-11.9235
▁sprouted	-11.9235
▁surprised	-11.9236
▁beginner	-11.9236
▁gum	-11.9236
▁Nation	-11.9236
Mud	-11.9236
▁Brahmi	-11.9236
▁concatenated	-11.9236
▁goddesses	-11.9236
▁Condition	-11.9237
▁Maximum	-11.9237
▁Privacy	-11.9237
▁Spread	-11.9237
▁decreasing	-11.9237
▁perception	-11.9237
▁wool	-11.9237
guna	-11.9237
▁picker	-11.9237
▁Case	-11.9237
▁partially	-11.9237
ION	-11.9237
▁Cyan	-11.9237
▁Special	-11.9237
▁conches	-11.9238
lmost	-11.9238
▁Load	-11.9238
cell	-11.9238
▁trade	-11.9239
▁rever	-11.9239
▁Sew	-11.9239
▁tailor	-11.924
▁Ball	-11.924
▁appended	-11.9241
▁honourable	-11.9241
Can	-11.9242
▁Rabbit	-11.9242
▁Agni	-11.9242
▁peaceful	-11.9242
▁compelle	-11.9243
▁restored	-11.9243
▁dosa	-11.9245
corruptible	-11.9245
▁worm	-11.9245
▁Ravi	-11.9246
▁Singer	-11.9246
▁firefox	-11.9247
▁hardness	-11.9247
▁media	-11.9247
▁'2'	-11.9247
▁TV	-11.9247
▁Cast	-11.9247
Akas	-11.9248
▁sinless	-11.9248
ousness	-11.9248
▁Lock	-11.9248
▁Usually	-11.9249
▁17	-11.9249
(*.	-11.9251
▁Tony	-11.9252
▁deposited	-11.9252
▁setName	-11.9254
htm	-11.9254
DRA	-11.9255
▁hereafter	-11.9256
▁Sattva	-11.9256
▁chemistry	-11.9256
▁magistrates	-11.9259
▁rishis	-11.9259
▁willingly	-11.9259
▁underground	-11.9261
▁disturbed	-11.9263
▁prevailed	-11.9263
▁Lot	-11.9263
▁safely	-11.9264
▁redo	-11.9264
▁Understand	-11.9265
▁supplied	-11.9265
▁standardin	-11.9266
▁कृष्ण	-11.9266
▁board	-11.9266
▁melt	-11.9267
string	-11.9267
▁blasphemed	-11.9267
▁boiled	-11.9269
▁formatted	-11.9269
▁privately	-11.9271
▁Map	-11.9272
▁butane	-11.9272
iterate	-11.9273
▁renewed	-11.9274
▁gram	-11.9276
▁Gold	-11.9277
▁corruptible	-11.9277
▁Hero	-11.9277
-8	-11.9279
▁leaping	-11.9279
▁overloaded	-11.928
▁28	-11.928
Asanas	-11.9281
▁RS	-11.9282
▁guards	-11.9283
Backward	-11.9283
▁judgest	-11.9285
▁sole	-11.9285
▁teacheth	-11.9286
▁speakers	-11.9286
▁Shravana	-11.9288
▁handout	-11.9291
▁launched	-11.9291
▁threader	-11.9296
▁upright	-11.9296
▁infinite	-11.9296
▁institution	-11.9298
▁beautifully	-11.93
▁faster	-11.9304
▁Join	-11.9304
Downloads	-11.9305
▁mourning	-11.9306
▁scholars	-11.9307
▁Upanishads	-11.9307
▁psalms	-11.9307
▁tombs	-11.9307
▁Swaras	-11.9307
▁falleth	-11.9307
▁avail	-11.9313
▁profited	-11.9317
▁locked	-11.932
▁Age	-11.9321
▁rendering	-11.9324
▁flying	-11.9325
▁ankles	-11.9331
▁resides	-11.9331
▁lamps	-11.9335
bp	-11.9335
LO	-11.9336
▁conferr	-11.9336
they	-11.9337
▁Charak	-11.9338
▁Instead	-11.9346
▁reigned	-11.9347
▁म	-11.9348
lasp	-11.9349
▁thinkest	-11.9351
Cover	-11.9352
▁vials	-11.9356
(""	-11.9356
▁noun	-11.9356
Siddhi	-11.9364
▁utilit	-11.9369
▁Roles	-11.9376
▁clock	-11.9377
▁praised	-11.9378
▁Recording	-11.9379
▁candlesticks	-11.938
▁snakes	-11.938
▁vehicles	-11.938
▁Dialogs	-11.938
▁spreadsheets	-11.938
▁older	-11.9383
▁plates	-11.9384
▁slashes	-11.9386
▁Noe	-11.9389
▁handled	-11.939
bru	-11.94
▁Himalayas	-11.9405
▁Masking	-11.9405
▁Iron	-11.9407
▁loading	-11.9408
▁dealing	-11.9415
▁Cos	-11.9423
rban	-11.9429
▁Grids	-11.9429
▁incarnations	-11.9429
▁Shi	-11.943
▁Molecule	-11.943
▁worker	-11.9438
TEST	-11.9441
▁32	-11.9443
▁manna	-11.9443
▁Chart	-11.9446
entric	-11.9453
thah	-11.9456
▁skipp	-11.9456
▁maintained	-11.9459
▁Spell	-11.9462
▁z	-11.9465
▁Lion	-11.9471
users	-11.9475
ither	-11.9478
▁Wi	-11.9479
▁cla	-11.9483
▁Uda	-11.9485
▁exten	-11.9487
7.1	-11.9489
PPID	-11.9499
greement	-11.9514
स्मृत्	-11.9532
08	-11.9553
nr	-11.9559
ists	-11.9566
realization	-11.9569
▁Bhaga	-11.9585
▁trace	-11.9588
▁realize	-11.9619
xternal	-11.9623
▁Deva	-11.9626
apping	-11.9641
▁col	-11.9645
▁uncle	-11.968
off	-11.9681
Greeting	-11.9683
Vira	-11.9696
▁cur	-11.9697
avásana	-11.9699
▁Arm	-11.9723
hold	-11.9761
▁Sva	-11.9762
▁Librari	-11.9776
list	-11.9812
▁comput	-11.9813
titled	-11.9819
rated	-11.9833
▁Flat	-11.9846
01	-11.9851
Connect	-11.988
▁Debi	-11.9887
LY	-11.9949
Success	-11.9984
lloSampleApplet	-11.9994
Generally	-12.0008
▁reproaches	-12.0017
culi	-12.0031
gan	-12.0033
▁Mak	-12.0042
how	-12.0048
gna	-12.0069
composed	-12.0073
output	-12.01
burst	-12.0108
phor	-12.0108
▁provid	-12.0121
▁permit	-12.0132
each	-12.0142
conf	-12.015
bhavan	-12.0151
▁Gau	-12.0175
Non	-12.0181
Men	-12.0184
port	-12.0249
alms	-12.0263
uite	-12.0265
▁sad	-12.0266
▁Flower	-12.0286
hira	-12.0289
rap	-12.0294
lternately	-12.0304
ote	-12.0332
Sthul	-12.0332
SampleApplet	-12.0353
▁dr	-12.0359
chana	-12.0367
▁relat	-12.0398
Ku	-12.0409
स	-12.0431
VE	-12.0459
ngled	-12.0463
4.2	-12.0511
▁loc	-12.0517
▁gener	-12.052
oid	-12.0523
hala	-12.054
▁compute	-12.0542
▁lamp	-12.0545
▁communi	-12.0545
gb	-12.0556
harva	-12.0565
observation	-12.0597
object	-12.0615
dhru	-12.0624
▁attend	-12.0628
batch	-12.0645
▁impo	-12.0648
lapping	-12.0664
rink	-12.0672
honesty	-12.0691
vahana	-12.0692
spokentutorial	-12.0692
▁map	-12.0732
ysi	-12.0763
▁Utta	-12.0783
▁comfortabl	-12.0787
▁CON	-12.0816
▁helper	-12.0824
श	-12.0835
▁tim	-12.0843
ता	-12.0851
▁sam	-12.0855
▁Cap	-12.0864
▁ke	-12.0864
▁initializ	-12.0875
mount	-12.0878
▁SOURCE	-12.0879
▁rub	-12.0883
fat	-12.0891
aked	-12.0893
ighten	-12.0906
allio	-12.0982
kk	-12.0984
Judg	-12.0997
▁assum	-12.0998
ode	-12.1008
remote	-12.1013
khan	-12.1018
▁plat	-12.1018
▁motion	-12.1035
Chatur	-12.1036
▁abduct	-12.1038
▁blink	-12.1047
ody	-12.1053
Book	-12.1054
▁3.2	-12.1062
Asana	-12.1079
▁ston	-12.1089
▁ankle	-12.1089
▁babe	-12.1091
▁Roman	-12.1092
▁compound	-12.1094
▁lawyer	-12.1095
▁fertilizer	-12.1097
▁hypocrite	-12.1097
ANA	-12.1097
▁miracle	-12.1098
urely	-12.1099
▁hip	-12.1099
ivity	-12.1104
▁scribe	-12.1105
▁reside	-12.1107
crease	-12.111
ttendance	-12.1111
▁plu	-12.1115
standing	-12.1116
bove	-12.1118
▁stir	-12.1126
▁Operator	-12.1132
▁ray	-12.1132
▁Sale	-12.1132
draw	-12.1133
bad	-12.1134
ficient	-12.1136
▁Calc	-12.1136
aham	-12.1146
▁combin	-12.115
aho	-12.1151
▁govern	-12.1157
uff	-12.1157
▁LI	-12.1158
्री	-12.116
▁5,00,000	-12.116
Get	-12.1161
board	-12.1164
Write	-12.1165
कृष्ण	-12.1167
<	-12.1167
Buil	-12.1168
Exhaling	-12.1168
proof	-12.1168
expected	-12.1168
mysql	-12.1168
fresh	-12.1168
Sarva	-12.1169
Children	-12.1169
Copy	-12.1169
ISBN	-12.1169
Program	-12.1169
Pratyahara	-12.117
photosynthesis	-12.117
present	-12.117
Second	-12.117
Example	-12.117
Fire	-12.117
mixed	-12.117
fungi	-12.117
vitamin	-12.117
Bhagavad	-12.117
Send	-12.1171
Arch	-12.1171
Kriya	-12.1171
Color	-12.1171
Employee	-12.1171
Bookmarks	-12.1171
Prana	-12.1171
nested	-12.1171
import	-12.1171
JDK	-12.1171
Sometimes	-12.1171
gedit	-12.1171
Number	-12.1171
column	-12.1171
Earth	-12.1171
respective	-12.1171
Move	-12.1171
Image	-12.1171
seek	-12.1171
fulfilled	-12.1171
convert	-12.1171
Sthiti	-12.1171
–	-12.1171
Edit	-12.1171
diseases	-12.1171
Why	-12.1171
teacher	-12.1171
blood	-12.1171
breathing	-12.1171
Moodle	-12.1171
button	-12.1171
help	-12.1172
layer	-12.1172
zip	-12.1172
phone	-12.1172
report	-12.1172
balance	-12.1172
▁recompen	-12.1173
Master	-12.1174
Veda	-12.1174
Help	-12.1174
▁harsh	-12.1174
Setup	-12.1175
bash	-12.1175
Menu	-12.1175
Salutation	-12.1175
Switch	-12.1176
room	-12.1177
muscles	-12.1178
printf	-12.1178
stood	-12.118
Serv	-12.118
index	-12.118
fterwards	-12.1184
mail	-12.1185
Put	-12.1186
▁typecast	-12.1186
▁illumin	-12.1188
night	-12.1188
▁defin	-12.1188
▁numeric	-12.1189
bhrut	-12.1191
event	-12.1193
▁invert	-12.1194
▁hav	-12.1194
Organ	-12.1194
seeds	-12.1199
drive	-12.12
▁repetiti	-12.12
cow	-12.12
▁proton	-12.1201
completed	-12.1202
▁ignore	-12.1203
▁preserve	-12.1203
▁concatenate	-12.1203
▁persuade	-12.1204
▁mobil	-12.1205
▁whil	-12.1205
proportion	-12.1206
their	-12.1208
▁vigorous	-12.121
▁instant	-12.1211
▁restrict	-12.1213
▁Mahabharat	-12.1213
hief	-12.1214
aviour	-12.1215
▁habitat	-12.1215
▁Launch	-12.1216
uggest	-12.1217
rivate	-12.1217
▁Branch	-12.1217
cope	-12.1217
▁compris	-12.1217
▁compress	-12.1219
▁___	-12.1219
iguous	-12.1219
▁unrighteous	-12.1219
anotube	-12.1219
oluntary	-12.1219
▁careful	-12.122
ollapse	-12.122
eficiency	-12.122
▁principal	-12.122
▁covet	-12.1221
▁moist	-12.1221
nzene	-12.1221
▁Bhuja	-12.1221
▁systematic	-12.1221
▁flour	-12.1221
▁strip	-12.1221
▁responsib	-12.1221
Explore	-12.1221
explanat	-12.1221
ITHILIKAR	-12.1222
nities	-12.1222
avogadro	-12.1222
▁applica	-12.1222
▁buffet	-12.1222
▁embrac	-12.1222
▁enrich	-12.1222
▁imprison	-12.1222
▁stoop	-12.1222
▁subscrib	-12.1222
▁sulph	-12.1222
▁पार्थ	-12.1222
▁Dandaka	-12.1222
▁Hindu	-12.1222
▁Kapila	-12.1222
▁abandon	-12.1222
▁chloride	-12.1222
▁oppress	-12.1222
Bauls	-12.1222
Dhruva	-12.1222
Kapalbhati	-12.1222
MENT	-12.1222
MarkException	-12.1222
Monitor	-12.1222
Mosquitoes	-12.1222
Nicodemus	-12.1222
PATANJALI	-12.1222
STRI	-12.1222
akshina	-12.1222
mahabhutas	-12.1222
mozilla	-12.1222
myimageapp	-12.1222
ncestors	-12.1222
powder	-12.1222
steadiness	-12.1222
urrencies	-12.1222
▁3306	-12.1222
▁Adisesha	-12.1222
▁Amarkosha	-12.1222
▁Augustus	-12.1222
▁Authentication	-12.1222
▁Avarohana	-12.1222
▁Bhagva	-12.1222
▁Browsing	-12.1222
▁Cephas	-12.1222
▁Chlorophyll	-12.1222
▁Collect	-12.1222
▁Cowherd	-12.1222
▁Descriptor	-12.1222
▁Dritarashtra	-12.1222
▁Elephant	-12.1222
▁Expression	-12.1222
▁FILE	-12.1222
▁Fertilizers	-12.1222
▁Figures	-12.1222
▁Gimp	-12.1222
▁INKSCAPE	-12.1222
▁Invoice	-12.1222
▁MNC	-12.1222
▁Mathura	-12.1222
▁Mukha	-12.1222
▁PUBLICATION	-12.1222
▁Paramatma	-12.1222
▁Parameters	-12.1222
▁Photoshop	-12.1222
▁Priscilla	-12.1222
▁ROOT	-12.1222
▁Responsibility	-12.1222
▁Sardis	-12.1222
▁Sarvangasana	-12.1222
▁Scientist	-12.1222
▁Shatrughn	-12.1222
▁Siloam	-12.1222
▁Simple	-12.1222
▁Swatmarama	-12.1222
▁Süryanamaskár	-12.1222
▁Vidura	-12.1222
▁ailments	-12.1222
▁aluminum	-12.1222
▁anguish	-12.1222
▁architecture	-12.1222
▁barbarian	-12.1222
▁breast	-12.1222
▁breastplate	-12.1222
▁callbyref	-12.1222
▁calves	-12.1222
▁carrot	-12.1222
▁cartilage	-12.1222
▁ceremony	-12.1222
▁compiling	-12.1222
▁convincing	-12.1222
▁criteria	-12.1222
▁deputy	-12.1222
▁devoted	-12.1222
▁displeased	-12.1222
▁distinguished	-12.1222
▁eldest	-12.1222
▁enmity	-12.1222
▁eunuch	-12.1222
▁extortioner	-12.1222
▁fornicator	-12.1222
▁furnace	-12.1222
▁gracious	-12.1222
▁gross	-12.1222
▁hospitality	-12.1222
▁identical	-12.1222
▁invention	-12.1222
▁jaggies	-12.1222
▁kinsmen	-12.1222
▁ligaments	-12.1222
▁magnific	-12.1222
▁necessities	-12.1222
▁nurtur	-12.1222
▁omnipoten	-12.1222
▁overshadow	-12.1222
▁principalities	-12.1222
▁proselyte	-12.1222
▁referencing	-12.1222
▁registration	-12.1222
▁replied	-12.1222
▁samsara	-12.1222
▁similarities	-12.1222
▁slaughter	-12.1222
▁squat	-12.1222
▁steadfast	-12.1222
▁surgery	-12.1222
▁syllable	-12.1222
▁testifieth	-12.1222
▁treasury	-12.1222
▁truncated	-12.1222
▁undefiled	-12.1222
▁uninstall	-12.1222
▁widgets	-12.1222
▁winepress	-12.1222
▁कार्य	-12.1222
▁राजा	-12.1222
▁राम	-12.1222
▁सीता	-12.1222
Active	-12.1222
Neptune	-12.1222
Scilab	-12.1222
Split	-12.1222
dichloroethane	-12.1222
mynewdatabase	-12.1222
revitaliz	-12.1222
stronomer	-12.1222
turtle	-12.1222
whistle	-12.1222
▁2.7.8	-12.1222
▁Arabia	-12.1222
▁Atharvaveda	-12.1222
▁Corinth	-12.1222
▁Dinesh	-12.1222
▁HIV	-12.1222
▁Inquir	-12.1222
▁June	-12.1222
▁Layout	-12.1222
▁Pamphylia	-12.1222
▁Redhat	-12.1222
▁Sukh	-12.1222
▁Third	-12.1222
▁Vanaspatis	-12.1222
▁Velu	-12.1222
▁Vidya	-12.1222
▁advertise	-12.1222
▁antichrist	-12.1222
▁bosom	-12.1222
▁challenge	-12.1222
▁cobra	-12.1222
▁cultivat	-12.1222
▁delicious	-12.1222
▁dhyana	-12.1222
▁ensample	-12.1222
▁haply	-12.1222
▁heaviness	-12.1222
▁mammon	-12.1222
▁overthrow	-12.1222
▁patrioti	-12.1222
▁pleasant	-12.1222
▁privily	-12.1222
▁proverb	-12.1222
▁relief	-12.1222
▁reptiles	-12.1222
▁reputation	-12.1222
▁scene	-12.1222
▁sedition	-12.1222
▁stotra	-12.1222
▁termites	-12.1222
▁unawares	-12.1222
▁unfruitful	-12.1222
▁unruly	-12.1222
▁vexed	-12.1222
▁wolves	-12.1222
▁अन	-12.1222
naspati	-12.1222
▁Brother	-12.1222
▁Discuss	-12.1222
▁Hair	-12.1222
▁Halasana	-12.1222
▁Pricing	-12.1222
▁Symbol	-12.1222
▁Tiger	-12.1222
▁cereals	-12.1222
▁delay	-12.1222
▁grapes	-12.1222
▁paradise	-12.1222
▁unholy	-12.1222
!!!	-12.1222
vardhana	-12.1222
▁Energ	-12.1222
▁Engineering	-12.1222
▁Power	-12.1222
▁railing	-12.1222
आ	-12.1222
▁Egyptian	-12.1222
▁Geometr	-12.1222
▁Protein	-12.1222
▁bewail	-12.1222
▁iitb	-12.1222
▁infection	-12.1222
▁phonemes	-12.1222
giren	-12.1222
▁bundle	-12.1222
▁flip	-12.1222
▁barley	-12.1222
▁film	-12.1222
▁methane	-12.1222
transcribe	-12.1222
▁eighteen	-12.1222
▁notwithstanding	-12.1222
▁owest	-12.1222
▁parseInt	-12.1222
▁temporary	-12.1222
▁(*)	-12.1222
▁JavaBeans	-12.1222
▁liberal	-12.1222
▁adapt	-12.1222
▁adversaries	-12.1222
▁dart	-12.1222
▁stumblingblock	-12.1222
▁River	-12.1222
▁argv	-12.1222
▁Hard	-12.1222
▁court	-12.1222
▁php	-12.1222
ictorious	-12.1222
▁00001	-12.1222
▁Key	-12.1222
▁Urethra	-12.1222
▁braid	-12.1222
▁dozen	-12.1222
▁possibilities	-12.1222
▁anticlockwise	-12.1222
▁Burn	-12.1222
▁broadcast	-12.1222
▁Bhagavat	-12.1222
▁Bhagavan	-12.1222
▁pervert	-12.1222
Ásana	-12.1222
▁Logarithmic	-12.1222
▁Princ	-12.1222
▁Enem	-12.1222
purana	-12.1222
▁Fingers	-12.1222
▁Plus	-12.1222
▁medical	-12.1222
▁revenge	-12.1222
▁civilization	-12.1222
▁South	-12.1222
▁egoistic	-12.1222
▁hallow	-12.1222
▁astray	-12.1222
▁chases	-12.1222
▁vengeance	-12.1222
▁visibility	-12.1222
▁Bhujang	-12.1222
▁bhut	-12.1222
▁debate	-12.1222
HCN	-12.1222
▁bibliographic	-12.1222
▁infant	-12.1222
PER	-12.1222
▁strides	-12.1222
▁blasphemies	-12.1222
caution	-12.1222
▁Ahimsaka	-12.1222
▁client	-12.1222
▁throng	-12.1222
▁PRACTICES	-12.1222
▁buttermilk	-12.1222
▁Athens	-12.1222
मह	-12.1222
▁Thread	-12.1222
▁tamed	-12.1222
▁distraction	-12.1222
Kumar	-12.1222
▁alpha	-12.1222
▁farthing	-12.1222
▁excuse	-12.1222
▁(3)	-12.1222
▁oxide	-12.1222
▁pixelated	-12.1222
▁worshipper	-12.1222
▁Division	-12.1222
▁Wash	-12.1222
nstance	-12.1222
▁octa	-12.1222
▁fables	-12.1222
▁poetry	-12.1222
▁Loops	-12.1222
▁Savasana	-12.1222
acles	-12.1222
▁Indic	-12.1222
▁favourite	-12.1222
▁substitution	-12.1222
▁unfeigned	-12.1222
▁tummy	-12.1222
becky	-12.1222
▁Numerical	-12.1222
▁Events	-12.1222
▁generous	-12.1222
aSample	-12.1223
▁swing	-12.1223
LAN	-12.1223
▁marksCopy	-12.1223
▁Ananta	-12.1223
▁39.	-12.1223
▁iodine	-12.1223
iments	-12.1223
▁Department	-12.1223
GET	-12.1223
manded	-12.1223
▁maize	-12.1223
▁thunderings	-12.1223
WER	-12.1223
▁rescal	-12.1223
▁ortho	-12.1223
▁bladder	-12.1223
▁Maharishi	-12.1223
▁resistance	-12.1223
▁banner	-12.1223
▁kick	-12.1223
washi	-12.1223
▁Diet	-12.1223
▁weather	-12.1223
Imagin	-12.1223
▁Ent	-12.1223
▁predominant	-12.1224
▁Paada	-12.1224
▁incorrect	-12.1224
▁Integer	-12.1224
odt	-12.1224
▁dangerous	-12.1224
nything	-12.1224
▁prize	-12.1224
▁hover	-12.1224
▁opportunity	-12.1224
▁terminology	-12.1224
▁calculator	-12.1224
▁eventually	-12.1224
rude	-12.1224
Banana	-12.1224
iloma	-12.1224
▁vitality	-12.1224
▁8000	-12.1224
KARA	-12.1224
▁Interpolation	-12.1224
▁Marg	-12.1224
▁nobleman	-12.1224
within	-12.1224
▁hail	-12.1224
▁url	-12.1224
Enable	-12.1225
▁Chant	-12.1225
▁Edge	-12.1225
▁interactive	-12.1225
▁unselected	-12.1225
▁rib	-12.1225
▁spear	-12.1225
▁fitting	-12.1225
▁Naga	-12.1225
▁heroic	-12.1225
rteries	-12.1225
Heaven	-12.1226
▁Eternal	-12.1226
Forbid	-12.1226
Common	-12.1226
▁Comment	-12.1226
scription	-12.1226
▁Italy	-12.1226
▁employment	-12.1226
▁fox	-12.1226
▁peas	-12.1226
▁99	-12.1227
▁Eight	-12.1227
UK	-12.1227
July	-12.1227
▁Mars	-12.1227
ylene	-12.1227
▁varies	-12.1228
ummy	-12.1228
▁radi	-12.1228
▁Israelite	-12.1228
▁Snap	-12.1228
▁happily	-12.1228
▁bitterness	-12.1228
▁slice	-12.1228
▁Mandatory	-12.1228
▁Shoucha	-12.1228
▁Vasistha	-12.1228
▁extinct	-12.1228
▁indestructible	-12.1228
▁Radh	-12.1229
▁Virah	-12.1229
▁Markers	-12.1229
▁platter	-12.1229
▁NF	-12.1229
▁span	-12.123
▁SHI	-12.123
▁neat	-12.123
usts	-12.123
▁1,2	-12.1231
bib	-12.1231
anusha	-12.1231
▁sunset	-12.1231
▁vanishes	-12.1231
▁Deity	-12.1231
▁Mail	-12.1232
▁vocal	-12.1232
▁choked	-12.1232
▁knocketh	-12.1232
▁difficulties	-12.1232
aeus	-12.1232
▁Mayur	-12.1233
▁preten	-12.1233
▁cdna	-12.1233
▁240	-12.1233
▁Vasa	-12.1234
▁sixty	-12.1234
▁Resol	-12.1234
▁comic	-12.1234
CU	-12.1234
▁20%	-12.1235
▁cries	-12.1235
▁merge	-12.1235
lind	-12.1236
▁occupied	-12.1236
▁apparel	-12.1236
▁tossed	-12.1236
▁tender	-12.1237
▁uphold	-12.1237
▁prob	-12.1238
umble	-12.1238
▁recent	-12.1239
▁shri	-12.1239
▁imputed	-12.1239
▁strawed	-12.1239
▁tighten	-12.1239
▁Tala	-12.124
/10	-12.124
14	-12.124
▁Abs	-12.124
▁discriminat	-12.124
▁Exercise	-12.124
▁Involutes	-12.124
▁KOHA	-12.124
▁Kabir	-12.124
▁Nachiketa	-12.124
▁Nathanael	-12.124
▁Trikonasana	-12.124
▁shabd	-12.124
▁Delhi	-12.124
▁Pani	-12.124
▁textile	-12.1241
▁Toolbox	-12.1241
▁तत्	-12.1241
▁Maricha	-12.1241
▁cropping	-12.1242
▁preserved	-12.1242
▁Mara	-12.1242
▁driver	-12.1242
▁thin	-12.1242
▁Lotus	-12.1243
▁Dancer	-12.1243
Air	-12.1244
▁sinful	-12.1244
▁tava	-12.1244
▁effectively	-12.1246
04:	-12.1247
▁Cain	-12.1247
▁everybody	-12.1247
RY	-12.1248
▁Dry	-12.1248
▁shineth	-12.125
▁beforehand	-12.125
▁reapeth	-12.125
▁Forward	-12.1252
▁Ahimsa	-12.1252
▁pervading	-12.1253
▁brightened	-12.1253
▁evaluated	-12.1253
▁Mango	-12.1253
▁consideration	-12.1255
▁ayurveda	-12.1256
▁leafy	-12.1256
graduate	-12.1257
▁55	-12.1257
▁mud	-12.1259
▁seedling	-12.1259
▁(./	-12.1259
▁skipped	-12.126
▁compar	-12.126
▁sooth	-12.1261
▁roti	-12.1264
▁documentation	-12.1264
▁Fat	-12.1265
▁mathematics	-12.1265
▁fortune	-12.1265
▁Blast	-12.1265
▁Mit	-12.1266
▁Kala	-12.1268
▁Organiz	-12.1268
▁matches	-12.1268
ikrama	-12.1269
Hear	-12.1269
▁brighten	-12.1269
▁Tert	-12.127
▁FR	-12.1271
▁recompense	-12.1271
▁typecasting	-12.1271
▁Andhra	-12.1272
▁Hanumana	-12.1273
▁terminated	-12.1273
▁needful	-12.1276
▁Kunda	-12.1276
▁expos	-12.1276
"");	-12.1276
▁polic	-12.1277
▁activated	-12.1277
Authorities	-12.1279
▁pitched	-12.128
▁disciplined	-12.1281
▁tailoring	-12.1282
▁Sharpening	-12.1282
▁delivery	-12.1283
▁enjoyer	-12.1285
▁charger	-12.1285
▁cloned	-12.1285
▁57	-12.1285
plac	-12.1285
▁equality	-12.1286
▁faithless	-12.1286
▁Soil	-12.1286
▁Prot	-12.1287
▁unchecked	-12.1287
independently	-12.1288
▁thereunto	-12.129
uidelines	-12.129
▁(;)	-12.1293
▁Cooking	-12.1294
▁climbed	-12.1294
▁ether	-12.1295
▁footer	-12.13
▁astrolog	-12.13
▁sleepeth	-12.13
▁summ	-12.13
▁lacked	-12.1301
▁Loka	-12.1302
▁2.3	-12.1304
▁Bad	-12.1304
▁leaning	-12.1305
▁possessor	-12.1307
▁endless	-12.1307
Walk	-12.1308
▁ourbody	-12.1311
arily	-12.1311
▁Think	-12.1315
▁delighted	-12.1315
▁scattering	-12.1316
▁burying	-12.1316
▁orbit	-12.1316
▁combined	-12.1321
▁Yajna	-12.1328
▁keepers	-12.1328
▁disappeared	-12.1328
▁ga	-12.133
▁kha	-12.1334
▁placement	-12.1335
▁implemented	-12.1336
▁extended	-12.1336
learn	-12.1336
▁friendly	-12.1341
▁hello	-12.1351
▁shar	-12.1354
▁smallest	-12.1354
▁comprehen	-12.136
roduc	-12.1366
▁PS	-12.1367
▁Heat	-12.137
▁mega	-12.1372
atable	-12.1376
igah	-12.1376
49	-12.1377
▁speakest	-12.1381
decoration	-12.1382
▁Comple	-12.1391
▁platte	-12.1402
▁handler	-12.1406
motions	-12.1408
arson	-12.1411
▁explorer	-12.1411
▁namaskar	-12.1423
>=	-12.1429
decomposed	-12.1435
...)	-12.1465
▁Gaz	-12.147
UR	-12.1476
Twist	-12.1481
▁advers	-12.1505
▁mete	-12.1525
▁Solider	-12.1528
▁taxe	-12.1535
OUR	-12.1543
▁Manipulat	-12.155
USE	-12.1586
Alignment	-12.1589
varah	-12.1591
ूत	-12.1607
verna	-12.1662
▁cens	-12.1674
▁seeker	-12.1687
▁Pranava	-12.1697
puri	-12.1699
▁expire	-12.1705
ANS	-12.1708
▁rubb	-12.1734
irty	-12.1753
astra	-12.1777
hahid	-12.178
Parvati	-12.1802
▁transmit	-12.1811
hai	-12.1844
▁Claudi	-12.1853
graded	-12.186
nap	-12.1873
▁donate	-12.1877
Was	-12.1877
28	-12.1881
▁Kun	-12.1898
shah	-12.1903
UserName	-12.1916
▁Pran	-12.1928
▁designer	-12.195
worth	-12.1969
▁soak	-12.1986
fill	-12.1999
▁overlapp	-12.2003
▁lit	-12.2012
▁Memor	-12.202
▁Mag	-12.2026
WE	-12.2035
vail	-12.2036
ाप	-12.2037
==	-12.2049
▁preferabl	-12.207
▁shower	-12.2156
util	-12.2157
iK	-12.2168
▁colorful	-12.2169
Pap	-12.2178
▁Eu	-12.222
Chakr	-12.2234
itially	-12.2246
asya	-12.2253
▁hyp	-12.2272
ophi	-12.2282
anta	-12.2308
verview	-12.2406
loo	-12.2433
▁sab	-12.2505
older	-12.2506
howDetails	-12.2516
unct	-12.2516
hypen	-12.2518
dhyay	-12.266
OL	-12.273
odd	-12.2753
onnection	-12.2764
▁Bhat	-12.2785
stealing	-12.2843
Don	-12.2846
gah	-12.2866
▁Automatic	-12.2903
apura	-12.2943
ighlight	-12.2948
600	-12.295
▁Amruta	-12.2959
compile	-12.2985
leg	-12.3011
nima	-12.3018
▁mins	-12.3058
▁Govinda	-12.3082
▁trip	-12.3118
▁Krama	-12.3134
▁expir	-12.3135
urring	-12.3143
gran	-12.3148
▁trac	-12.3177
figure	-12.3184
▁conform	-12.3193
▁beckon	-12.3202
udo	-12.3227
IDE	-12.3235
inspir	-12.3248
▁Radi	-12.3275
▁idolatr	-12.3343
rtha	-12.3355
Swa	-12.3365
▁Nala	-12.3374
▁Rai	-12.3405
propos	-12.3419
▁2.5	-12.3428
्त	-12.3429
lternative	-12.3452
ratory	-12.3466
Unti	-12.3486
Tri	-12.3521
cross	-12.3562
▁Chak	-12.3568
▁Upanishad	-12.3589
▁psalm	-12.3589
▁scholar	-12.3589
mega	-12.359
▁Samaritan	-12.3591
▁Statistic	-12.3591
▁ordinance	-12.3591
▁rope	-12.3592
▁breadcrumb	-12.3593
▁plague	-12.3596
▁calculation	-12.3597
▁tomb	-12.3597
▁thorn	-12.3598
▁Curve	-12.3598
▁creeper	-12.3598
▁vegetable	-12.3599
▁enrollment	-12.3599
▁orbital	-12.3604
amil	-12.3605
mpersand	-12.3611
ncient	-12.3614
versa	-12.3616
▁Swara	-12.3617
▁Jyot	-12.3617
uality	-12.3618
Record	-12.3621
▁lumin	-12.3622
▁Tag	-12.3632
▁swi	-12.3632
▁02:	-12.3633
▁calculat	-12.3633
cast	-12.3634
receiv	-12.3639
▁confer	-12.3653
title	-12.3655
▁Yuga	-12.3662
ग	-12.3662
what	-12.3662
Vikram	-12.3664
Manage	-12.3665
fortune	-12.3666
mathematics	-12.3666
Blast	-12.3666
Sattva	-12.3667
chemistry	-12.3667
underground	-12.3667
▁append	-12.3667
supplied	-12.3667
tailor	-12.3667
comprehend	-12.3668
Preetam	-12.3668
Bhava	-12.3668
jdk	-12.3668
Okay	-12.3668
Reduce	-12.3668
feather	-12.3668
Command	-12.3669
Perform	-12.3669
brown	-12.3669
drums	-12.3669
heirs	-12.3669
Suryanamaskara	-12.3669
pixel	-12.3669
Contents	-12.3669
Asuras	-12.367
chamber	-12.367
source	-12.367
RGB	-12.367
science	-12.367
Training	-12.367
guru	-12.367
Ramu	-12.367
asterisk	-12.367
digit	-12.367
Brahma	-12.367
species	-12.3671
Hold	-12.3671
minerals	-12.3671
Assignment	-12.3671
percentage	-12.3671
calculate	-12.3671
Philip	-12.3671
Dandasana	-12.3671
measure	-12.3671
stream	-12.3671
Dharma	-12.3671
insert	-12.3671
lungs	-12.3671
KTouch	-12.3671
Hatha	-12.3671
Gmail	-12.3671
LaTeX	-12.3671
multi	-12.3671
built	-12.3671
nerves	-12.3671
continue	-12.3671
generation	-12.3671
MHRD	-12.3671
condition	-12.3671
message	-12.3671
songs	-12.3671
bond	-12.3671
effect	-12.3671
variable	-12.3671
array	-12.3671
world	-12.3671
Library	-12.3671
System	-12.3671
project	-12.3671
directory	-12.3672
‘	-12.3672
Christ	-12.3672
found	-12.3672
Submit	-12.3672
desir	-12.3672
brain	-12.3672
URL	-12.3672
feedback	-12.3672
maths	-12.3673
finger	-12.3673
Alt	-12.3673
Wil	-12.3673
render	-12.3673
recite	-12.3674
Fill	-12.3674
▁surround	-12.3674
tect	-12.3674
remove	-12.3674
saved	-12.3675
swaras	-12.3675
sky	-12.3675
▁edify	-12.3675
loop	-12.3675
course	-12.3676
More	-12.3676
57	-12.3677
Writer	-12.3677
▁achiev	-12.3677
wide	-12.3678
metals	-12.3679
Nay	-12.368
kill	-12.3682
250	-12.3684
nceforth	-12.3684
▁deceit	-12.3685
aligned	-12.3685
outside	-12.3685
▁gird	-12.3686
▁Gener	-12.3688
single	-12.3689
fall	-12.3689
▁quench	-12.3691
▁Qui	-12.3692
▁murmur	-12.3692
▁enrol	-12.3693
capital	-12.3694
▁fry	-12.3695
▁optim	-12.3697
Set	-12.3698
now	-12.3699
▁suspen	-12.3702
imated	-12.3703
▁Writ	-12.3703
▁graze	-12.3703
▁prophesie	-12.3704
▁phon	-12.3706
Teach	-12.3707
Today	-12.3709
▁sudden	-12.3711
▁sanctifie	-12.3711
▁Ganesh	-12.3713
uscles	-12.3714
▁zoo	-12.3714
▁creep	-12.3715
▁adult	-12.3715
▁filth	-12.3715
▁hierarch	-12.3715
▁Mahes	-12.3716
▁cau	-12.3716
green	-12.3716
ufficient	-12.3717
▁Aaro	-12.3718
mitate	-12.3718
▁Meditati	-12.3718
▁histor	-12.3718
▁Construct	-12.3718
▁exert	-12.3719
▁intersect	-12.3719
nvoke	-12.3719
ould	-12.3719
riefly	-12.3719
▁rectang	-12.3719
aharishi	-12.372
/201	-12.372
rucify	-12.372
chown	-12.372
▁famili	-12.372
onversion	-12.372
hritarashtra	-12.372
▁adulter	-12.372
lides	-12.372
▁lime	-12.372
ublication	-12.372
olygon	-12.372
▁immortal	-12.3721
uloma	-12.3721
▁prior	-12.3721
▁quant	-12.3721
emperature	-12.3721
arvel	-12.3721
ensation	-12.3721
devata	-12.3721
▁salv	-12.3721
▁Kusha	-12.3721
EFI	-12.3721
▁बाल	-12.3721
▁companion	-12.3721
ervous	-12.3721
▁stumbling	-12.3721
▁cowherd	-12.3721
ameter	-12.3721
▁Chariot	-12.3721
▁Kapala	-12.3721
▁Jayanti	-12.3722
▁Nicola	-12.3722
▁Regist	-12.3722
▁cheek	-12.3722
▁पञ्च	-12.3722
Stimulat	-12.3722
▁Electr	-12.3722
▁HttpServlet	-12.3722
▁circum	-12.3722
▁deactivat	-12.3722
ANDHA	-12.3722
Aparigraha	-12.3722
Appendix	-12.3722
Bhokta	-12.3722
Dinosaur	-12.3722
Furthermore	-12.3722
Matthew	-12.3722
Typically	-12.3722
UTION	-12.3722
Vruddha	-12.3722
Whereupon	-12.3722
aghava	-12.3722
ccessibility	-12.3722
dairy	-12.3722
daradhih	-12.3722
demigods	-12.3722
dhyaksh	-12.3722
diminish	-12.3722
erbatim	-12.3722
hakuni	-12.3722
hemoglobin	-12.3722
hutney	-12.3722
nfortunately	-12.3722
nunciation	-12.3722
privacy	-12.3722
quirrel	-12.3722
saurus	-12.3722
yuhas	-12.3722
ü	-12.3722
द्ध	-12.3722
र्थ	-12.3722
ालय	-12.3722
▁(#)	-12.3722
▁2070	-12.3722
▁5.4.4	-12.3722
▁Algebra	-12.3722
▁Alleluia	-12.3722
▁Alphaeus	-12.3722
▁Aluminum	-12.3722
▁Announcements	-12.3722
▁Beelzebub	-12.3722
▁CarService	-12.3722
▁Chhau	-12.3722
▁Clipboard	-12.3722
▁College	-12.3722
▁Comforter	-12.3722
▁Cultural	-12.3722
▁Deepawali	-12.3722
▁Donkey	-12.3722
▁Drafts	-12.3722
▁Equity	-12.3722
▁Erastus	-12.3722
▁Evaporation	-12.3722
▁Exhalation	-12.3722
▁Extract	-12.3722
▁Female	-12.3722
▁Float	-12.3722
▁Fossil	-12.3722
▁Golgotha	-12.3722
▁Gorakhnath	-12.3722
▁Iceytina	-12.3722
▁Indicators	-12.3722
▁Jatayu	-12.3722
▁Jlabel	-12.3722
▁Kidney	-12.3722
▁Kishkindha	-12.3722
▁LOGNAME	-12.3722
▁Lucius	-12.3722
▁Magenta	-12.3722
▁Maharashtra	-12.3722
▁Mattath	-12.3722
▁Moudgalya	-12.3722
▁Mudrá	-12.3722
▁Nandigrama	-12.3722
▁Origin	-12.3722
▁PADA	-12.3722
▁PNG	-12.3722
▁PRECAUTIONS	-12.3722
▁Padmanabh	-12.3722
▁Padmásana	-12.3722
▁Paschimott	-12.3722
▁Pharaoh	-12.3722
▁Photosynthesis	-12.3722
▁Picture	-12.3722
▁Platinum	-12.3722
▁Pollution	-12.3722
▁Portland	-12.3722
▁Potassium	-12.3722
▁Prakruti	-12.3722
▁Quantit	-12.3722
▁Rahim	-12.3722
▁STATEMENT	-12.3722
▁SUBSEP	-12.3722
▁Sacrific	-12.3722
▁Sairandhri	-12.3722
▁Salvation	-12.3722
▁Separat	-12.3722
▁Shrut	-12.3722
▁Silvanus	-12.3722
▁Sinai	-12.3722
▁Slips	-12.3722
▁Smyrna	-12.3722
▁Sosthenes	-12.3722
▁Summarize	-12.3722
▁TITLE	-12.3722
▁TUTORIAL	-12.3722
▁Thessalonica	-12.3722
▁Transform	-12.3722
▁Workload	-12.3722
▁Zabulon	-12.3722
▁abolished	-12.3722
▁abominable	-12.3722
▁abomination	-12.3722
▁absorption	-12.3722
▁accommodate	-12.3722
▁accompany	-12.3722
▁adminsection	-12.3722
▁allocation	-12.3722
▁amoeba	-12.3722
▁analysis	-12.3722
▁arbitrar	-12.3722
▁association	-12.3722
▁associative	-12.3722
▁beggar	-12.3722
▁bondwoman	-12.3722
▁chapel	-12.3722
▁chastise	-12.3722
▁chryso	-12.3722
▁cleave	-12.3722
▁college	-12.3722
▁constellations	-12.3722
▁convenience	-12.3722
▁conversing	-12.3722
▁corpse	-12.3722
▁daemon	-12.3722
▁decision	-12.3722
▁desolation	-12.3722
▁destructive	-12.3722
▁disallowed	-12.3722
▁discard	-12.3722
▁dismiss	-12.3722
▁disorderly	-12.3722
▁disposed	-12.3722
▁dissension	-12.3722
▁ecosystem	-12.3722
▁efficient	-12.3722
▁eliminate	-12.3722
▁embroider	-12.3722
▁encounter	-12.3722
▁enthusias	-12.3722
▁evaporate	-12.3722
▁exploit	-12.3722
▁farewell	-12.3722
▁guava	-12.3722
▁guess	-12.3722
▁handkerchief	-12.3722
▁heedlessness	-12.3722
▁helmet	-12.3722
▁hormones	-12.3722
▁illustrious	-12.3722
▁incarnate	-12.3722
▁jackal	-12.3722
▁jaggery	-12.3722
▁knife	-12.3722
▁kurukshetra	-12.3722
▁malefactor	-12.3722
▁mammal	-12.3722
▁marble	-12.3722
▁mathematician	-12.3722
▁mihir	-12.3722
▁millstone	-12.3722
▁mygmailpage	-12.3722
▁narration	-12.3722
▁obesity	-12.3722
▁oblongata	-12.3722
▁obvious	-12.3722
▁panch	-12.3722
▁pandavas	-12.3722
▁patanjali	-12.3722
▁patriarch	-12.3722
▁pdflatex	-12.3722
▁perplexed	-12.3722
▁precision	-12.3722
▁quiver	-12.3722
▁rabbit	-12.3722
▁reconciliation	-12.3722
▁replicate	-12.3722
▁repository	-12.3722
▁resume	-12.3722
▁revolving	-12.3722
▁romance	-12.3722
▁sampleDebug	-12.3722
▁sanctification	-12.3722
▁sarangi	-12.3722
▁scarce	-12.3722
▁scenario	-12.3722
▁scorpion	-12.3722
▁sensual	-12.3722
▁separation	-12.3722
▁setOrgName	-12.3722
▁shewbread	-12.3722
▁significant	-12.3722
▁simplicity	-12.3722
▁slothful	-12.3722
▁smart	-12.3722
▁solstice	-12.3722
▁sponge	-12.3722
▁strcmp	-12.3722
▁strcpy	-12.3722
▁strncmp	-12.3722
▁strncpy	-12.3722
▁stumbleth	-12.3722
▁subtilty	-12.3722
▁swollen	-12.3722
▁syllabus	-12.3722
▁telephone	-12.3722
▁threshold	-12.3722
▁trembled	-12.3722
▁ungodliness	-12.3722
▁vapour	-12.3722
▁whoremonger	-12.3722
▁woodcutter	-12.3722
▁wroth	-12.3722
▁zodiac	-12.3722
▁आपण	-12.3722
▁किम	-12.3722
▁दे	-12.3722
▁पुस्तक	-12.3722
BJECT	-12.3722
DER	-12.3722
Lungs	-12.3722
Module	-12.3722
Panch	-12.3722
apolis	-12.3722
bulb	-12.3722
hadrasana	-12.3722
rikrishna	-12.3722
vegetarian	-12.3722
°	-12.3722
▁2020	-12.3722
▁Alexandria	-12.3722
▁Benjamin	-12.3722
▁Bharadwaja	-12.3722
▁Bioinformatic	-12.3722
▁Cyrenian	-12.3722
▁Decapolis	-12.3722
▁Ephesian	-12.3722
▁Gennesaret	-12.3722
▁Intersect	-12.3722
▁Lydda	-12.3722
▁Major	-12.3722
▁Medium	-12.3722
▁NAMASKARA	-12.3722
▁Padahastasana	-12.3722
▁Restrict	-12.3722
▁Rukmini	-12.3722
▁Salmon	-12.3722
▁Skanda	-12.3722
▁Tarsus	-12.3722
▁Thumb	-12.3722
▁Vasisht	-12.3722
▁accursed	-12.3722
▁affrighted	-12.3722
▁annotation	-12.3722
▁approximat	-12.3722
▁baptizing	-12.3722
▁bridle	-12.3722
▁complain	-12.3722
▁confounded	-12.3722
▁crumbs	-12.3722
▁decay	-12.3722
▁decree	-12.3722
▁depression	-12.3722
▁disturbances	-12.3722
▁earthworm	-12.3722
▁entities	-12.3722
▁favor	-12.3722
▁firewood	-12.3722
▁gravity	-12.3722
▁hollow	-12.3722
▁insurrection	-12.3722
▁mrna	-12.3722
▁pallet	-12.3722
▁pilgrim	-12.3722
▁prudent	-12.3722
▁routine	-12.3722
▁siddha	-12.3722
▁sixteen	-12.3722
▁slippery	-12.3722
▁truthfulness	-12.3722
▁uncircumcised	-12.3722
▁urethra	-12.3722
▁yonder	-12.3722
PTION	-12.3722
bhanda	-12.3722
metry	-12.3722
▁14.10	-12.3722
▁425	-12.3722
▁Meera	-12.3722
▁Mouth	-12.3722
▁Peepal	-12.3722
▁Philippi	-12.3722
▁Range	-12.3722
▁Varuna	-12.3722
▁conserv	-12.3722
▁flick	-12.3722
▁frog	-12.3722
▁marasmus	-12.3722
▁mercies	-12.3722
▁pollen	-12.3722
▁tanner	-12.3722
▁tedious	-12.3722
▁Camel	-12.3722
▁pruning	-12.3722
▁tawa	-12.3722
▁tube	-12.3722
Raudra	-12.3722
bhavya	-12.3722
ulfi	-12.3722
▁020	-12.3722
▁Puranas	-12.3722
▁Shatru	-12.3722
▁cosine	-12.3722
▁epic	-12.3722
▁glide	-12.3722
▁Allocat	-12.3722
▁Basi	-12.3722
▁Keyword	-12.3722
▁Vanaras	-12.3722
ranti	-12.3722
▁Brain	-12.3722
▁Minor	-12.3722
▁Mouse	-12.3722
▁jaw	-12.3722
Mammal	-12.3722
▁Shape	-12.3722
▁baby	-12.3722
▁consort	-12.3722
▁Lyc	-12.3722
▁Salary	-12.3722
▁official	-12.3722
ATA	-12.3722
CTION	-12.3722
▁Frying	-12.3722
▁contrari	-12.3722
▁subvert	-12.3722
Anirdes	-12.3722
▁WHAT	-12.3722
▁mites	-12.3722
▁Excretion	-12.3722
▁srand	-12.3722
▁False	-12.3722
curvy	-12.3722
▁Eating	-12.3722
▁chopped	-12.3722
▁inference	-12.3722
▁filthiness	-12.3722
▁Agar	-12.3722
▁halt	-12.3722
▁RigVeda	-12.3722
▁Sychem	-12.3722
Anirban	-12.3722
electrical	-12.3722
communicable	-12.3722
▁divorcement	-12.3722
▁Maric	-12.3722
▁Bash	-12.3722
▁Ritu	-12.3722
▁enlightened	-12.3722
▁groundnut	-12.3722
Mighty	-12.3722
▁Sugreev	-12.3722
▁blasphemous	-12.3722
▁concatenation	-12.3722
▁cyanide	-12.3722
▁Abia	-12.3722
▁Template	-12.3722
▁marketplace	-12.3722
BHA	-12.3722
Setu	-12.3722
▁expens	-12.3722
▁inspiration	-12.3722
▁prasa	-12.3722
▁cake	-12.3722
▁devas	-12.3722
▁nonviolence	-12.3722
▁Discount	-12.3722
methyl	-12.3722
▁hsp	-12.3722
▁Vol	-12.3722
administer	-12.3722
▁compact	-12.3722
▁cubit	-12.3722
▁Italic	-12.3722
▁trimm	-12.3722
sneha	-12.3722
▁swapping	-12.3722
▁Starred	-12.3722
▁entitled	-12.3722
▁sidhantika	-12.3722
▁Result	-12.3722
▁collar	-12.3722
▁Liabilities	-12.3722
▁सम्	-12.3722
▁Sym	-12.3722
▁claim	-12.3722
▁edification	-12.3722
mukha	-12.3722
▁Depart	-12.3722
▁devatas	-12.3722
▁shamefully	-12.3722
▁Kushala	-12.3722
Hearken	-12.3722
▁Kuru	-12.3722
▁clause	-12.3722
जन	-12.3722
▁Shavásana	-12.3722
▁recognition	-12.3722
arantha	-12.3722
akarásana	-12.3722
▁stewardship	-12.3722
▁ImageDisplay	-12.3722
▁progressively	-12.3722
▁cursing	-12.3722
prabhu	-12.3722
▁forbearance	-12.3723
▁Mattha	-12.3723
▁adher	-12.3723
▁solid	-12.3723
▁pingal	-12.3723
▁Photos	-12.3723
▁shaft	-12.3723
▁arith	-12.3723
▁Christian	-12.3723
▁parantha	-12.3723
▁waking	-12.3723
huffle	-12.3723
imestone	-12.3723
▁Behavio	-12.3723
▁Lalith	-12.3723
▁concentrating	-12.3723
▁peak	-12.3723
ignifican	-12.3723
▁remark	-12.3723
▁motionless	-12.3723
▁Liber	-12.3723
▁grading	-12.3723
▁subscript	-12.3723
▁Bound	-12.3723
▁bast	-12.3723
▁adulterers	-12.3723
▁Curs	-12.3723
▁UFF	-12.3723
▁Saraswati	-12.3723
▁suffice	-12.3723
▁Bath	-12.3723
▁HOME	-12.3723
THANA	-12.3723
▁frontaccounting	-12.3723
▁Grand	-12.3723
▁nests	-12.3723
▁uncertain	-12.3723
USER	-12.3723
▁Kanad	-12.3723
▁framework	-12.3723
▁8.1	-12.3723
Typecasting	-12.3723
▁Devata	-12.3723
himble	-12.3723
obile	-12.3724
▁motivation	-12.3724
ETC	-12.3724
▁Direction	-12.3724
▁courageous	-12.3724
ksho	-12.3724
▁Warning	-12.3724
▁asuras	-12.3724
▁playground	-12.3724
▁vaish	-12.3724
▁substituent	-12.3724
▁Kris	-12.3724
▁Diana	-12.3724
onia	-12.3724
▁25%	-12.3724
▁specialist	-12.3724
▁dhol	-12.3724
▁Dance	-12.3724
▁dialogue	-12.3724
▁alloy	-12.3724
▁Nadu	-12.3724
▁seduc	-12.3724
▁intersection	-12.3724
▁stair	-12.3724
▁viol	-12.3724
▁50,000	-12.3724
▁childhood	-12.3724
▁observance	-12.3725
▁elsewhere	-12.3725
shetra	-12.3725
▁unworth	-12.3725
crap	-12.3725
▁Arist	-12.3725
▁grand	-12.3725
▁broom	-12.3725
▁lifestyle	-12.3725
diff	-12.3725
▁compression	-12.3725
▁imitate	-12.3725
OME	-12.3725
▁technology	-12.3725
▁sanit	-12.3725
7/20	-12.3725
hakrásana	-12.3725
▁Vibhu	-12.3725
▁Gandiva	-12.3725
▁Yudhishthira	-12.3725
▁Fuel	-12.3725
Ghee	-12.3726
▁Way	-12.3726
▁denie	-12.3726
▁Gyana	-12.3726
▁deck	-12.3726
▁subtraction	-12.3726
▁5000	-12.3726
▁factories	-12.3726
kilo	-12.3726
guid	-12.3726
iversities	-12.3727
▁Important	-12.3727
▁inventory	-12.3727
▁satisfy	-12.3727
Thereafter	-12.3727
yajn	-12.3727
▁diagonally	-12.3727
SMS	-12.3727
▁Logical	-12.3727
▁Dush	-12.3727
itchen	-12.3727
▁Resu	-12.3727
▁Operations	-12.3727
▁paid	-12.3727
▁snow	-12.3727
Ok	-12.3727
▁reload	-12.3727
▁industrial	-12.3727
▁pack	-12.3727
▁achievement	-12.3728
▁heresies	-12.3728
▁harmless	-12.3728
bhati	-12.3728
ervic	-12.3728
▁occupie	-12.3728
rontaccounting	-12.3728
Whereby	-12.3728
egative	-12.3728
▁YouTube	-12.3729
▁hys	-12.3729
▁tune	-12.3729
▁swan	-12.3729
▁chir	-12.3729
quate	-12.3729
ugarcane	-12.3729
secuti	-12.3729
namaskár	-12.3729
vot	-12.3729
2.9	-12.3729
▁chiral	-12.3729
ISE	-12.373
▁returndate	-12.373
▁Citation	-12.373
▁blamed	-12.373
($)	-12.373
▁Nanda	-12.373
▁Sanjaya	-12.373
▁cyan	-12.373
▁route	-12.3731
▁shout	-12.3731
▁Love	-12.3732
raim	-12.3732
▁800	-12.3732
▁lustre	-12.3732
▁tap	-12.3732
▁allowance	-12.3732
▁unlimited	-12.3732
Vrat	-12.3733
xls	-12.3733
▁raile	-12.3733
▁crieth	-12.3733
▁0.5	-12.3733
▁6.5	-12.3733
▁radiant	-12.3733
▁restriction	-12.3734
▁subfield	-12.3734
▁Seven	-12.3734
▁Mahesh	-12.3734
▁Useful	-12.3735
▁Configuration	-12.3736
▁initiali	-12.3736
▁professional	-12.3736
Flag	-12.3736
▁Dwa	-12.3736
▁mightily	-12.3737
▁excellenc	-12.3737
▁Melakarta	-12.3738
hoice	-12.3738
▁memori	-12.3739
▁Hast	-12.374
▁Skin	-12.374
▁measurement	-12.374
▁grazed	-12.3741
▁suspend	-12.3741
▁UT	-12.3741
▁threefold	-12.3741
▁vast	-12.3741
▁rank	-12.3742
▁sHeight	-12.3742
▁animated	-12.3742
▁neti	-12.3742
▁Gir	-12.3743
▁starch	-12.3743
▁Lys	-12.3744
▁Brahmin	-12.3744
▁Core	-12.3744
\_	-12.3745
▁Kit	-12.3745
▁rang	-12.3746
▁consti	-12.3746
▁ignored	-12.3746
▁sticky	-12.3747
▁honestly	-12.3748
protonated	-12.3748
▁sector	-12.3748
ekh	-12.3749
▁pence	-12.3749
rong	-12.375
▁fruitful	-12.375
▁prog	-12.375
gz	-12.3751
▁commendeth	-12.3752
▁Hiranyagarbh	-12.3752
▁Kern	-12.3752
▁transgressor	-12.3752
andom	-12.3753
▁profiteth	-12.3753
ref	-12.3754
▁Vak	-12.3754
strlen	-12.3755
▁contentment	-12.3756
adies	-12.3757
<=	-12.3757
▁Ruler	-12.3758
anese	-12.376
▁plainly	-12.3761
bage	-12.3762
EE	-12.3763
▁VIRA	-12.3763
icken	-12.3764
▁blindness	-12.3765
▁5.3	-12.3768
▁adv	-12.377
dhyas	-12.3772
capsul	-12.3773
▁Conform	-12.3773
▁mending	-12.3773
Assum	-12.3775
▁focuses	-12.3777
▁workman	-12.3778
▁salty	-12.3779
▁evaluate	-12.378
▁Lava	-12.3781
▁Bag	-12.3781
Nothing	-12.3781
intense	-12.3783
▁reconcil	-12.3789
▁10.1	-12.379
Mb	-12.3796
▁Computer	-12.3798
,00,000/-	-12.3801
▁sap	-12.3803
Sithilikarana	-12.3808
evil	-12.3813
orous	-12.3815
▁Vee	-12.3819
▁6.1	-12.3826
▁Qualit	-12.3833
Thousand	-12.3837
aheshvara	-12.3839
▁programmer	-12.3852
▁contend	-12.3852
▁encod	-12.3855
tomato	-12.3856
▁Amb	-12.3857
xcellent	-12.3861
nger	-12.3861
▁Jar	-12.3862
▁undergo	-12.3863
trum	-12.3864
frac	-12.3873
▁Ur	-12.3884
hanga	-12.3906
▁Director	-12.3913
ccomplishment	-12.3936
rides	-12.3937
001	-12.394
kap	-12.3943
matted	-12.3946
▁Round	-12.3958
▁electron	-12.396
▁unsee	-12.3961
Pingal	-12.3965
aranga	-12.3966
▁Digesti	-12.3971
GRE	-12.3978
kam	-12.3988
Idli	-12.3993
ingdom	-12.3998
GC	-12.4002
gana	-12.4005
Night	-12.4011
वदत्	-12.4032
▁Onesi	-12.4033
▁moo	-12.4038
Nach	-12.4053
pict	-12.4081
▁functionalit	-12.4089
etals	-12.4114
abas	-12.4126
bidden	-12.4132
▁prepar	-12.4141
ेश	-12.4145
kde	-12.4173
itah	-12.4178
yanta	-12.4181
bandha	-12.4182
▁realiz	-12.4184
010	-12.4189
▁Radia	-12.4196
▁Shitil	-12.4219
spitefully	-12.423
mango	-12.4255
▁Mahar	-12.4275
stitution	-12.4326
Kramah	-12.4348
priya	-12.4362
hospital	-12.4371
▁Require	-12.4374
vyay	-12.4376
▁duplicat	-12.4382
Bull	-12.4386
mk	-12.441
Maho	-12.4413
salt	-12.4428
Basically	-12.4448
Town	-12.4449
lassical	-12.4456
LAS	-12.4457
anyobjects	-12.448
anji	-12.4502
▁debugg	-12.4578
▁Defin	-12.4593
▁dodg	-12.4643
nail	-12.467
intro	-12.468
▁eff	-12.4698
garbha	-12.47
ास	-12.4755
finite	-12.4759
Eka	-12.4797
urpose	-12.4799
itemize	-12.483
mrut	-12.4883
Jyotir	-12.4976
▁Chit	-12.4981
nourishment	-12.4989
▁acknowledg	-12.5022
hanur	-12.5073
▁win	-12.5089
restrained	-12.5097
▁dep	-12.5134
Interesting	-12.5142
ananda	-12.5149
▁localiz	-12.5163
ART	-12.5196
▁Tru	-12.5201
Lea	-12.5216
▁Sank	-12.5317
roperty	-12.5332
▁retriev	-12.5341
▁advance	-12.5357
▁Interest	-12.5361
Balanc	-12.5401
▁compet	-12.545
▁recogniz	-12.5494
Renam	-12.5536
tended	-12.5583
▁dependenc	-12.5587
0,000	-12.5627
▁Canno	-12.5718
▁curio	-12.5726
roti	-12.5734
Speak	-12.5751
▁Memo	-12.5775
“./	-12.5794
face	-12.5798
garbh	-12.5798
egion	-12.583
hipping	-12.5857
Arjun	-12.5864
▁debug	-12.592
ajmah	-12.596
desha	-12.5974
bearing	-12.5976
etter	-12.6019
2000	-12.6141
▁intreat	-12.6193
diction	-12.6196
pelling	-12.6247
RAN	-12.6252
package	-12.6376
▁despite	-12.6387
achin	-12.6428
Natur	-12.6437
librarian	-12.6438
Trib	-12.648
के	-12.6497
▁Manipulati	-12.6516
echo	-12.6538
irasana	-12.6546
▁Suptav	-12.6561
▁produc	-12.6567
▁clari	-12.6569
cycle	-12.6577
GU	-12.6611
▁10.0	-12.6621
kosh	-12.6622
ferred	-12.6625
ARE	-12.6638
alities	-12.6663
moving	-12.6688
onqueror	-12.6707
▁whit	-12.6726
ulation	-12.673
▁decorati	-12.6774
▁Direct	-12.6792
▁@0	-12.6819
Vibha	-12.6853
wake	-12.6889
▁Prasa	-12.6889
▁generat	-12.6901
▁FOR	-12.6903
erishable	-12.691
erisheth	-12.6914
▁evaluat	-12.6917
econcile	-12.6921
▁guard	-12.6923
▁Issue	-12.6925
▁leper	-12.6925
▁enabl	-12.6926
▁vibration	-12.6928
▁Detail	-12.6928
▁limb	-12.6928
80	-12.6929
▁Guna	-12.6929
▁coast	-12.693
nowned	-12.693
▁eyeball	-12.6931
▁discus	-12.6933
▁Gentile	-12.6934
▁integra	-12.6935
▁Sithilikara	-12.6936
omputers	-12.6942
dasa	-12.696
▁phosp	-12.6963
agged	-12.6965
▁recei	-12.6967
▁desp	-12.6969
▁translat	-12.697
▁wrap	-12.6974
raduate	-12.6992
special	-12.6994
▁Breath	-12.6994
:15	-12.6996
▁Organi	-12.6997
merge	-12.6998
mark	-12.6999
Ahimsa	-12.7
ayurveda	-12.7
Mango	-12.7
pervading	-12.7
friendly	-12.7
media	-12.7
Agni	-12.7001
firefox	-12.7001
India	-12.7001
style	-12.7001
philosophy	-12.7001
Complete	-12.7001
Play	-12.7002
organization	-12.7002
Vishva	-12.7002
Hindi	-12.7002
astronomy	-12.7002
Operators	-12.7002
Black	-12.7002
reply	-12.7002
Cast	-12.7002
free	-12.7002
certain	-12.7002
revolve	-12.7002
Develop	-12.7002
htdocs	-12.7002
reproduction	-12.7003
molecul	-12.7003
Statement	-12.7003
Reference	-12.7003
discover	-12.7003
HelloWorld	-12.7003
Sunday	-12.7003
intestine	-12.7003
Pop	-12.7003
loosen	-12.7003
Lock	-12.7003
Expand	-12.7003
Rebecca	-12.7003
Trash	-12.7003
exalted	-12.7003
Hydrogen	-12.7003
Devotee	-12.7003
Root	-12.7003
voluntary	-12.7004
Samadhi	-12.7004
Current	-12.7004
localhost	-12.7004
Drag	-12.7004
Dharana	-12.7004
Satya	-12.7004
manifested	-12.7004
Raju	-12.7004
tree	-12.7004
Control	-12.7004
View	-12.7004
Green	-12.7004
Guru	-12.7004
exit	-12.7004
Arrays	-12.7004
underscore	-12.7004
broken	-12.7004
harmful	-12.7004
Install	-12.7004
Sync	-12.7004
error	-12.7004
Company	-12.7004
tilde	-12.7004
provide	-12.7004
brahman	-12.7004
Entry	-12.7005
Google	-12.7005
demonstrate	-12.7005
dollar	-12.7005
identify	-12.7005
support	-12.7005
Course	-12.7005
Vyayama	-12.7005
carbon	-12.7005
simpl	-12.7005
Repeat	-12.7005
square	-12.7005
obtain	-12.7005
installed	-12.7005
library	-12.7005
movements	-12.7005
student	-12.7005
keyboard	-12.7005
sequence	-12.7005
common	-12.7005
browser	-12.7005
nature	-12.7005
different	-12.7005
among	-12.7005
leaves	-12.7005
Father	-12.7005
Static	-12.7005
basic	-12.7005
options	-12.7005
two	-12.7005
total	-12.7005
plus	-12.7005
cannot	-12.7006
important	-12.7006
valid	-12.7007
joint	-12.7007
▁ragi	-12.7007
Usually	-12.7007
nutrition	-12.7008
similar	-12.7008
doors	-12.7009
told	-12.7009
▁compel	-12.7009
▁excel	-12.701
Relation	-12.701
private	-12.701
birds	-12.7011
Pull	-12.7011
▁Hiranya	-12.7013
forward	-12.7013
8.0	-12.7015
Jan	-12.7016
amination	-12.7016
seeing	-12.7016
word	-12.7018
Samp	-12.7018
pause	-12.7018
▁chaste	-12.7019
Anna	-12.7019
त्र	-12.7021
reaches	-12.7022
▁punish	-12.7023
▁straw	-12.7024
▁sprout	-12.7025
shatriyas	-12.7025
illars	-12.7025
▁approv	-12.7025
▁imput	-12.7026
▁interlock	-12.7026
▁सन्द	-12.7027
please	-12.7029
▁appar	-12.703
▁fourfo	-12.7031
▁supplie	-12.7031
▁slid	-12.7031
Para	-12.7033
▁impress	-12.7035
urds	-12.7036
▁multiplie	-12.7037
▁conceive	-12.7037
▁revile	-12.7038
▁marrie	-12.7038
ocia	-12.7038
▁080	-12.7039
▁Distribut	-12.704
▁possibl	-12.704
▁choke	-12.7041
▁happi	-12.7041
abri	-12.7041
▁apple	-12.7041
▁eviden	-12.7041
▁accurate	-12.7044
▁frequent	-12.7044
▁Script	-12.7044
▁diligent	-12.7044
▁Raj	-12.7044
▁simultaneous	-12.7044
▁kab	-12.7044
kára	-12.7045
▁Short	-12.7045
▁Ayurved	-12.7047
▁Narayan	-12.7047
Receiv	-12.7047
▁Bhishm	-12.7047
▁geometr	-12.7047
▁satisf	-12.7048
utrition	-12.7048
▁inventor	-12.7048
▁Auth	-12.7048
anjaya	-12.7048
▁jealous	-12.7048
tudentDetail	-12.705
ensitive	-12.705
pecified	-12.705
etween	-12.705
alculus	-12.705
houlder	-12.705
▁trespass	-12.7051
Gujarat	-12.7051
ncorrect	-12.7051
▁_______	-12.7052
▁motivat	-12.7052
रति	-12.7052
▁quest	-12.7052
latter	-12.7052
rochure	-12.7053
▁batt	-12.7053
oops	-12.7053
eractive	-12.7053
eign	-12.7053
▁fragran	-12.7053
▁frag	-12.7053
izard	-12.7053
ircumcision	-12.7053
ragrance	-12.7053
icrobiology	-12.7053
oolish	-12.7053
ecimal	-12.7053
positories	-12.7054
िर	-12.7054
aivalya	-12.7054
▁infer	-12.7054
ajesty	-12.7054
▁stabili	-12.7054
nglish	-12.7054
▁chole	-12.7054
andhya	-12.7054
esticides	-12.7054
arenthesis	-12.7054
ulses	-12.7054
▁fru	-12.7054
echnology	-12.7054
▁tutor	-12.7054
▁quar	-12.7054
bibliograph	-12.7054
▁01/01/201	-12.7054
▁Debug	-12.7054
cretion	-12.7054
▁temper	-12.7054
usbands	-12.7054
▁Shalabh	-12.7054
clusive	-12.7055
ugree	-12.7055
achth	-12.7055
▁chop	-12.7055
▁lib	-12.7055
▁physi	-12.7055
▁Drona	-12.7055
ometric	-12.7055
randmother	-12.7055
▁Frame	-12.7055
▁meek	-12.7055
▁glori	-12.7055
▁obj	-12.7055
dichloro	-12.7055
infect	-12.7055
्भु	-12.7055
vocation	-12.7055
▁cyclohex	-12.7055
ARVA	-12.7055
ädi	-12.7055
क्ष	-12.7055
▁युद्ध	-12.7055
▁संस्	-12.7055
ITION	-12.7055
MATSY	-12.7055
iaphragm	-12.7055
nidhir	-12.7055
गृह	-12.7055
दिन	-12.7055
▁Ashadha	-12.7055
▁Limits	-12.7055
▁Samskrita	-12.7055
▁assault	-12.7055
▁encompass	-12.7055
▁eyeglass	-12.7055
▁interrupt	-12.7055
▁rehears	-12.7055
▁whirlpool	-12.7055
▁लिख	-12.7055
:8080	-12.7055
Achyuta	-12.7055
Apramey	-12.7055
Aristarchus	-12.7055
BALANCE	-12.7055
Boiling	-12.7055
ChessGame	-12.7055
ERV	-12.7055
Epaphras	-12.7055
Ignorance	-12.7055
Kamadhenu	-12.7055
Kubera	-12.7055
Kuvalesaya	-12.7055
LINES	-12.7055
ORGANISMS	-12.7055
Odisha	-12.7055
Peacock	-12.7055
Phrygia	-12.7055
Previously	-12.7055
Response	-12.7055
SHYAM	-12.7055
Shrinivasa	-12.7055
Snapshot	-12.7055
Tailoring	-12.7055
Vrikshasana	-12.7055
XCF	-12.7055
[10]	-12.7055
[30]	-12.7055
bulus	-12.7055
carnivores	-12.7055
cetaldehyde	-12.7055
chandra	-12.7055
erbivores	-12.7055
evaporation	-12.7055
glorification	-12.7055
hankarabharana	-12.7055
ishwaroopa	-12.7055
kettle	-12.7055
marakosha	-12.7055
mbassadors	-12.7055
mdhusein	-12.7055
mphibians	-12.7055
potassium	-12.7055
razin	-12.7055
setDepartment	-12.7055
stomata	-12.7055
sumptuous	-12.7055
tFoundException	-12.7055
urushottama	-12.7055
vailableCopies	-12.7055
wamedha	-12.7055
xampp	-12.7055
Ä	-12.7055
è	-12.7055
जानाति	-12.7055
दर्शय	-12.7055
दृष्ट	-12.7055
भीत	-12.7055
▁(1/2)	-12.7055
▁03/31/201	-12.7055
▁04/01/201	-12.7055
▁10-19	-12.7055
▁127.0.0.1	-12.7055
▁20-29	-12.7055
▁85%	-12.7055
▁ADIL	-12.7055
▁ADVANCE	-12.7055
▁Agricultur	-12.7055
▁Aminadab	-12.7055
▁Anandi	-12.7055
▁Availability	-12.7055
▁BUT	-12.7055
▁Bernice	-12.7055
▁Bethphage	-12.7055
▁Booz	-12.7055
▁Brahmaputra	-12.7055
▁Brahmgupt	-12.7055
▁Carbohydrates	-12.7055
▁Chaitra	-12.7055
▁CheckOutServlet	-12.7055
▁Chemistry	-12.7055
▁Chhattisgarh	-12.7055
▁Chitrakuta	-12.7055
▁Circle	-12.7055
▁Consciousness	-12.7055
▁DEVELOPMENT	-12.7055
▁Dandäsana	-12.7055
▁Darwin	-12.7055
▁Devotion	-12.7055
▁Dhauti	-12.7055
▁EMBL	-12.7055
▁EOF	-12.7055
▁Eliakim	-12.7055
▁Equipments	-12.7055
▁Esau	-12.7055
▁Farmer	-12.7055
▁Gadarenes	-12.7055
▁Gandhari	-12.7055
▁Gethsemane	-12.7055
▁Gomorrha	-12.7055
▁Grecians	-12.7055
▁Harmful	-12.7055
▁Harmon	-12.7055
▁Herodians	-12.7055
▁Indentation	-12.7055
▁Jerem	-12.7055
▁Joanna	-12.7055
▁Jogging	-12.7055
▁Julius	-12.7055
▁Kaushik	-12.7055
▁Kosha	-12.7055
▁Kratu	-12.7055
▁Kumuda	-12.7055
▁Landscape	-12.7055
▁MCQ	-12.7055
▁MMDDYYYY	-12.7055
▁Madhav	-12.7055
▁Manasses	-12.7055
▁Mataram	-12.7055
▁Matsyasana	-12.7055
▁Matthias	-12.7055
▁Messias	-12.7055
▁Mohan	-12.7055
▁Multiplication	-12.7055
▁Naasson	-12.7055
▁Nakula	-12.7055
▁Natyshastra	-12.7055
▁Nephthalim	-12.7055
▁Participants	-12.7055
▁Pentecost	-12.7055
▁Percentage	-12.7055
▁Pergamos	-12.7055
▁Philadelphia	-12.7055
▁Phosphorus	-12.7055
▁Prahasan	-12.7055
▁Precautions	-12.7055
▁Prophesy	-12.7055
▁Protista	-12.7055
▁Quarterly	-12.7055
▁Redirecti	-12.7055
▁Reflect	-12.7055
▁Respiration	-12.7055
▁SETUBANDH	-12.7055
▁STRETCH	-12.7055
▁Sadhana	-12.7055
▁Salathiel	-12.7055
▁SampleClass	-12.7055
▁Sankhya	-12.7055
▁Scholar	-12.7055
▁Shankaracharya	-12.7055
▁Shrungi	-12.7055
▁Sitkari	-12.7055
▁Stream	-12.7055
▁StudentMarks	-12.7055
▁TERM	-12.7055
▁Thessaloni	-12.7055
▁Tiberias	-12.7055
▁Tongue	-12.7055
▁Tortoise	-12.7055
▁Triptychs	-12.7055
▁Tychicus	-12.7055
▁Uddiy	-12.7055
▁Usthrasana	-12.7055
▁Uttarakhand	-12.7055
▁Variation	-12.7055
▁Wholesale	-12.7055
▁Yamuna	-12.7055
▁Yudishtra	-12.7055
▁Zacchaeus	-12.7055
▁Zorobabel	-12.7055
▁accumulate	-12.7055
▁addTwoNumbers	-12.7055
▁admonition	-12.7055
▁advisable	-12.7055
▁affairs	-12.7055
▁agencies	-12.7055
▁alkanes	-12.7055
▁amazement	-12.7055
▁amazing	-12.7055
▁analogy	-12.7055
▁antialiasing	-12.7055
▁apprehend	-12.7055
▁authenticate	-12.7055
▁babbl	-12.7055
▁blemish	-12.7055
▁bluish	-12.7055
▁brawler	-12.7055
▁bronchi	-12.7055
▁bucket	-12.7055
▁centuries	-12.7055
▁ceremonies	-12.7055
▁chakra	-12.7055
▁cheerfulness	-12.7055
▁chocolate	-12.7055
▁churning	-12.7055
▁circumstance	-12.7055
▁cisplatin	-12.7055
▁clenched	-12.7055
▁climate	-12.7055
▁cluster	-12.7055
▁contempt	-12.7055
▁courteously	-12.7055
▁crayon	-12.7055
▁cream	-12.7055
▁cunning	-12.7055
▁deacon	-12.7055
▁destitute	-12.7055
▁dhokla	-12.7055
▁diammine	-12.7055
▁discharge	-12.7055
▁dissuad	-12.7055
▁district	-12.7055
▁dramaturgy	-12.7055
▁drowned	-12.7055
▁edifieth	-12.7055
▁elongated	-12.7055
▁emerald	-12.7055
▁enlightening	-12.7055
▁eradicat	-12.7055
▁evangelist	-12.7055
▁exclude	-12.7055
▁fellowprisoner	-12.7055
▁fertile	-12.7055
▁foliage	-12.7055
▁fossil	-12.7055
▁frank	-12.7055
▁freewoman	-12.7055
▁furnished	-12.7055
▁gandharvas	-12.7055
▁garnished	-12.7055
▁getDepartment	-12.7055
▁grandparent	-12.7055
▁gratitude	-12.7055
▁gravy	-12.7055
▁hazard	-12.7055
▁iShowU	-12.7055
▁incrdecr	-12.7055
▁indigestion	-12.7055
▁indirectly	-12.7055
▁insecticides	-12.7055
▁instinct	-12.7055
▁jacinth	-12.7055
▁jaltarang	-12.7055
▁jamun	-12.7055
▁jeopardy	-12.7055
▁kinsfolk	-12.7055
▁kinsman	-12.7055
▁kundir	-12.7055
▁landscape	-12.7055
▁licence	-12.7055
▁lukewarm	-12.7055
▁lumbar	-12.7055
▁malnutrition	-12.7055
▁mechanism	-12.7055
▁memorization	-12.7055
▁myrrh	-12.7055
▁nagarjun	-12.7055
▁nagf	-12.7055
▁nectar	-12.7055
▁neighborhood	-12.7055
▁obstruction	-12.7055
▁operate	-12.7055
▁peripher	-12.7055
▁pigment	-12.7055
▁porph	-12.7055
▁precise	-12.7055
▁predecessor	-12.7055
▁predestinate	-12.7055
▁proclaim	-12.7055
▁prophecies	-12.7055
▁puissance	-12.7055
▁rumour	-12.7055
▁schedule	-12.7055
▁scourging	-12.7055
▁screenshot	-12.7055
▁serjeants	-12.7055
▁silicon	-12.7055
▁situated	-12.7055
▁slumber	-12.7055
▁snacks	-12.7055
▁snippet	-12.7055
▁sorcerer	-12.7055
▁sorceries	-12.7055
▁spheres	-12.7055
▁spunge	-12.7055
▁stanza	-12.7055
▁steadily	-12.7055
▁stunning	-12.7055
▁successCheckout	-12.7055
▁succour	-12.7055
▁swept	-12.7055
▁symmetric	-12.7055
▁synaptic	-12.7055
▁temporarily	-12.7055
▁terrestrial	-12.7055
▁tortoise	-12.7055
▁triptych	-12.7055
▁triumph	-12.7055
▁twelfth	-12.7055
▁unblameabl	-12.7055
▁uncovered	-12.7055
▁unloose	-12.7055
▁unwashen	-12.7055
▁variance	-12.7055
▁victuals	-12.7055
▁vigilant	-12.7055
▁vulture	-12.7055
▁wellbeloved	-12.7055
▁whirl	-12.7055
▁अभ	-12.7055
▁आग	-12.7055
▁धर्म	-12.7055
▁सर्व	-12.7055
Moist	-12.7055
Vrikshayurved	-12.7055
sahasra	-12.7055
▁Absorb	-12.7055
▁Around	-12.7055
▁Dangi	-12.7055
▁Gender	-12.7055
▁Interpola	-12.7055
▁JFrame	-12.7055
▁Knux	-12.7055
▁Modifiers	-12.7055
▁Mohini	-12.7055
▁Namas	-12.7055
▁Naqq	-12.7055
▁Purusa	-12.7055
▁Yashoda	-12.7055
▁contemplat	-12.7055
▁decease	-12.7055
▁distort	-12.7055
▁glutton	-12.7055
▁malai	-12.7055
▁overcharge	-12.7055
▁revive	-12.7055
▁sabot	-12.7055
▁shawl	-12.7055
▁shovel	-12.7055
▁tusk	-12.7055
Dhananjay	-12.7055
MyApplet	-12.7055
NATUR	-12.7055
adventure	-12.7055
aprastha	-12.7055
hiromani	-12.7055
perturbed	-12.7055
reclining	-12.7055
vratri	-12.7055
ज्ञा	-12.7055
▁Acq	-12.7055
▁Advait	-12.7055
▁Areopag	-12.7055
▁Cubic	-12.7055
▁FileChooser	-12.7055
▁Leela	-12.7055
▁Payment	-12.7055
▁Permissions	-12.7055
▁SURYA	-12.7055
▁Spike	-12.7055
▁Surphanaka	-12.7055
▁Swarga	-12.7055
▁Vamana	-12.7055
▁benevolen	-12.7055
▁choudhur	-12.7055
▁dawn	-12.7055
▁decline	-12.7055
▁endurance	-12.7055
▁grazing	-12.7055
▁janaka	-12.7055
▁lamb	-12.7055
▁scorn	-12.7055
▁terrif	-12.7055
▁uplift	-12.7055
▁warfare	-12.7055
▁दश	-12.7055
Mercur	-12.7055
nacle	-12.7055
rotocol	-12.7055
▁Derbe	-12.7055
▁Guha	-12.7055
▁Ishwara	-12.7055
▁Requirements	-12.7055
▁Stotra	-12.7055
▁aversion	-12.7055
▁beguile	-12.7055
▁cheap	-12.7055
▁cyclohexylamine	-12.7055
▁imprint	-12.7055
▁metrics	-12.7055
▁odour	-12.7055
▁plow	-12.7055
▁unlock	-12.7055
Dheera	-12.7055
decomposition	-12.7055
platinum	-12.7055
purush	-12.7055
▁Amavasya	-12.7055
▁Glow	-12.7055
▁Godhead	-12.7055
▁KAP	-12.7055
▁Nucle	-12.7055
▁Treat	-12.7055
▁antivir	-12.7055
▁bhram	-12.7055
▁embodiment	-12.7055
▁fetters	-12.7055
▁impediment	-12.7055
▁laz	-12.7055
▁striving	-12.7055
▁superstitio	-12.7055
▁valour	-12.7055
▁vanity	-12.7055
▁पाठ	-12.7055
Pollutant	-12.7055
Sudarshana	-12.7055
▁Avanti	-12.7055
▁Brave	-12.7055
▁Stephanas	-12.7055
▁assuredly	-12.7055
▁purusha	-12.7055
Navasana	-12.7055
▁1/4	-12.7055
▁vapor	-12.7055
oucher	-12.7055
threaded	-12.7055
▁expectancy	-12.7055
ग्री	-12.7055
▁Mangal	-12.7055
▁begged	-12.7055
▁contradicti	-12.7055
▁glands	-12.7055
▁skies	-12.7055
ammitah	-12.7055
▁BHUJANGASANA	-12.7055
▁intensely	-12.7055
▁stove	-12.7055
msmath	-12.7055
▁Kartik	-12.7055
▁Pig	-12.7055
▁cousin	-12.7055
▁epit	-12.7055
▁Charioteer	-12.7055
▁adulteress	-12.7055
▁recreation	-12.7055
▁Equa	-12.7055
▁Face	-12.7055
▁dedicat	-12.7055
▁emulation	-12.7055
▁mankind	-12.7055
▁melody	-12.7055
▁ureter	-12.7055
▁cowherdess	-12.7055
▁organiser	-12.7055
▁Shurpanakha	-12.7055
▁agency	-12.7055
<<	-12.7055
▁entity	-12.7055
▁lava	-12.7055
▁physiological	-12.7055
▁slot	-12.7055
चिन्ता	-12.7055
▁Kashi	-12.7055
▁counseller	-12.7055
▁highways	-12.7055
▁sweat	-12.7055
▁synthesis	-12.7055
▁Nivruta	-12.7055
amosas	-12.7055
▁pregnan	-12.7055
Civil	-12.7055
▁ASANAS	-12.7055
▁sculpture	-12.7055
▁partition	-12.7055
▁ScrapBook	-12.7055
▁stubs	-12.7055
Prevent	-12.7055
resident	-12.7055
▁Alloy	-12.7055
▁Worship	-12.7055
udder	-12.7055
▁Jalandhar	-12.7055
▁Tagore	-12.7055
▁gnat	-12.7055
▁reacts	-12.7055
▁runneth	-12.7055
▁Shadow	-12.7055
▁rites	-12.7055
▁surmount	-12.7055
▁MyServletPath	-12.7055
aucha	-12.7055
stainless	-12.7055
▁Vijaya	-12.7055
▁acquaintance	-12.7055
▁excit	-12.7055
▁maxim	-12.7055
▁residence	-12.7055
▁puppet	-12.7055
dhva	-12.7055
▁Curd	-12.7055
▁Nandi	-12.7055
vigor	-12.7055
▁exclusive	-12.7055
▁companionship	-12.7055
raci	-12.7055
▁3-4	-12.7055
Issuing	-12.7055
▁Dark	-12.7055
▁delicate	-12.7055
liberate	-12.7055
▁Naukasana	-12.7055
▁Kalinga	-12.7055
▁Ubhay	-12.7055
▁provocation	-12.7055
ladder	-12.7055
▁Pipe	-12.7055
rouble	-12.7055
▁equilibrium	-12.7055
▁Dhamal	-12.7055
▁Shortcuts	-12.7055
▁justice	-12.7055
Vasuprad	-12.7055
▁Pancha	-12.7055
▁biodegradable	-12.7055
▁stimulation	-12.7055
▁temperance	-12.7055
Info	-12.7055
▁preeminence	-12.7055
HARI	-12.7055
▁helium	-12.7055
▁Reese	-12.7055
▁sketchbook	-12.7055
▁Hastasana	-12.7055
Anguli	-12.7055
▁1387	-12.7055
▁pillow	-12.7055
ितु	-12.7055
mediate	-12.7055
pentane	-12.7055
▁lewd	-12.7055
Sthavi	-12.7056
▁ripe	-12.7056
▁sandals	-12.7056
fested	-12.7056
▁Creativity	-12.7056
▁commodi	-12.7056
▁Perfect	-12.7056
flex	-12.7056
23-	-12.7056
▁Dhrishtadyumna	-12.7056
▁carcase	-12.7056
sukta	-12.7056
▁decorating	-12.7056
agging	-12.7056
▁Subclass	-12.7056
krutih	-12.7056
▁पु	-12.7056
▁midday	-12.7056
▁thirtyfold	-12.7056
▁technologies	-12.7056
SUP	-12.7056
▁lizard	-12.7056
▁whale	-12.7056
▁Assam	-12.7056
uspiciousness	-12.7056
▁terror	-12.7056
वृ	-12.7056
▁holi	-12.7056
ुल	-12.7056
▁dexterity	-12.7056
▁flourish	-12.7056
▁Parme	-12.7056
▁stock	-12.7056
bol	-12.7056
ासा	-12.7056
silent	-12.7056
Relink	-12.7056
▁138	-12.7056
▁Combin	-12.7056
▁suspect	-12.7056
▁violent	-12.7056
Kerala	-12.7056
▁asthma	-12.7056
▁majesty	-12.7056
Sweet	-12.7056
▁effulgence	-12.7056
muni	-12.7056
▁198	-12.7056
▁curry	-12.7056
▁Bihu	-12.7056
▁cholera	-12.7056
▁systematically	-12.7056
▁wiki	-12.7056
rientation	-12.7056
▁Ruchi	-12.7056
▁dustbin	-12.7056
▁occupation	-12.7056
▁subhashita	-12.7056
▁discount	-12.7056
▁ginger	-12.7056
▁मा	-12.7056
▁quotation	-12.7056
gradation	-12.7056
lustration	-12.7056
▁geometries	-12.7056
▁297	-12.7056
▁Lessons	-12.7056
Minim	-12.7056
▁गत	-12.7056
▁Repositories	-12.7057
▁spill	-12.7057
▁clotting	-12.7057
▁circulat	-12.7057
▁precept	-12.7057
▁Veena	-12.7057
▁Policeman	-12.7057
▁endeavour	-12.7057
awala	-12.7057
▁boundaries	-12.7057
▁literate	-12.7057
▁principality	-12.7057
▁Nauk	-12.7057
▁apostleship	-12.7057
▁shaloka	-12.7057
pdfcrop	-12.7057
▁Notification	-12.7057
▁resp	-12.7057
jpg	-12.7057
▁phonetic	-12.7057
▁toilet	-12.7057
▁revel	-12.7057
▁parsing	-12.7057
▁shutteth	-12.7057
▁singular	-12.7057
▁Shanta	-12.7057
▁dump	-12.7057
▁halo	-12.7057
▁club	-12.7057
Varna	-12.7057
ishvar	-12.7057
▁evergreen	-12.7057
▁Bitmap	-12.7057
▁Amita	-12.7057
▁Dhanuras	-12.7057
▁crime	-12.7058
omew	-12.7058
▁Jatra	-12.7058
न्ति	-12.7058
▁tourist	-12.7058
payana	-12.7058
▁coins	-12.7058
▁inspector	-12.7058
Present	-12.7058
ेन	-12.7058
▁________	-12.7058
▁partiality	-12.7058
▁Levite	-12.7058
▁jail	-12.7058
▁theatre	-12.7058
▁Dhan	-12.7058
18"	-12.7058
▁HathaYoga	-12.7058
▁couch	-12.7058
Huta	-12.7058
spina	-12.7058
atchet	-12.7058
▁/*	-12.7059
▁octave	-12.7059
▁Nandig	-12.7059
penetrate	-12.7059
▁Shuk	-12.7059
heritage	-12.7059
▁ONE	-12.7059
Gujarati	-12.7059
▁Sneha	-12.7059
▁Naika	-12.7059
▁lordliness	-12.7059
▁exertion	-12.7059
aharaja	-12.7059
Mã	-12.7059
▁clapping	-12.7059
antoor	-12.7059
ambigu	-12.7059
▁Attachment	-12.7059
▁admi	-12.7059
▁settle	-12.7059
supta	-12.7059
vartan	-12.7059
▁carefulness	-12.7059
▁genit	-12.7059
ाण	-12.7059
▁transportation	-12.706
▁Sushru	-12.706
▁Anila	-12.706
▁vira	-12.706
▁Kapo	-12.706
Media	-12.706
hosha	-12.706
khel	-12.706
▁Promote	-12.706
▁Avyak	-12.706
▁withereth	-12.706
▁evermore	-12.706
rahat	-12.706
▁amiss	-12.7061
▁fulfillment	-12.7061
Agree	-12.7061
Anir	-12.7061
DDH	-12.7061
parak	-12.7061
▁miserable	-12.7061
avanah	-12.7061
▁hateful	-12.7061
sufficiency	-12.7061
haling	-12.7062
VES	-12.7062
▁directive	-12.7062
▁entic	-12.7062
▁crush	-12.7062
▁9.5	-12.7062
▁Dyna	-12.7062
▁towel	-12.7062
▁Reuse	-12.7062
▁Shata	-12.7062
▁ganga	-12.7062
▁9.4	-12.7062
ayud	-12.7062
▁Sunlight	-12.7062
▁charak	-12.7063
RAM	-12.7063
▁complexity	-12.7063
58	-12.7063
nishad	-12.7063
▁Eph	-12.7063
▁Praty	-12.7064
▁Angad	-12.7064
ashmi	-12.7064
▁flatter	-12.7064
yoti	-12.7065
eyed	-12.7065
▁Kavi	-12.7065
▁Shad	-12.7065
Agnipurana	-12.7065
▁Dead	-12.7066
▁limitless	-12.7066
armlets	-12.7066
develop	-12.7066
▁egotis	-12.7066
▁radian	-12.7066
▁Dima	-12.7066
shobh	-12.7066
▁gastr	-12.7067
Pose	-12.7067
Dollar	-12.7068
▁Mela	-12.7068
ictionary	-12.7068
▁Sadan	-12.7068
udha	-12.7068
▁invest	-12.7068
graha	-12.7069
egory	-12.7069
स्वर	-12.7069
ishnu	-12.707
▁“;”	-12.707
rium	-12.707
nagar	-12.7071
ormamide	-12.7071
▁Prak	-12.7071
▁wards	-12.7072
▁excelle	-12.7073
▁Nayak	-12.7073
gments	-12.7074
▁impression	-12.7075
rganisms	-12.7075
natic	-12.7075
▁vri	-12.7076
kati	-12.7077
ntelligence	-12.7077
eedback	-12.7077
▁fellowlabourer	-12.7077
▁Phil	-12.7079
sambha	-12.7082
▁Uret	-12.7083
▁kshatriya	-12.7085
nilay	-12.7085
igger	-12.7086
idhana	-12.7089
▁Saha	-12.7092
▁Anala	-12.7092
samatma	-12.7093
arshana	-12.7094
Abhi	-12.7094
▁geographic	-12.71
userdel	-12.7101
▁propounde	-12.7104
▁frie	-12.7104
▁imme	-12.7108
Mahavir	-12.7109
start	-12.7113
(@)	-12.7119
sadhana	-12.7121
ilva	-12.7132
inker	-12.7135
plantae	-12.7138
ugadi	-12.7138
▁Suresh	-12.714
yclo	-12.7142
tellectual	-12.7152
▁क्र	-12.7166
Bihar	-12.7177
saras	-12.7178
umedha	-12.7178
varga	-12.7186
sagar	-12.72
▁Parvath	-12.7207
deficient	-12.7211
Configur	-12.7212
Praja	-12.724
subsist	-12.7241
▁ethic	-12.7242
▁Vash	-12.7262
▁Vibh	-12.7264
▁Euro	-12.7265
Famil	-12.7267
initialize	-12.7304
प्रति	-12.7305
Carry	-12.7313
GO	-12.7316
▁__________	-12.7324
Outside	-12.7339
Country	-12.7378
bduction	-12.7391
flatten	-12.7392
▁Punya	-12.7397
▁LIV	-12.7405
Alternat	-12.7426
▁labo	-12.7428
sipat	-12.7428
oncentrating	-12.7434
▁Substitut	-12.7456
▁rag	-12.7466
▁Rogue	-12.7472
▁degrade	-12.7479
▁recycl	-12.7501
fence	-12.7509
lightened	-12.7526
▁kau	-12.7531
ckoned	-12.7533
Kshi	-12.754
choni	-12.7591
dolatry	-12.7607
chitta	-12.7621
▁विश्व	-12.7649
requencies	-12.7655
amshu	-12.7679
Vasava	-12.7697
Outline	-12.7699
uperlibrarian	-12.7706
▁spec	-12.7711
usepackage	-12.7725
research	-12.7765
180	-12.7774
ushasan	-12.7794
Dasya	-12.7797
vadi	-12.781
Steam	-12.781
▁charitabl	-12.7815
nitialization	-12.7828
Fail	-12.7841
Mak	-12.7844
Normally	-12.7849
Marcus	-12.7851
▁CONS	-12.7855
▁hostilit	-12.7929
cymbals	-12.7951
BK	-12.7968
Purna	-12.8087
▁locat	-12.8093
▁healthie	-12.8096
85	-12.8126
186	-12.8133
iz	-12.8156
odha	-12.8211
hrug	-12.8218
ynchronization	-12.823
Siddha	-12.8244
Liver	-12.8272
▁Brahm	-12.8285
▁rajma	-12.8294
upervis	-12.841
Yama	-12.8434
shape	-12.8502
lotting	-12.8541
ENER	-12.8577
examination	-12.8629
182	-12.8668
wishes	-12.8692
prada	-12.8834
breakers	-12.8935
consciousness	-12.9119
▁East	-12.9174
TRO	-12.9236
▁unconscious	-12.9332
horus	-12.9344
akka	-12.9419
smith	-12.9457
sthanu	-12.952
▁Rou	-12.9523
▁channeliz	-12.9636
▁Suptavajr	-12.9692
monthly	-12.9776
anava	-12.9783
्वय	-12.9802
▁Chakra	-12.9853
dditionally	-12.9974
latten	-12.998
▁encourag	-12.9996
▁plot	-13.0012
▁Institut	-13.0021
▁Purchas	-13.0068
▁14.04	-13.0296
ardine	-13.034
bile	-13.0347
▁Claud	-13.041
utih	-13.053
uncles	-13.0571
▁steppe	-13.0612
both	-13.0656
▁cymbal	-13.0742
Ishvara	-13.078
▁Actual	-13.0809
Refactoring	-13.095
referred	-13.0959
Claims	-13.0975
▁विस्म	-13.1022
Vachaspatir	-13.1121
ensure	-13.115
श्वर	-13.1154
▁BAS	-13.116
Soliders	-13.1211
hydrox	-13.1231
▁Twi	-13.131
▁quot	-13.136
▁luna	-13.1378
वदत	-13.1386
Concentrat	-13.1462
ria	-13.1464
gestion	-13.1518
laborat	-13.1521
Compar	-13.1566
tilities	-13.1603
▁Yagy	-13.1614
umpi	-13.1626
describ	-13.1697
arbha	-13.1707
▁Improv	-13.1726
▁emotion	-13.1751
extfile	-13.1781
▁uncorrupt	-13.1782
▁Shravan	-13.1823
fighting	-13.1824
radha	-13.1843
Palm	-13.1857
▁Jamb	-13.187
plant	-13.1879
▁Bhim	-13.1899
▁magistrate	-13.1924
▁rishi	-13.1924
▁tithe	-13.1926
▁principle	-13.1927
▁involute	-13.1927
▁jewel	-13.1928
▁pearl	-13.1928
▁Argument	-13.1929
▁carbohydrate	-13.193
▁specie	-13.1932
▁insect	-13.1933
bdominal	-13.1938
uminous	-13.1945
Trac	-13.1948
avoured	-13.1951
veloped	-13.1952
▁surviv	-13.1965
▁pollut	-13.1969
elevance	-13.1971
▁apprecia	-13.1971
align	-13.1973
▁ensur	-13.1978
▁escap	-13.1982
▁balanc	-13.1987
▁occup	-13.1996
ncreas	-13.1997
KOHA	-13.2
cropping	-13.2
discriminat	-13.2
Exercise	-13.2
Involutes	-13.2
Kabir	-13.2
Lotus	-13.2
Nachiketa	-13.2
Nathanael	-13.2
Trikonasana	-13.2
Maricha	-13.2
leafy	-13.2
Delhi	-13.2
numeric	-13.2
shabd	-13.2
stablish	-13.2001
transport	-13.2001
Condition	-13.2001
Maximum	-13.2001
Point	-13.2001
Privacy	-13.2001
Special	-13.2001
Spread	-13.2001
decreasing	-13.2001
perception	-13.2001
wool	-13.2001
Load	-13.2001
Charak	-13.2001
Devaki	-13.2002
Provide	-13.2002
construction	-13.2002
Madhya	-13.2002
Yogasanas	-13.2002
Case	-13.2002
Neti	-13.2002
situation	-13.2002
Enjoy	-13.2002
Ayurveda	-13.2002
Reproduction	-13.2002
enumerate	-13.2002
Phone	-13.2002
Cost	-13.2003
scientist	-13.2003
boost	-13.2003
Calculator	-13.2003
pollute	-13.2003
revolution	-13.2003
poison	-13.2003
Asteya	-13.2003
differentiate	-13.2003
diamond	-13.2003
mustard	-13.2003
Exception	-13.2003
grains	-13.2003
craft	-13.2003
nutrient	-13.2003
Bhimsen	-13.2003
Keyboard	-13.2003
Peace	-13.2003
unwanted	-13.2003
spring	-13.2003
recall	-13.2003
Process	-13.2004
accomplished	-13.2004
।	-13.2005
ख	-13.2055
ै	-13.2055
›	-13.2055
−	-13.2055
Š	-13.2055
â	-13.2055
`	-14.2055
^	-14.2055
×	-14.2055
à	-14.2055
î	-14.2055
ā	-14.2055
ī	-14.2055
μ	-14.2055
ङ	-14.2055
ड	-14.2055
ढ	-14.2055
ऽ	-14.2055
ॄ	-14.2055
ौ	-14.2055
₹	-14.2055
ñ	-14.2055
ï	-14.2055
⁄	-14.6497
ट	-14.6498
ए	-14.6499
उ	-14.65
इ	-14.6501
फ	-14.6502
ä	-14.6503
Û	-14.6504
ठ	-14.6505
ञ	-14.6506
ब	-14.6507
#	-14.6508
ध	-14.6509
च	-14.651
थ	-14.6511
अ	-14.6512
