<pad>	0
<unk>	0
<s>	0
</s>	0
ं	-3.33281
▁।	-3.58422
,	-3.88759
▁	-3.92407
:	-4.00215
।	-4.10257
ः	-4.51855
▁"	-4.5889
े	-4.67405
म्	-4.81829
-	-4.836
ा	-4.84469
स्य	-4.9585
▁इति	-4.96948
▁।"	-4.98082
▁च	-4.99368
▁"""	-5.37198
▁न	-5.40342
▁स	-5.42032
ो	-5.42778
म	-5.48288
"""	-5.48639
्	-5.53693
▁तथा	-5.60086
ि	-5.66716
▁मध्ये	-5.72307
▁अपि	-5.73348
▁वयं	-5.73748
▁इतीदं	-5.83665
ी	-5.84972
)	-5.8562
ानि	-5.86109
s	-5.90019
▁भवति	-5.96022
▁इत्यस्य	-5.97927
त	-5.99985
▁(	-6.00418
ेन	-6.01981
▁अस्ति	-6.05067
.	-6.07843
स्	-6.15612
▁अ	-6.16331
▁नुदन्तु	-6.16372
ति	-6.17919
ान्	-6.18374
न	-6.20638
▁प्रति	-6.24157
ाः	-6.31071
▁अहं	-6.32267
'	-6.33442
्य	-6.338
▁को	-6.36679
ु	-6.37618
ौ	-6.3835
स	-6.38515
▁'	-6.39975
य	-6.41572
र	-6.44953
।"	-6.46071
▁अत्र	-6.47379
▁तस्य	-6.47616
ाय	-6.49981
क	-6.50175
▁,	-6.50368
ानां	-6.50812
या	-6.53618
▁-	-6.5534
▁किन्तु	-6.56236
▁इदं	-6.56358
▁उपरि	-6.56579
ेषु	-6.57572
▁वर्तते	-6.57798
▁के	-6.57888
▁अधुना	-6.5857
व	-6.59639
▁है	-6.60628
▁करोति	-6.60733
न्	-6.61153
ल	-6.61773
▁तत्	-6.64063
?	-6.64746
▁स्व	-6.64968
ते	-6.6565
▁कर्तुं	-6.70203
▁सन्ति	-6.70325
▁सह	-6.70687
ै	-6.72122
पि	-6.72994
श्च	-6.73661
▁वा	-6.74475
▁कुर्वन्तु	-6.77791
▁मम	-6.78724
’	-6.7888
▁एक	-6.79892
र्	-6.80178
▁तदा	-6.8059
ात्	-6.80775
ञ्च	-6.82057
▁ते	-6.84638
▁की	-6.87399
▁तर्हि	-6.87548
प	-6.88607
▁यत्	-6.89869
▁यथा	-6.91737
▁यदि	-6.9263
▁और	-6.94593
ता	-6.9539
”	-6.97371
द	-6.98207
▁यूयं	-6.98886
▁में	-6.99435
▁‘	-7.01006
▁किं	-7.01115
;	-7.02658
ण	-7.03134
▁एव	-7.035
च	-7.04045
,"	-7.04243
▁से	-7.05623
▁का	-7.06194
▁प्र	-7.06372
त्	-7.06664
▁त	-7.06922
▁बाल	-7.06945
▁“	-7.07468
▁आ	-7.0805
▁अस्माकं	-7.08255
▁कृत्वा	-7.09184
▁य	-7.1055
ज	-7.12657
▁अस्य	-7.15034
श	-7.15427
▁भवन्तः	-7.16035
ना	-7.16351
▁युष्माक	-7.16641
▁एतत्	-7.1694
▁पर	-7.17007
▁र्	-7.17069
▁इत्यत्र	-7.18284
▁तं	-7.18293
▁चेत्	-7.18785
▁क	-7.20064
▁कुर्मः	-7.21609
न्ति	-7.22413
मस्ति	-7.23854
ह	-7.24114
▁भवन्ति	-7.24181
▁नाम	-7.24341
ान	-7.2442
▁एकं	-7.25446
▁space	-7.25694
▁भवान्	-7.25814
ने	-7.27568
तः	-7.28095
ing	-7.28137
मध्ये	-7.29182
▁शक्नुमः	-7.3082
ित	-7.31027
ेण	-7.3109
▁तेषां	-7.31447
▁हे	-7.34317
ग	-7.34644
"	-7.34689
▁वयम्	-7.35011
ल्	-7.35417
तु	-7.35745
▁मया	-7.36061
e	-7.36783
▁अथवा	-7.3818
▁क्लिक्	-7.38771
a	-7.38959
▁अन्य	-7.393
मपि	-7.39744
ां	-7.40862
▁करोमि	-7.41872
▁पश्यामः	-7.42329
यो	-7.42539
▁कृते	-7.42801
नि	-7.43439
▁गत्वा	-7.4345
▁?	-7.44584
ू	-7.4462
▁तेन	-7.45532
▁एवं	-7.4585
ाणि	-7.45964
▁अतः	-7.46003
▁वि	-7.46111
(	-7.47237
ट	-7.47761
अ	-7.47879
ीय	-7.47995
▁यदा	-7.48114
▁कथं	-7.48394
▁पश्यन्तु	-7.49516
▁तत्र	-7.50239
▁टङ्कयन्तु	-7.506
प्र	-7.52515
थ	-7.52944
▁कर	-7.5334
▁या	-7.54266
द्	-7.54525
▁ततः	-7.5456
▁त्वं	-7.54792
▁शक्नोति	-7.5664
d	-7.56705
▁अस्मिन्	-7.56786
ब	-7.56867
▁ये	-7.57398
▁नि	-7.57459
▁दृश्यते	-7.57517
▁इत्यस्मै	-7.58134
▁कथा	-7.58739
ाद्	-7.58999
▁सा	-7.59305
▁सर्व्व	-7.59879
कर	-7.60378
o	-7.60514
ैः	-7.60619
वि	-7.60626
वान्	-7.61087
r	-7.61372
▁मा	-7.61433
▁भवतां	-7.61677
▁यत	-7.62248
ार्थं	-7.62323
▁Enter	-7.62605
▁अस्माभिः	-7.64366
▁पुनः	-7.64385
▁नुदतु	-7.64475
▁इदानीं	-7.64683
1	-7.64711
रूपेण	-7.65857
▁शक्नुवन्ति	-7.66386
▁नास्ति	-7.66587
▁अधिक	-7.67084
अधुना	-7.67401
▁श्वास	-7.67437
सु	-7.67567
▁विषये	-7.67677
▁a	-7.67766
▁उपयुज्य	-7.67799
er	-7.67955
2	-7.68071
▁चिन्वन्तु	-7.69135
▁|	-7.6932
मा	-7.69973
▁द्रष्टुं	-7.70366
▁अभ्यास	-7.72265
▁ट्युटोरियल्	-7.72478
▁पश्चात्	-7.7274
सि	-7.73449
▁युष्मान्	-7.74554
अत्र	-7.74776
क्ष	-7.75167
षु	-7.75659
न्त	-7.75705
त्र	-7.76249
▁to	-7.76253
▁भवन्त	-7.76275
िक	-7.76317
t	-7.76943
▁सर्व	-7.76998
c	-7.77035
▁टङ्कयित्वा	-7.77204
न्तु	-7.77487
,"""	-7.77803
तया	-7.77823
/	-7.78256
▁भविष्यति	-7.7833
▁प	-7.79844
▁इतीमानि	-7.80105
▁तद्	-7.80243
▁म	-7.81224
""	-7.83231
्या	-7.83353
▁प्रथम	-7.8363
▁तव	-7.83861
▁क्लास्	-7.84253
▁यतो	-7.84298
▁विकल्प	-7.84339
▁अपर	-7.84409
ध	-7.84523
▁अहम्	-7.84587
क्	-7.8475
▁बहु	-7.85008
ाणां	-7.85109
स्थ	-7.85273
▁भवेत्	-7.85619
का	-7.85639
▁""	-7.86437
▁यस्य	-7.86757
▁अधः	-7.86882
भ	-7.87088
नां	-7.87468
▁नुत्वा	-7.87511
▁ईश्वरस्य	-7.87553
ामि	-7.87878
▁कि	-7.88035
ृ	-7.88141
ed	-7.88308
▁हो	-7.88578
ड	-7.88689
l	-7.89603
▁:	-7.89661
ात	-7.89863
▁यो	-7.89986
▁इत्येतत्	-7.90013
i	-7.90255
ाव	-7.90542
▁विद्यमान	-7.91003
ों	-7.9122
मेव	-7.91271
▁सञ्चिका	-7.91783
▁C	-7.92001
ाम	-7.92696
▁शक्यते	-7.92775
▁करें	-7.92879
अतः	-7.9318
भि	-7.93572
in	-7.93876
▁शरीर	-7.93888
ट्	-7.94052
▁दृष्टुं	-7.94065
▁ज	-7.94076
▁ब	-7.94649
▁पश्याम	-7.94887
▁विद्यमानं	-7.95111
यति	-7.95214
▁जन	-7.95249
▁ईश्वर	-7.96057
▁मेथड्	-7.96736
▁श	-7.97109
al	-7.97831
▁प्रभो	-7.98287
▁S	-7.98469
▁करोतु	-7.98753
y	-7.98924
▁तान्	-7.99044
नं	-7.99564
▁ग	-7.99645
▁किञ्चन	-7.99824
हे	-7.99899
▁इत्यनेन	-8.0049
न्य	-8.00743
हं	-8.0078
मिति	-8.00887
▁कार्यं	-8.00947
▁इत्यस्योपरि	-8.00974
▁तः	-8.01459
▁ज्ञास्यामः	-8.01475
▁वेरियेबल्	-8.01503
फ	-8.01811
योः	-8.0203
्यते	-8.03124
▁हैं	-8.03222
▁आदेश	-8.03366
▁1	-8.03369
▁ना	-8.03374
n	-8.03695
वत्	-8.03771
रि	-8.04346
ोऽ	-8.04491
▁उप	-8.04952
▁पाठे	-8.05183
▁and	-8.05231
ष	-8.06442
स्त	-8.06477
▁समय	-8.06663
ख	-8.06718
तदा	-8.07047
िका	-8.07218
स्मै	-8.07396
▁यः	-8.07407
▁यद्	-8.07618
m	-8.07763
▁इतीदम्	-8.08056
p	-8.08074
▁किमपि	-8.08335
▁ए	-8.08412
▁इत्येतेषां	-8.09772
के	-8.09912
तां	-8.10061
▁कुर्यात	-8.10826
▁तथैव	-8.11025
यां	-8.11101
b	-8.11107
▁नूतनं	-8.11311
▁प्रोग्राम्	-8.1141
▁परि	-8.1144
▁तदर्थं	-8.11545
▁the	-8.11614
▁तस्मिन्	-8.12275
▁नूतन	-8.12422
तो	-8.12557
▁प्रदर्शयति	-8.12784
▁द	-8.12949
▁वर्ण	-8.12971
▁एते	-8.13042
▁अनन्तरं	-8.13192
▁लिङ्क्	-8.13564
युक्त	-8.13701
▁कोड्	-8.13729
▁2	-8.13732
▁ध्यान	-8.13748
▁प्रयोग	-8.14174
जन	-8.14371
▁टङ्कयतु	-8.14405
▁ऽ	-8.14531
▁भवत	-8.15285
ैव	-8.15351
देश	-8.15458
▁व	-8.15571
▁कर्म्म	-8.15601
▁मूल्यं	-8.15689
▁एष	-8.15876
▁पाप	-8.16022
श्	-8.16273
▁केवलं	-8.16572
▁p	-8.16839
▁सर्व्वे	-8.17144
▁अनेन	-8.17318
▁dot	-8.17382
न्ते	-8.17663
ए	-8.17677
▁in	-8.18183
▁of	-8.18621
▁ददाति	-8.18843
वन्तः	-8.1894
▁M	-8.19124
▁निज	-8.19915
स्व	-8.20122
काले	-8.20195
▁स्थिति	-8.20498
▁परं	-8.20501
ेभ्यः	-8.20677
▁येन	-8.212
▁गण्ड	-8.21275
▁यह	-8.21471
ar	-8.21642
▁महा	-8.22305
्वा	-8.22666
त्य	-8.23276
▁मां	-8.23465
▁प्रकटय	-8.23605
मान	-8.23895
▁तस्मात्	-8.23946
मि	-8.24144
▁T	-8.24254
▁करने	-8.24428
▁ता	-8.24582
नी	-8.2459
िता	-8.24868
▁A	-8.24998
▁द्वारा	-8.25113
कार	-8.25151
▁कदा	-8.25287
▁लोका	-8.25316
लोक	-8.25825
यितुं	-8.25832
किन्तु	-8.25895
यत	-8.26005
▁अय	-8.26039
▁b	-8.2605
▁यतः	-8.26096
▁किञ्चित्	-8.26176
व्य	-8.26181
ताम्	-8.26887
▁P	-8.27057
▁कृत	-8.27126
▁स्तर	-8.27194
▁आसन	-8.27499
g	-8.27554
▁जाता	-8.27684
▁इत्येत	-8.28093
▁निमित्तं	-8.28102
ार	-8.28126
ड्	-8.28165
कृत	-8.29014
▁आसीत्	-8.29285
▁स्वागतम्	-8.29693
▁दर्शयति	-8.29714
▁द्वे	-8.29997
▁स्पोकन्	-8.30024
वा	-8.30039
ेव	-8.30172
से	-8.30266
▁स्म	-8.30285
▁एक्सिक्यूट्	-8.30302
▁सम	-8.3046
री	-8.30541
_	-8.30577
▁विश्वास	-8.3065
▁वयमधुना	-8.30953
रा	-8.31068
▁name	-8.31178
कं	-8.31275
▁टेक्स्ट्	-8.31306
▁गृह	-8.31918
▁तानि	-8.32335
डौन्	-8.32397
▁प्रकाश	-8.32407
▁सु	-8.32612
▁चित्वा	-8.32645
▁चिनोमि	-8.32925
▁तु	-8.33663
ेत	-8.33759
▁सति	-8.33858
▁क्रियते	-8.33882
अस्मिन्	-8.34353
▁उत्तम	-8.3436
यित्वा	-8.3437
पर	-8.34439
▁विना	-8.34549
f	-8.34994
▁जायते	-8.35422
ितुं	-8.35733
ेभ्य	-8.3589
ला	-8.35955
▁भाग	-8.35984
वर्ण	-8.36057
▁एता	-8.36159
▁फलितं	-8.36484
▁स्थाने	-8.36558
ङ्ग	-8.36574
▁मूल	-8.36595
▁सम्पूर्ण	-8.3685
ित्वा	-8.3691
स्ति	-8.36947
▁कुर्वन्ति	-8.36999
▁सञ्चिकां	-8.37004
▁.	-8.37437
रो	-8.37477
▁slash	-8.37536
▁सत्य	-8.37561
▁योग	-8.3767
▁c	-8.38072
लि	-8.38133
▁इव	-8.38347
आ	-8.38566
▁ततो	-8.38572
प्य	-8.38595
3	-8.38794
ले	-8.38932
▁पुन	-8.39404
▁Linux	-8.39445
▁अर्थ	-8.3964
त्व	-8.39684
▁प्राप्त	-8.39948
▁सर्वाणि	-8.40032
en	-8.40204
▁तद	-8.40224
ततः	-8.40388
▁अनु	-8.40819
च्छ	-8.40835
▁कथितवान्	-8.40858
मे	-8.40905
▁यत्र	-8.41108
नु	-8.41399
▁आप	-8.41459
▁ज्ञान	-8.41491
▁पाठ	-8.415
▁एषा	-8.41658
▁पञ्च	-8.41891
▁कृतवान्	-8.41988
▁Ctrl	-8.42075
▁एतानि	-8.42181
समये	-8.42276
▁शक्नोमि	-8.42384
ितं	-8.42438
ion	-8.42505
u	-8.42523
ाद	-8.42684
द्र	-8.42756
ती	-8.42808
रण	-8.42817
▁Save	-8.43043
ष्ट	-8.43079
▁भ	-8.43676
▁इत्य	-8.43704
स्योपरि	-8.43841
ाश्च	-8.44008
▁तौ	-8.44054
▁अत	-8.44084
org	-8.44127
▁पवित्र	-8.44319
▁बटन्	-8.4467
इदं	-8.44696
▁मह्य	-8.44777
ामः	-8.44826
▁Ubuntu	-8.45259
रूप	-8.45412
k	-8.45581
को	-8.45599
▁कर्तुम्	-8.45928
▁कार्य	-8.46066
▁इस	-8.46251
सा	-8.46289
▁अव	-8.46351
▁ले	-8.46514
▁नाना	-8.46629
▁s	-8.46682
्व	-8.46814
भ्य	-8.47002
▁10	-8.4702
तर	-8.47026
▁हि	-8.47111
▁भोजन	-8.4721
वयं	-8.47262
द्वयं	-8.47302
▁भूत्वा	-8.47498
▁पुत्र	-8.47663
▁दोष	-8.48172
hyphen	-8.483
▁–	-8.48394
or	-8.48879
▁3	-8.48977
▁प्रत्य	-8.49006
▁लिखित	-8.49115
▁कु	-8.49148
▁भी	-8.49331
▁राम	-8.49396
▁इत्यस्मात्	-8.49423
▁विद्यते	-8.4945
▁वदामि	-8.49469
▁प्रेम	-8.49471
?"""	-8.49491
▁मुद्रा	-8.49798
▁file	-8.49906
▁रखें	-8.49992
▁भवद्भ्यः	-8.50094
▁रचित	-8.50098
▁क्रिया	-8.50307
st	-8.5035
यु	-8.50484
▁उ	-8.51431
द्ध	-8.5146
▁पुस्तक	-8.51488
C	-8.51522
▁इदम्	-8.51665
▁B	-8.51918
▁सम्यक्	-8.5196
ऽपि	-8.52112
▁0	-8.52143
▁चिनोतु	-8.5228
िन	-8.52331
याः	-8.52476
S	-8.52495
▁शब्द	-8.52579
▁Add	-8.52639
▁F	-8.52753
भाव	-8.52823
▁पितर	-8.52856
ितवान्	-8.52881
▁2.	-8.53185
▁ऐकान्	-8.53441
▁किम्	-8.53512
▁विण्डो	-8.53583
भाग	-8.53648
▁वृक्ष	-8.5399
▁ज्ञातवन्तः	-8.54125
▁कृपया	-8.54285
▁विभिन्न	-8.54448
▁चित्र	-8.54507
▁तस्या	-8.5459
▁File	-8.54599
यन्ति	-8.54681
ोप	-8.54723
▁यीशुः	-8.54875
▁कोपि	-8.55089
▁इ	-8.55194
▁लिखन्तु	-8.55197
▁पूर्ण	-8.55259
▁साथ	-8.55331
▁ओर	-8.55511
प्	-8.55521
▁रन्	-8.5557
▁चयन	-8.55975
▁स्टेट्मेण्ट्	-8.56158
()	-8.56223
▁विचार	-8.56376
र्थ	-8.56437
▁वस्त्र	-8.56793
▁सेट्	-8.56844
▁सामान्य	-8.57108
ैर	-8.57322
I	-8.57548
▁व्य	-8.57553
▁प्राप्तुं	-8.57609
▁सार्द्धं	-8.57904
▁सन्	-8.5801
ासन	-8.58192
▁is	-8.58421
नाम	-8.58784
▁द्वितीय	-8.58798
▁एतादृश	-8.58821
पश्चात्	-8.58849
▁टेब्	-8.58873
▁स्मः	-8.59064
▁रूप	-8.59182
▁विश्राम	-8.59221
▁अग्रे	-8.59267
▁1.	-8.59444
es	-8.59966
ार्थ	-8.60006
▁व्यवस्था	-8.60062
ानाम्	-8.60103
▁for	-8.60197
▁गच्छन्तु	-8.60273
▁वाक्यं	-8.60301
▁जना	-8.60313
▁समीपे	-8.60418
द्वारा	-8.60444
▁आवा	-8.60583
ाण	-8.60637
▁5	-8.60748
▁प्राप्तवन्तः	-8.60818
हि	-8.60893
▁मेन्यू	-8.60902
▁भवेत	-8.60996
क्र	-8.61079
▁परस्परं	-8.61149
यं	-8.61208
tutorial	-8.61247
▁अर्थात्	-8.61278
रे	-8.61344
स्माकं	-8.61364
▁उपयोगं	-8.61795
▁ड्रोप्	-8.61931
5	-8.62097
ैक	-8.62113
▁Tutorial	-8.62113
ङ्क	-8.62222
▁मन	-8.62383
स्था	-8.62389
▁नुदामि	-8.6268
▁सः	-8.6271
अनन्तरं	-8.63207
गा	-8.63289
▁enter	-8.63356
▁Koha	-8.63394
▁नहि	-8.63685
योग	-8.64009
इमानि	-8.6406
पद	-8.64255
▁लिए	-8.64507
spoken	-8.64514
धा	-8.64583
0	-8.65009
्र	-8.6518
▁स्वयं	-8.65335
▁प्रक्रिया	-8.65448
▁सीक्वेन्स्	-8.65476
ाया	-8.65555
त्वं	-8.6568
▁n	-8.65804
▁कानिचन	-8.65939
▁तथापि	-8.66037
▁जावा	-8.66071
▁अन	-8.66564
▁ह	-8.66646
▁सङ्ख्या	-8.66694
ापि	-8.66795
▁प्रभु	-8.66978
▁हस्त	-8.67087
▁R	-8.67164
▁भवद्भिः	-8.67407
▁कन्स्ट्रक्टर्	-8.67469
▁मार्ग	-8.67654
▁कोर्स्	-8.68038
▁तस्माद्	-8.68172
▁जीवन	-8.68436
र्त्त	-8.68481
▁लघु	-8.68572
▁स्यात्	-8.68587
क्ष्य	-8.68687
याम	-8.68909
▁कथ्यते	-8.69197
▁tutorial	-8.69226
▁Library	-8.69246
▁जल	-8.69285
▁फील्ड्	-8.69311
▁करता	-8.69487
क्त	-8.69603
▁काल	-8.69733
▁दृष्ट	-8.69818
▁इत्यस्मिन्	-8.69873
▁प्राप्नोति	-8.69877
▁सूर्य	-8.69917
▁रूपेण	-8.6994
txt	-8.69969
इ	-8.69985
घ	-8.70053
▁समान	-8.70132
▁शरीरस्य	-8.70327
▁शनै	-8.70549
▁एत	-8.70576
▁मयि	-8.70579
दा	-8.70588
▁भव	-8.70592
मेकं	-8.70629
यः	-8.70722
गण	-8.70787
▁अग्रिम	-8.70838
▁कृतवन्तः	-8.70962
▁टूल्	-8.71015
▁जीव	-8.71137
▁यावत्	-8.71417
▁सर्वे	-8.71419
भ्यः	-8.71489
▁ब्रेकेट्	-8.71525
▁सो	-8.72093
▁स्थापयेत	-8.7224
ment	-8.72246
▁भोजनं	-8.72344
ये	-8.72391
▁ल	-8.724
▁पार्श्वे	-8.72507
ऽ	-8.72574
▁युवा	-8.72729
गत	-8.72755
A	-8.72761
ली	-8.72917
▁भवतः	-8.73271
▁System	-8.73487
दि	-8.737
▁कृष्ण	-8.73769
it	-8.73858
▁त्वा	-8.73897
▁सप्त	-8.73949
B	-8.73991
▁आगत्य	-8.7421
▁फ	-8.7424
रु	-8.74487
▁समये	-8.74545
▁awk	-8.74608
▁स्थित	-8.74645
ज्ञान	-8.74659
▁अधस्तन	-8.74786
▁विषय	-8.74788
▁पद	-8.7483
▁देव	-8.74852
▁प्रत्येक	-8.74956
द्य	-8.74969
ग्	-8.7499
▁3.	-8.75024
P	-8.75328
▁अप	-8.75364
▁प्राप्य	-8.75376
▁ख	-8.75427
▁ख्रीष्ट	-8.75514
▁श्रुत्वा	-8.75529
ज्ञा	-8.75775
अहं	-8.75884
▁चित्रं	-8.75951
▁अध	-8.76079
▁विवरणानि	-8.76089
णं	-8.76149
ज्	-8.76298
▁प्राण	-8.76309
ीया	-8.76531
काल	-8.76578
अपि	-8.76935
▁4	-8.76953
T	-8.76963
▁उद्घाटित	-8.76989
ग्र	-8.77053
▁रचना	-8.77088
▁इत्थं	-8.77267
▁चेक्	-8.7731
यदि	-8.77852
▁उपयोग	-8.77945
स्तस्य	-8.77999
▁शक्ति	-8.78123
यन्	-8.78229
की	-8.78303
▁यीशु	-8.78334
वत	-8.78335
▁रेखा	-8.78516
ुं	-8.78525
▁जलं	-8.78625
▁टर्मिनल्	-8.78708
O	-8.78711
स्म	-8.78861
▁ध	-8.78904
re	-8.79077
4	-8.79179
▁पिता	-8.79194
▁दृष्ट्वा	-8.79237
ाहं	-8.79442
पा	-8.79522
▁नाम्न	-8.79569
स्थान	-8.79723
तुं	-8.79771
▁अथ	-8.79828
गृह	-8.79913
▁इदानीम्	-8.80088
▁भिन्न	-8.80097
▁with	-8.80101
▁मानव	-8.80102
▁र्न	-8.80123
▁विभाग	-8.80151
▁बल	-8.80239
नगर	-8.80286
▁तेषु	-8.80373
▁भवतु	-8.8043
▁उपयुञ्ज्महे	-8.80736
▁दातुं	-8.80744
▁उपयोक्तुं	-8.80869
▁ओब्जेक्ट्	-8.8091
यत्	-8.80939
▁सरल	-8.80995
▁चित्रे	-8.81016
यामः	-8.81193
▁पूर्व	-8.81435
▁सेमिकोलन्	-8.81505
▁इत्यस्याधः	-8.81511
▁हुए	-8.81515
ादि	-8.81584
▁डोट्	-8.81681
▁संस्कृत	-8.817
चर	-8.81767
बोक्स्	-8.81906
▁विविध	-8.82033
देव	-8.82144
▁प्राप्नुमः	-8.82281
भूत	-8.82331
▁श्वसन	-8.82343
▁समीप	-8.82535
ताया	-8.82591
▁बोक्स्	-8.82676
▁शिर	-8.82836
▁एका	-8.82866
▁रिक्त	-8.8299
ोपरि	-8.83112
▁सुसंवाद	-8.8321
▁मह	-8.83311
चि	-8.83461
स्तर	-8.83709
▁भूत	-8.8373
▁मुख्य	-8.83765
ण्ड	-8.83844
▁Spoken	-8.83913
▁यीशो	-8.83974
▁शिष्य	-8.84096
▁सर्व्वेषा	-8.84337
▁अपरञ्च	-8.84353
भिः	-8.84441
▁अनुशिक्षणे	-8.84503
मिदं	-8.8481
▁इमा	-8.85032
क्रिया	-8.85046
वान	-8.85213
▁वह	-8.85251
त्त	-8.85356
▁पृष्ठ	-8.85402
द्वय	-8.85517
▁दर्शितं	-8.85588
▁फल	-8.85663
▁स्वर्ग	-8.85771
▁बालक	-8.86106
▁कथ	-8.86205
▁दत्त	-8.86282
▁करणीय	-8.86417
▁सि	-8.86469
▁अनेक	-8.86608
▁बहि	-8.86636
▁पूर्वं	-8.86769
▁जनो	-8.8677
▁फ़ील्ड्	-8.86847
सी	-8.8688
▁न्यून	-8.86968
▁spoken	-8.87048
▁तदनन्तरं	-8.87082
स्वरूप	-8.87427
▁लोक	-8.87431
▁+	-8.87541
ार्थम्	-8.87748
▁सर्वेषा	-8.87774
▁मे	-8.87871
▁कश्चित्	-8.87882
▁आगच्छन्तु	-8.87913
वानस्मि	-8.87957
ष्ठ	-8.88014
भी	-8.88043
▁I	-8.88129
त्वेन	-8.88159
▁सम्यक	-8.88306
अस्य	-8.88507
▁उदाहरण	-8.88524
ततो	-8.88706
▁पाद	-8.88725
िङ्ग्	-8.89065
E	-8.89102
ष्	-8.8911
▁स्थान	-8.89115
▁दूर	-8.89227
स्मिन्	-8.89543
▁अपन	-8.89883
कार्य	-8.8994
च्च	-8.89966
▁किया	-8.89971
▁रक्ष	-8.90213
क्रम	-8.90245
▁नाम्ना	-8.90247
M	-8.90315
▁ख्रीष्टस्य	-8.9034
▁कुरुत	-8.90378
▁एतेषां	-8.90398
▁तदेव	-8.9053
▁वेब्	-8.90625
▁यूयम्	-8.90659
▁D	-8.90678
▁दण्ड	-8.90859
कि	-8.90892
▁कारण	-8.90938
त्वा	-8.90973
अपर	-8.91038
न्द	-8.91139
▁अरे	-8.91206
▁नियम	-8.91224
▁एवमेव	-8.91254
ुः	-8.91398
▁वदति	-8.91465
▁G	-8.917
▁प्रश्न	-8.91874
▁प्रथमं	-8.91962
▁भवता	-8.92023
▁मुख	-8.92076
▁स्वकीय	-8.92089
h	-8.92158
▁केचन	-8.92185
▁पुनर	-8.92185
▁मनुष्य	-8.92204
फल	-8.92214
▁तिष्ठति	-8.92274
▁IDE	-8.92295
on	-8.92649
▁स्थानं	-8.92873
▁प्रकार	-8.92888
मात्र	-8.92893
oodle	-8.92934
▁ट्याब्	-8.92946
▁पुत्रः	-8.92958
▁int	-8.93113
▁|"	-8.93123
▁class	-8.9313
ष्य	-8.93211
▁तत	-8.93328
▁जात	-8.93741
▁उपयुक्त	-8.93785
वती	-8.94232
▁एको	-8.94475
▁द्वौ	-8.94728
▁इन्स्टाल्	-8.94754
▁ऐ	-8.94819
यन्तु	-8.95027
▁पश्यति	-8.9516
▁New	-8.95281
▁4.	-8.95346
▁number	-8.95368
▁i	-8.95374
▁सिद्ध	-8.95401
▁आदि	-8.95545
v	-8.95677
▁Student	-8.95693
▁मृत	-8.95719
ic	-8.95751
▁कमाण्ड्	-8.95776
ध्वं	-8.96174
▁दिन	-8.96202
ायां	-8.9627
▁एतस्य	-8.9636
▁अन्तिम	-8.96433
▁तादृश	-8.96452
शा	-8.9664
▁उत्तर	-8.96863
▁नगर	-8.96867
वाक्य	-8.9721
वन्त	-8.97256
▁किन्त्व	-8.97258
▁परन्तु	-8.97309
▁tool	-8.97393
नो	-8.97457
▁new	-8.9765
ाह	-8.97682
▁राजा	-8.97697
▁यीशुस्त	-8.978
▁अतो	-8.97808
न्ध	-8.98079
▁अस्मिन	-8.98158
▁पत्र	-8.98178
विकल्प	-8.98185
▁layer	-8.98272
नेन	-8.98294
▁ज्ञातुं	-8.98295
++	-8.98318
▁रोग	-8.98322
▁एतत	-8.98337
▁त्वया	-8.98371
▁गीत	-8.98452
▁पौल	-8.98468
▁यतोहि	-8.98512
▁अप्	-8.98569
▁रक्त	-8.98746
▁मेन्यु	-8.99044
▁अभि	-8.99045
▁पश्य	-8.9909
▁"'	-8.99093
▁अन्ते	-8.99191
▁रैट्	-8.99198
▁ऊपर	-8.99203
▁भवितुं	-8.9923
दिन	-8.99294
▁पश्यन्ति	-8.99374
▁मु	-8.99391
▁समं	-8.99436
▁FrontAccounting	-8.99445
▁अस्माभि	-8.99493
▁स्वस्थ	-8.99543
▁अस्मि	-8.99558
स्ट	-8.9958
▁साक्षात्	-8.99832
."	-8.99835
is	-9.00144
जा	-9.00184
▁इतीमे	-9.00216
ीति	-9.00433
पाद	-9.005
▁तै	-9.00649
दिश	-9.00884
▁गच्छति	-9.00931
▁ब्रौसर्	-9.00932
प्रति	-9.00956
▁जगत	-9.00978
▁वयम	-9.00985
▁कृतं	-9.01019
एतत्	-9.01083
▁ई	-9.01184
▁आंखों	-9.01208
चित्र	-9.01264
▁तां	-9.013
▁आवृत्तिः	-9.01338
x	-9.01451
▁कृष्णः	-9.0155
ास	-9.01552
▁आवश्यक	-9.01567
▁बार्	-9.01586
▁आदौ	-9.0169
ठ	-9.01905
उ	-9.01993
at	-9.02218
विध	-9.02244
▁H	-9.02681
▁रचयाम	-9.02683
▁गृहीत्वा	-9.02965
▁फ़ैल्	-9.02974
▁पूर्वतन	-9.02975
▁युष्माभि	-9.03011
▁equal	-9.03078
com	-9.03154
न्न	-9.03326
▁औट्पुट्	-9.03328
छ	-9.03357
ानाम	-9.03456
▁उपयुज्यते	-9.03467
),	-9.03563
▁अतएव	-9.03649
R	-9.0388
वृक्ष	-9.03955
▁bar	-9.03975
▁आपक	-9.03982
ोऽस्ति	-9.04037
▁सब्	-9.04106
▁कोऽपि	-9.04286
▁शक्नुम	-9.04366
▁स्ट्रिङ्ग्	-9.04369
▁फलं	-9.0443
▁समीपं	-9.04516
▁भक्त	-9.04743
महं	-9.04754
▁;	-9.04834
▁करणीयम्	-9.04871
धीरे	-9.04891
इदानीं	-9.04901
भव	-9.05046
▁तक	-9.05046
तथा	-9.05169
▁त्व	-9.05531
▁तम	-9.0561
▁वयमत्र	-9.05661
ेति	-9.05748
▁चेत	-9.05754
ाङ्ग	-9.05799
▁केवल	-9.05812
▁कश्चिद	-9.05882
7	-9.0589
▁सूचयति	-9.05916
▁आराम	-9.05918
ation	-9.05935
▁पुष्प	-9.06135
▁प्राणायाम	-9.06152
▁निर्दिष्ट	-9.06155
▁श्वेत	-9.0624
एक	-9.063
गच्छ	-9.06335
ेश्वरस्य	-9.06351
ेश्वर	-9.06417
▁दास	-9.06419
ाकार	-9.06432
▁गत	-9.06498
▁जो	-9.06605
षि	-9.06699
▁स्क्रोल्	-9.06857
▁पा	-9.06892
▁पूर्व्व	-9.06896
ज्ञ	-9.06917
▁समक्ष	-9.06957
▁रचयितुं	-9.06977
▁युष्माभिः	-9.07001
▁यिरूशालम	-9.07121
▁पूर	-9.07359
▁युद्ध	-9.07373
▁विनय	-9.07506
▁तान	-9.07523
ेत्	-9.0803
▁लूप्	-9.08127
मीन	-9.08137
▁अपनी	-9.0825
▁Firefox	-9.08267
ई	-9.08273
▁user	-9.08299
वृ	-9.08319
▁उद	-9.08336
ाभ्यां	-9.08374
▁अन्त	-9.08402
▁ज्ञानं	-9.08554
▁h	-9.08712
ाम्	-9.08836
▁जगाद	-9.08869
▁रचयन्तु	-9.08883
ध्य	-9.08937
्रा	-9.08977
धार	-9.09006
▁युष्मास	-9.09046
युक्तं	-9.09089
▁मस्तिष्क	-9.09101
▁कः	-9.09181
वे	-9.09301
▁छ	-9.09312
▁m	-9.09372
िष्यते	-9.09465
ेक	-9.09518
कर्म्म	-9.09532
▁मुक्त	-9.09981
▁प्राप्तवान्	-9.09987
▁अस्यां	-9.10016
▁जानाम	-9.10057
ान्य	-9.10082
णां	-9.10099
▁Edit	-9.10142
वद	-9.10202
गुण	-9.10417
▁परम	-9.10423
▁शारीरिक	-9.10891
▁कार्यशाला	-9.10927
▁चेतुं	-9.10952
▁बहव	-9.10967
पर्यन्तं	-9.10969
▁जानाति	-9.11001
le	-9.11006
▁नेत्र	-9.11087
▁डबल्	-9.11111
▁l	-9.1136
सञ्चिका	-9.11399
▁आवश्यकता	-9.11445
▁द्वार	-9.11526
विषये	-9.11574
ढ	-9.11609
सार	-9.11628
स्थितौ	-9.11696
▁डाट्	-9.11961
▁OS	-9.11976
▁कर्त्तुं	-9.11988
स्मासु	-9.12076
येत	-9.12106
▁पत	-9.12118
▁हाथों	-9.12155
▁प्राप्यते	-9.12164
ut	-9.12268
▁दक्षिण	-9.12337
▁वाक्य	-9.12369
ास्त	-9.12408
ेभ्यो	-9.12544
▁प्रा	-9.12736
मी	-9.12748
जात	-9.12798
▁d	-9.12917
▁डिक्लेर्	-9.13013
टी	-9.13129
▁परिवर्तनं	-9.13285
यथा	-9.13456
▁स्वच्छ	-9.13614
▁पूर्व्वं	-9.13641
शय	-9.13875
▁विषयान्	-9.13876
सङ्ख्या	-9.13954
परि	-9.13986
▁क्षेत्र	-9.13992
▁दृढ	-9.14007
पन	-9.14012
▁E	-9.14116
▁क्रम	-9.14121
▁किम	-9.143
▁प्राचीन	-9.14426
ड़	-9.14521
ांश्च	-9.14656
▁यीशुर	-9.14698
नीय	-9.14736
▁धन	-9.14767
तत्	-9.14811
▁परिवर्तयितुं	-9.1517
▁quotes	-9.15213
▁दत्तवान्	-9.15217
▁श्रुत	-9.15258
an	-9.15341
▁गो	-9.15347
क्लिक्	-9.1538
सम	-9.15511
▁प्रमाण	-9.15546
▁करना	-9.1555
▁out	-9.15629
▁राज	-9.15831
लोकाना	-9.15837
▁प्रभाव	-9.15877
▁ने	-9.15929
▁स्तः	-9.15946
▁,"	-9.15996
▁भविष्यन्ति	-9.16297
▁XAMPP	-9.16467
▁नमस्कार	-9.16489
स्तं	-9.16529
फ़	-9.16638
रूपे	-9.16675
इत्यस्य	-9.16711
▁f	-9.16724
▁सञ्चिकायाः	-9.16838
पाठेऽस्मिन	-9.16881
पाठ	-9.1698
▁भवती	-9.17053
▁गुण	-9.17155
▁रे	-9.17214
▁विषयं	-9.17257
▁क्र	-9.17266
▁स्वयमेव	-9.17339
▁नहीं	-9.17344
ेऽ	-9.17423
स्थित	-9.17436
युक्ता	-9.17562
▁तदानी	-9.176
▁हस्तौ	-9.17619
▁शुद्ध	-9.17669
मय	-9.17716
▁वाम	-9.17717
▁ड्राप्	-9.1779
प्त	-9.17872
▁यानि	-9.17924
▁सूत्र	-9.18001
se	-9.18052
पुर	-9.18071
यू	-9.18393
▁एतस्मिन्	-9.1841
▁भूम्या	-9.18456
▁x	-9.18527
▁श्लोक	-9.18562
▁स्वीय	-9.18593
पुरुष	-9.18726
▁वर	-9.18973
टि	-9.19081
भा	-9.19151
▁पाठेऽस्मिन	-9.19202
ent	-9.19234
▁एतद्	-9.19245
यै	-9.19331
वस्त्र	-9.19363
▁कीलक	-9.19498
ोऽपि	-9.19519
हा	-9.19532
▁अङ्ग	-9.19567
▁प्रयास	-9.19575
▁स्थिर	-9.19579
▁दर्शित	-9.19664
▁डैलाग्	-9.19696
भवति	-9.1981
▁यत्किमप	-9.19862
मो	-9.19904
ग्रह	-9.19908
▁अनुशिक्षण	-9.19917
कु	-9.20229
▁समूह	-9.20399
▁एषः	-9.20413
▁अद्य	-9.20471
▁शरीरे	-9.20593
▁शिष्या	-9.20687
▁विशेष	-9.20696
▁अति	-9.20712
नाय	-9.20796
▁चित	-9.209
line	-9.2096
▁बार	-9.20983
कस्य	-9.20987
@	-9.21028
▁बुक्	-9.21085
स्पोकन्	-9.21114
▁अस	-9.21176
▁पेनल्	-9.21268
6	-9.2132
▁ओ	-9.21336
▁निर्माण	-9.21511
▁सकत	-9.21558
न्तः	-9.21634
▁गच्छामः	-9.21636
▁यीशुं	-9.21691
एत	-9.217
▁रख	-9.2178
भाष	-9.21814
यामि	-9.21871
यि	-9.21906
▁आगच्छति	-9.22076
▁कण्डीशन्	-9.22077
▁on	-9.22095
L	-9.2211
▁सिर	-9.22161
ामहे	-9.22186
▁श्मशान	-9.22255
▁अन्तः	-9.22277
लो	-9.22311
स्थाने	-9.22445
▁भ्रातरः	-9.22611
▁6	-9.22621
▁भू	-9.22687
▁निर्	-9.22818
तम	-9.22857
▁तेषाम	-9.22977
▁MHRD	-9.23021
▁उद्घाटयन्तु	-9.23021
▁चाहिए	-9.23021
▁पश्यत	-9.23235
▁इन्पुट्	-9.2327
▁अभवत्	-9.23278
भोजन	-9.23453
िनो	-9.2346
▁मध्य	-9.23484
मै	-9.23576
▁प्राक्	-9.23577
id	-9.23627
▁गण	-9.23733
▁साक्ष्य	-9.2388
धिक	-9.23899
कथा	-9.23927
तस्य	-9.24027
युत	-9.24168
▁सम्भवति	-9.24203
▁=	-9.24226
ाप	-9.24421
▁केन्वास्	-9.24422
▁एडिट्	-9.2445
▁प्रमाणपत्र	-9.24461
ग्रन्थ	-9.24642
▁स्पेस्	-9.24648
▁दश	-9.24855
प्रदेश	-9.24937
▁विकल्पः	-9.25128
ास्ति	-9.25174
▁विध	-9.25191
करण	-9.2532
▁दूत	-9.25359
▁रङ्गसेचन	-9.25388
▁पैरों	-9.25441
▁कस्यापि	-9.25466
▁चित्रस्य	-9.25491
▁कुत्र	-9.25501
▁be	-9.25516
▁परिवर्तनानि	-9.25604
तं	-9.25665
जल	-9.25723
यदा	-9.25751
+	-9.25782
▁धर्म	-9.25923
▁इमे	-9.25995
ध्वे	-9.26122
ide	-9.26127
▁ग्रन्थ	-9.26139
▁इमं	-9.26141
▁अस्माकम	-9.26195
...	-9.26337
▁शेष	-9.26404
▁रो	-9.26449
▁बहून	-9.2653
▁अन्यत्	-9.26612
▁पैर	-9.26627
▁चालयति	-9.26652
▁पश्चाद्	-9.2668
▁प्रोजेक्ट्	-9.26689
▁धीरे	-9.26731
▁इत्यस्यान्तः	-9.26732
▁श्रेष्ठ	-9.26824
ितुम्	-9.26916
ेशन्	-9.27138
एतेषु	-9.27157
मार्ग	-9.27208
▁मौल्य	-9.2721
डि	-9.27215
िष्यन्ति	-9.27229
▁गति	-9.27292
▁टु	-9.27341
▁पुरुष	-9.27437
वर्	-9.27508
हम्	-9.27706
▁फ़ङ्क्षन्	-9.2773
▁Name	-9.27767
चित	-9.27768
▁स्थापित	-9.27769
▁उत्तीर्ण	-9.27812
▁यच्छति	-9.27813
▁दृश्यन्ते	-9.27826
▁जलस्य	-9.27855
▁डौन्	-9.27948
निमित्तं	-9.28076
▁पादौ	-9.28084
वास	-9.28199
ाज्ञा	-9.2823
▁वायु	-9.28247
यतु	-9.28306
▁test	-9.28361
श्य	-9.28435
शो	-9.28438
▁आकाश	-9.28695
ानन्तरं	-9.28697
▁इत्येतं	-9.28776
▁इयं	-9.28936
▁संयोजित	-9.28987
▁जानीथ	-9.29047
▁तृतीय	-9.2905
://	-9.29051
▁सर्वदा	-9.29152
▁टङ्कयामि	-9.29197
▁Java	-9.29257
▁http	-9.29307
▁एक्लिप्स्	-9.2932
▁पृष्ट	-9.29338
स्थानं	-9.29371
डी	-9.2938
▁यस्मिन्	-9.29402
▁समा	-9.29428
▁इत्यादि	-9.29463
षा	-9.2957
G	-9.29616
शब्द	-9.29632
▁प्राय	-9.29654
▁L	-9.29771
बल	-9.29785
▁श्री	-9.29848
▁परिणाम	-9.29852
▁bracket	-9.30017
्यन्ते	-9.30017
▁शिक्ष	-9.30134
शन्	-9.30142
कारी	-9.30322
▁त्रि	-9.30375
▁उक्तवान्	-9.30397
इन्	-9.30467
▁किञ्च	-9.3049
▁मानुष	-9.30671
name	-9.30872
▁type	-9.30898
00	-9.30956
▁सहायक	-9.30959
चन	-9.31107
▁प्रार्थना	-9.31118
▁योहन	-9.31203
स्तु	-9.31223
शक्ति	-9.31236
ls	-9.313
▁if	-9.31417
वृत्त	-9.31422
गमन	-9.31455
▁आत्मा	-9.31481
▁N	-9.31486
िष्यति	-9.31509
▁इब्राहीम	-9.31565
▁भार	-9.31573
▁इत्यनयो	-9.31634
▁इन्	-9.31724
▁नर	-9.31738
करणम्	-9.31837
▁main	-9.31841
▁सूची	-9.31896
मदद	-9.31953
ाभ्यास	-9.31976
▁प्रकारेण	-9.32305
▁fin	-9.3245
▁यं	-9.32531
▁साधन	-9.32716
लोका	-9.32766
▁भारतसर्वकार	-9.32845
▁उद्घट्यते	-9.32853
मु	-9.32899
▁ईश्वरो	-9.32903
▁मिल	-9.32914
ीनां	-9.32971
▁उपस्थित	-9.32987
▁मनुज	-9.33294
रिय	-9.33313
et	-9.33336
पुत्र	-9.33373
▁प्रेरित	-9.33405
▁अस्म	-9.33444
चिह्न	-9.33445
F	-9.33445
पे	-9.33739
▁चिह्न	-9.33786
D	-9.33812
मुख	-9.33853
ुत्	-9.33924
▁स्मर	-9.33993
ङ्	-9.34013
ांश	-9.34037
दर्श	-9.34064
रोग	-9.34096
H	-9.3412
9	-9.3413
▁कर्ण	-9.3414
▁स्नेह	-9.34144
▁double	-9.34144
▁वर्तन्ते	-9.3415
▁बृहत्	-9.34174
▁सेव्	-9.34176
ेष	-9.34186
भू	-9.34231
▁t	-9.34255
▁इत्युक्ते	-9.34264
▁युष्मभ्य	-9.34302
राज	-9.34356
▁योग्य	-9.34441
▁लाभ	-9.3453
स्मात्	-9.34536
▁यद्य	-9.34544
▁था	-9.34605
हीन	-9.34725
8	-9.34789
▁निर्देश	-9.34812
ण्ट्	-9.34855
▁वेरियेबल्स्	-9.34951
▁तावत्	-9.35005
▁सञ्चिकायां	-9.35022
यिष्यति	-9.35096
वन	-9.35279
▁रक्षित	-9.35298
▁उक्त	-9.35407
▁कीवर्ड्	-9.35493
▁रेकोर्ड्	-9.35519
▁उद्घाट्यते	-9.35559
▁फोल्डर्	-9.35578
व्या	-9.35653
▁Re	-9.35687
्ट	-9.35726
▁टैप्	-9.35772
▁वर्णं	-9.35809
ायाः	-9.35874
फील्ड्	-9.35964
▁समाप्त	-9.36022
▁वेद	-9.36057
धन	-9.36115
ात्मा	-9.36206
स्माभिः	-9.36217
▁संसार	-9.36369
▁माता	-9.36496
▁जान	-9.367
▁कथयामास	-9.36786
▁प्रत्येकं	-9.36789
॥	-9.36793
▁प्राप्तवदस्ति	-9.36793
▁विलोक्य	-9.36793
▁कृपा	-9.36796
▁Manager	-9.3682
▁मन्यते	-9.36868
यतो	-9.36929
▁सत्यं	-9.37097
▁सदृश	-9.37159
▁ओब्जेक्ट्स्	-9.37167
कर्तुं	-9.37172
▁बहिः	-9.37274
सू	-9.37345
▁वै	-9.37511
▁व्याख्या	-9.37686
▁org	-9.37719
▁O	-9.37794
out	-9.37812
ity	-9.37826
हन	-9.37846
पी	-9.3789
▁बीज	-9.37976
▁देश	-9.38023
▁ही	-9.3804
▁व्यायाम	-9.3816
फैर्	-9.38162
▁ददामि	-9.38164
▁इत्येतेभ्यः	-9.38234
▁उत्थाय	-9.38263
▁स्थापयामि	-9.38294
▁वर्तमान	-9.38314
▁आनयेत	-9.38348
▁पशु	-9.38366
▁गच्छामि	-9.38517
▁this	-9.38565
▁सञ्चिकाः	-9.38872
▁सर्वा	-9.38877
इतीदं	-9.38946
▁तन्	-9.38982
ाभि	-9.39036
▁do	-9.39042
▁आत्म	-9.39057
▁यज्ञ	-9.39107
▁पार	-9.39331
▁गच्छाम	-9.39462
▁कश्चन	-9.39516
टे	-9.3956
▁निर्माणं	-9.39655
▁क्ष	-9.39723
दु	-9.39773
▁नामानि	-9.39803
▁वृक्षस्य	-9.39819
▁गन्तुं	-9.39863
ल्प	-9.39869
्यां	-9.39962
▁OK	-9.40002
▁वृद्धि	-9.40105
▁ज्ञात	-9.40198
▁भ्रम	-9.40262
▁पुण्य	-9.4052
▁इदम	-9.40734
टर्	-9.40779
▁सन्देशं	-9.40785
▁मूल्य	-9.40789
▁from	-9.40903
▁त्रीणि	-9.40903
▁उचित	-9.40927
▁मृत्यु	-9.4106
▁अङ्क	-9.41209
▁ईश्वरीय	-9.41227
▁सर्व्वाणि	-9.41261
▁आर्	-9.41267
▁जाते	-9.41277
▁date	-9.41289
विषय	-9.41382
▁पेज्	-9.41406
▁static	-9.41447
▁अस्मान्	-9.41466
▁सार्द्ध	-9.41564
▁मूल्यानि	-9.416
स्ता	-9.41662
धि	-9.41835
il	-9.41886
▁प्रिय	-9.41908
▁कूर्च	-9.41924
ly	-9.41925
▁पादप	-9.42174
वर	-9.42208
तदानी	-9.42269
▁नुत्त्वा	-9.42311
▁चिनुमः	-9.42312
▁पाठं	-9.42339
▁पृथक्	-9.42406
▁यच्च	-9.42455
▁परित्राण	-9.42584
वाह	-9.42587
▁सन्तान	-9.42608
▁क्रोध	-9.4261
▁दुःख	-9.42639
यन	-9.42669
ैश्च	-9.42672
▁अधिकविवरणार्थं	-9.42673
▁अधो	-9.42698
▁दक्षिणतः	-9.42707
round	-9.42722
▁वार्त्ता	-9.42726
मिव	-9.42832
▁5.	-9.42849
पात	-9.42926
▁अर्जुन	-9.42957
श्वास	-9.43148
दान	-9.43164
▁The	-9.43303
वारं	-9.43372
▁method	-9.4346
त्रा	-9.4358
रं	-9.43723
▁फाक्स्	-9.4374
▁एकाग्रता	-9.4374
▁हाथ	-9.43742
▁डौन्लोड्	-9.43746
demo	-9.43747
▁धृत्वा	-9.43754
▁अक्षराणि	-9.4385
▁चरण	-9.43855
▁लिख	-9.43923
▁स्वास्थ्य	-9.43955
▁अंश	-9.43957
▁धर्म्म	-9.43962
दण्ड	-9.43963
ागत्य	-9.44044
▁पेटर्न्	-9.441
ग्रे	-9.44179
▁सूचना	-9.44326
प्रक्रिया	-9.44378
रू	-9.44408
पूर्व	-9.44606
ite	-9.44629
पक्ष	-9.44689
▁संगीत	-9.44712
▁चिह्नं	-9.4487
▁सत्	-9.45066
▁category	-9.45189
▁श्रद्धा	-9.4519
ुपरि	-9.45198
▁आरम्भ	-9.45204
▁त्वयि	-9.45205
▁g	-9.45208
▁ज्ञात्वा	-9.4522
▁विहाय	-9.45232
▁पिधान	-9.45243
▁विवरणं	-9.45261
▁आस्ते	-9.45268
▁आदेशः	-9.45356
▁भगवान	-9.45418
▁स्पष्ट	-9.4555
हस्त	-9.45561
▁भाव	-9.45569
▁Sale	-9.45592
▁यद	-9.4563
▁Select	-9.4567
w	-9.45723
रूपं	-9.45823
▁इतः	-9.45941
यह	-9.46033
▁र	-9.46066
िष्ठ	-9.46148
▁व्या	-9.46179
टर्मिनल्	-9.46188
साधन	-9.46207
▁केनाप	-9.46236
▁आसन्	-9.463
▁7	-9.46321
त्वात्	-9.46371
ाध	-9.46397
ब्र	-9.46404
▁ड	-9.46405
विश्वास	-9.46424
▁भागः	-9.46435
▁श्र	-9.46468
▁तेभ्यः	-9.4647
▁जालपुटे	-9.46483
▁यश्च	-9.46492
▁एकम्	-9.46508
परिवर्तन	-9.4651
▁अस्या	-9.46556
▁परित	-9.46583
▁दीर्घ	-9.46621
इति	-9.46633
▁कथम्	-9.46636
▁16.04	-9.4666
▁कुर्म	-9.46662
▁इमेज्	-9.46679
▁ब्रह्म	-9.4668
▁स्थापयन्तु	-9.46685
▁भवते	-9.46818
कर्ता	-9.46819
▁डेटा	-9.46821
▁साहाय्यं	-9.46852
▁हेतो	-9.46912
▁हा	-9.46961
▁अवलोकयन्तु	-9.46968
▁एकस्य	-9.47146
▁परिवर्त	-9.47203
मू	-9.47258
▁सूक्ष्म	-9.47295
▁कर्ष	-9.47312
▁गुरु	-9.47334
▁20	-9.47344
▁छात्रः	-9.47357
up	-9.47373
▁डि	-9.47433
वी	-9.47457
▁तयो	-9.47601
ास्ते	-9.47736
▁कील	-9.47767
▁मनो	-9.47777
ोर	-9.47805
▁परिवर्तित	-9.47825
ाचार	-9.47841
माना	-9.47848
▁युक्त	-9.48136
▁कुरु	-9.48138
▁इतोऽप	-9.48152
▁भारतीय	-9.48155
▁username	-9.48166
▁प्राप्नुवन्ति	-9.48172
▁परिवर्तयन्तु	-9.48178
▁आगत	-9.48184
▁टङ्कनं	-9.48199
▁कथमिति	-9.48213
▁इण्डेक्स्	-9.48257
ce	-9.48275
हार	-9.48278
▁यावद्	-9.48292
▁नो	-9.4831
▁नवीन	-9.48368
जीव	-9.48416
▁लेयर्	-9.48439
▁दें	-9.48467
रहित	-9.48514
▁भूमि	-9.48578
▁block	-9.48597
▁सर्व्वान्	-9.48706
▁कति	-9.48754
▁कुतो	-9.48912
▁V	-9.4897
▁द्वादश	-9.49177
ितवन्तः	-9.49217
▁परिवर्त्य	-9.493
▁तम्	-9.49428
▁पृष्ठे	-9.49454
तार	-9.49496
धर्म्म	-9.49588
▁पीछे	-9.49667
▁Tool	-9.4967
▁ग्राम	-9.49719
▁येषा	-9.49721
▁सुख	-9.49763
alk	-9.49766
▁भक्ति	-9.49767
▁समुद्र	-9.49768
दृश्य	-9.4977
▁tab	-9.49798
▁मदीय	-9.49829
▁नृत्य	-9.49857
नम्	-9.49871
्याः	-9.49918
▁बाक्स्	-9.49919
पत	-9.50041
सर्व	-9.50165
▁गाय	-9.50222
रचना	-9.50283
मन	-9.50301
दी	-9.5041
▁पर्यन्तं	-9.50413
▁कमपि	-9.50416
▁नुदामः	-9.50472
मुक्त	-9.50489
▁पुर	-9.50519
▁करणम्	-9.50552
▁फैल्	-9.50603
▁पेरामीटर्	-9.50728
▁लोकाना	-9.50732
▁फलित	-9.50931
वर्ष	-9.51001
अपरञ्च	-9.51005
▁गौरवं	-9.51011
▁वृक्षा	-9.51037
▁आस	-9.5104
धर	-9.51064
▁यावत	-9.51155
▁Code	-9.51206
▁निष्क्रिय	-9.51206
▁कर्षयामि	-9.51217
▁प्रयोजन	-9.51275
▁प्रतिकृति	-9.51306
▁course	-9.51345
कृ	-9.51391
▁उपरितन	-9.51429
▁पुरातन	-9.51444
▁कस्मिन्	-9.51504
▁टेबल्	-9.51547
ra	-9.51548
▁सिस्टम्	-9.51686
▁सहाय	-9.51703
यम्	-9.51793
स्त्र	-9.51854
▁लेख	-9.51858
र्ह	-9.51874
स्तत्	-9.51885
राज्य	-9.52008
कारक	-9.52022
ात्म	-9.52066
▁r	-9.52079
ियों	-9.52125
▁विशिष्ट	-9.52279
बन्ध	-9.52327
▁निर्मित	-9.52349
▁दर्शय	-9.5237
र्ग	-9.5239
राम	-9.52449
वंश	-9.52464
▁द्वितीयं	-9.52478
▁जालपुटं	-9.52643
▁उच्यते	-9.52768
ात्मक	-9.52803
▁दुष्ट	-9.52825
▁जानन्ति	-9.52855
र्व	-9.52954
ुष	-9.53046
▁page	-9.53153
▁वस्तु	-9.53178
▁मौस्	-9.53199
स्मि	-9.53226
un	-9.53265
▁ईश्वरः	-9.53315
सदृश	-9.53395
▁वृत्त	-9.5345
टा	-9.53633
?"	-9.53656
णि	-9.53679
नाम्न	-9.53963
▁प्रसिद्ध	-9.54035
▁यु	-9.54047
▁सहायता	-9.54048
▁समस्या	-9.54066
▁समर्थ	-9.54071
▁प्रश्ना	-9.54094
▁दा	-9.54132
▁कथित	-9.54191
दास	-9.54242
▁जातम्	-9.54298
z	-9.54307
दृश	-9.54307
▁बभूव	-9.5434
र्जन	-9.54356
▁minus	-9.54356
▁क्षुद्र	-9.54356
टक	-9.54453
▁महत्वपूर्ण	-9.54502
▁कथयति	-9.54519
▁फङ्क्षन्	-9.54539
▁शरीरं	-9.54619
▁!	-9.54683
▁समीचीन	-9.54694
▁पे	-9.54716
▁Book	-9.54718
▁पाषाण	-9.54915
▁9	-9.54934
▁उस	-9.54974
▁जानीमः	-9.55135
ीश्वर	-9.5516
▁कम्पैल्	-9.55236
विवरण	-9.55296
ate	-9.55322
करणे	-9.5541
▁उदाहरणार्थं	-9.55527
▁स्वस्य	-9.55556
▁मूडल्	-9.55558
!	-9.55637
ेऽपि	-9.55669
जीवन	-9.55697
▁while	-9.5572
▁मूसा	-9.55746
▁धन्यवाद	-9.55776
प्रकाश	-9.55795
स्तव	-9.55912
शरीर	-9.55929
▁अधोनिर्दिष्ट	-9.5597
▁दत्वा	-9.56033
▁कुर्यात्	-9.56065
▁सङ्ख्यां	-9.56111
▁परिवर्तन	-9.56112
▁पाठस्यास्य	-9.56124
▁निश्चित	-9.56203
▁पर्याय	-9.56397
▁इनिशियलैस्	-9.56468
ies	-9.56543
▁जन्म	-9.56691
▁home	-9.56831
▁श्व	-9.56888
तुः	-9.56973
युतं	-9.56987
▁भय	-9.57227
▁कर्तव्य	-9.57252
▁दे	-9.57262
▁वर्ध	-9.57275
निर्माण	-9.5729
शील	-9.57435
बद्ध	-9.57442
▁लोकान्	-9.57551
सर्	-9.57567
▁गृहे	-9.57574
ितानि	-9.576
▁password	-9.57608
▁plus	-9.57608
▁एक्सेस्	-9.57608
▁पुटस्य	-9.57617
▁रेकार्ड्	-9.57637
▁/	-9.57661
▁वक्ष	-9.57708
▁v	-9.57745
▁इच्छामि	-9.5782
▁URL	-9.57856
▁प्रविश्य	-9.57875
▁सांस	-9.57922
▁roll	-9.57955
▁पश्यतु	-9.57965
▁द्वयो	-9.57978
▁ईश्वरेण	-9.57997
▁री	-9.58008
▁admin	-9.58051
▁संवादपेटिका	-9.58132
▁गवाक्ष	-9.58138
▁एतेन	-9.58143
स्मान्	-9.58233
मत	-9.58392
▁पि	-9.58451
करणं	-9.58457
एवं	-9.58511
▁कर्त	-9.58517
▁भवान	-9.58536
▁औट्	-9.58568
िति	-9.58585
ोपि	-9.58614
ानुसारेण	-9.5864
िंग्	-9.5865
वह	-9.58693
कारिण	-9.58718
ध्	-9.58757
ितो	-9.58838
बाक्स्	-9.58999
द्वितीय	-9.59003
्यमान	-9.59082
था	-9.5916
▁छात्रा	-9.59234
▁योजयितुं	-9.59275
▁सुन्दर	-9.59275
▁कर्लि	-9.59275
▁पास्वर्ड्	-9.59278
▁contact	-9.5928
▁विकास	-9.59283
▁प्रमुख	-9.59385
ाञ्च	-9.59438
‘	-9.59674
▁क्रीड	-9.59676
▁कस्य	-9.59693
इस	-9.59745
▁दुग्ध	-9.59795
▁द्वि	-9.59842
▁यूसर्	-9.59845
▁आत्मान	-9.59884
िना	-9.59914
▁संख्या	-9.60128
स्माकम्	-9.6013
दर्शन	-9.60143
एकं	-9.6021
▁पूप	-9.60226
ger	-9.6024
▁लब्ध	-9.60289
ort	-9.60294
▁जाल	-9.60303
▁घ	-9.60349
▁यन्त्रे	-9.60453
▁लोकाः	-9.60581
▁साधनं	-9.60653
पूर्ण	-9.6067
▁’	-9.60686
▁बि	-9.60766
स्माभि	-9.60826
▁तन्न	-9.60837
बार्	-9.60877
▁दर्शन	-9.60888
▁single	-9.60969
▁Eclipse	-9.60972
▁नासिका	-9.60977
▁इण्टर्फ़ेस्	-9.61021
▁इच्छति	-9.61057
▁वंश	-9.61062
▁परिवर्तयामि	-9.61064
▁यस्मात्	-9.61078
▁तीक्ष्ण	-9.6109
▁by	-9.61104
प्राप्त	-9.61165
▁ICT	-9.61191
▁दूरी	-9.61204
▁प्रकल्पः	-9.61223
ीयम्	-9.61277
▁संयोजयाम	-9.61289
▁बालिका	-9.61394
तद्वद्	-9.61421
▁न्यूनं	-9.6149
▁println	-9.61499
▁दक्षिणपार्श्वे	-9.61514
क्षेत्रे	-9.61553
▁Admin	-9.61601
िकाया	-9.61625
▁गया	-9.61725
▁पेट	-9.61968
रफ	-9.62063
▁मेथड्स्	-9.6208
त्वम्	-9.62093
▁रव	-9.62132
ap	-9.62222
▁y	-9.62226
N	-9.62263
▁स्त	-9.62263
रेखा	-9.62283
ऐ	-9.62303
र्प	-9.62351
ून	-9.62354
▁स्ट	-9.62357
य्य	-9.62562
विचार	-9.62566
ार्	-9.62615
यद्यपि	-9.62644
▁पीलात	-9.62694
▁सुलभ	-9.62694
▁text	-9.62694
▁हम	-9.62705
▁मित्र	-9.62706
▁त्यजामि	-9.62729
▁करिष्यति	-9.62771
▁इत्यादीनि	-9.62783
▁गच्छतु	-9.6279
▁अनुमति	-9.62793
▁काल्	-9.62851
दश	-9.62859
▁loop	-9.62885
▁GIMP	-9.62989
▁सर्वान्	-9.63012
▁Item	-9.63051
▁कीलकं	-9.63068
▁एकस्मिन्	-9.63076
वद्	-9.63084
्यतां	-9.63184
स्ते	-9.63262
गो	-9.63328
मुपयुज्य	-9.63423
▁इत्याख्य	-9.63512
ेट्	-9.63574
बंद	-9.63612
▁अध्यापक	-9.63686
▁दु	-9.6377
▁तत्सम्बद्ध	-9.63873
▁एडिटर्	-9.63882
▁सम्बन्ध	-9.63889
मेण्ट्	-9.63985
ानुग्रह	-9.64068
▁कृतम्	-9.64139
▁लेखन	-9.6427
▁दृष्टि	-9.64288
▁वर्ग	-9.64289
de	-9.64341
▁उद्घाट्य	-9.64343
▁क्षम	-9.64357
▁अनुभव	-9.64396
▁संयोजन	-9.64415
▁सौजन्य	-9.64448
▁हथेलियों	-9.64454
▁सूचिका	-9.6446
▁उपलभ्यते	-9.64506
▁कन्या	-9.64524
▁बहवो	-9.64526
▁अहम	-9.64543
▁र्म	-9.64556
▁वदन्ति	-9.6461
▁ग्रन्थालय	-9.64642
▁इत्यतः	-9.6469
वेश	-9.647
▁सोऽ	-9.6478
श्व	-9.64794
▁शून्य	-9.64855
▁क्रमश	-9.64889
▁अहमत्र	-9.64939
▁विस्तार	-9.64958
▁लिखत	-9.64991
ाहार	-9.65078
▁तच्च	-9.65196
▁बिन्दु	-9.65209
मुद्रा	-9.65265
▁किस	-9.65365
▁विवरण	-9.65379
▁सर्व्वा	-9.65544
▁आदर	-9.65557
रोध	-9.6558
अप्	-9.65767
▁Project	-9.65818
▁अर्जुनः	-9.6583
int	-9.66014
पाठस्यास्य	-9.66086
Spoken	-9.66087
▁महान्	-9.66092
▁अपेक्षित	-9.66131
▁मार्क्	-9.6614
log	-9.66141
बि	-9.66153
▁मेथेड्	-9.66234
▁नीचे	-9.66234
▁जायमान	-9.66236
तव्य	-9.6624
▁इतीदमुपयुज्य	-9.66242
अरे	-9.6626
▁सुधार	-9.6628
▁अभवन्	-9.66308
▁लभ्यते	-9.66309
▁अस्मभ्य	-9.66338
▁तत्क्षण	-9.6635
▁प्रेषय	-9.66362
▁पठन	-9.66363
▁पिञ्ज	-9.66432
▁तो	-9.66446
▁नीलवर्ण	-9.66447
तीति	-9.66447
▁तस्यां	-9.66484
▁आज्ञा	-9.66491
▁प्रिण्ट्	-9.66504
▁यिहूदीयाना	-9.66514
▁इतीदम	-9.66582
▁ज्ञायते	-9.66635
▁30	-9.66754
▁प्रधान	-9.66818
▁विभागस्य	-9.6687
▁पर्चन्या	-9.66877
▁पाठस्य	-9.66906
णे	-9.66922
▁ला	-9.66991
नियम	-9.67102
▁files	-9.67128
▁NMEICT	-9.67191
लैन्	-9.67379
वश्य	-9.67486
ज्य	-9.67589
▁गुरो	-9.67595
▁निर्मातुं	-9.67756
तरं	-9.67821
नामा	-9.67824
K	-9.67878
▁वृक्षाणा	-9.67881
वस्तु	-9.68
स्तेषा	-9.68014
▁फलानि	-9.68021
▁stud	-9.6805
▁अग्नि	-9.68052
▁कृत्स्न	-9.68052
▁आनन्द	-9.68052
▁बभाषे	-9.68052
▁इत्यादय	-9.68075
▁कथयामि	-9.68075
▁भ्राम	-9.68078
▁दर्शयितुं	-9.6808
▁सूर्यस्य	-9.68113
▁अवशिष्ट	-9.68116
▁जा	-9.68124
▁पुटे	-9.68127
▁पोत	-9.68131
▁राग	-9.68142
वाले	-9.68151
ol	-9.68344
ासनम्	-9.68388
▁नम	-9.68391
▁Search	-9.68474
▁वामतः	-9.68513
▁कम	-9.68525
▁वाक्यानि	-9.68558
▁परमेश्वर	-9.68624
▁जालपुट	-9.68646
वः	-9.68648
िनां	-9.687
कम्प	-9.68738
▁भविष्य	-9.68762
िष्ट	-9.68919
▁स्मरण	-9.68921
▁स्वाद	-9.68979
▁अधि	-9.6906
स्ट्र	-9.69089
पात्र	-9.69235
मूल	-9.69367
▁इमान्	-9.69388
भाषा	-9.69421
मुप	-9.69454
▁चेष्ट	-9.6954
मध्य	-9.69541
▁त्यज	-9.69604
ot	-9.69606
▁एकैक	-9.6962
▁र्य	-9.69715
el	-9.69746
बोध	-9.69765
खण्ड	-9.69893
▁विटामिन	-9.69904
▁आकार	-9.69924
▁वक्र	-9.69994
र्म्म	-9.70018
▁गतवान्	-9.70021
▁अवदत्	-9.70106
▁Windows	-9.70132
▁आकृति	-9.70259
▁कुत	-9.70272
अथ	-9.70294
▁एन	-9.70364
▁स्टेटिक्	-9.70371
▁Create	-9.70378
▁चतुर्	-9.70393
िष्यन्ते	-9.70395
um	-9.70397
पुटम्	-9.70424
▁अपरम्	-9.70452
गें	-9.70453
रस	-9.7054
▁जानामि	-9.70626
▁अत्रत्य	-9.70655
र्त	-9.70656
▁भरत	-9.70659
तस्मात्	-9.70732
ेऽस्मिन्	-9.70819
▁Course	-9.70901
▁उत्पन्न	-9.70954
▁साक	-9.71048
▁सम्बद्ध	-9.71095
शिष्य	-9.71161
ुछ	-9.71174
ch	-9.71496
गल	-9.71533
वाक्यं	-9.71583
ter	-9.71603
ूनां	-9.71673
▁गाढ	-9.71683
▁गणित	-9.71694
=	-9.71745
ग्राम	-9.71753
▁क्षमता	-9.71762
▁सामान्यत	-9.71768
▁पास्	-9.7178
▁अवसर्पिणी	-9.71791
▁इम्पोर्ट्	-9.71791
▁भवत्सु	-9.71802
0%	-9.71811
ck	-9.71813
▁अनयोः	-9.71891
▁द्रव्य	-9.71916
▁वे	-9.71945
▁रा	-9.71953
▁अप्लिकेशन्	-9.71962
▁एतावता	-9.72015
▁सन्देश	-9.72025
▁सङ्कलन	-9.7204
पाठार्थं	-9.72045
▁नम्रता	-9.7208
▁एलिमेण्ट्	-9.72158
▁बहिर्	-9.72197
▁रि	-9.72272
तदनन्तरं	-9.72314
▁क्या	-9.72378
िष्यामि	-9.72463
▁पत्राणि	-9.72474
▁जनः	-9.72478
लय	-9.72484
▁पात्र	-9.72516
▁वदत	-9.72524
लेख	-9.72537
कः	-9.72574
पथ	-9.72617
▁भक्ष्य	-9.72669
▁पक्ष	-9.72674
ानुसारं	-9.72762
▁करणाय	-9.72767
शी	-9.72799
▁गु	-9.72847
▁योजित	-9.72943
▁अक्षर	-9.72981
▁विकल्पाः	-9.73052
▁युष्मानह	-9.73063
पदार्थ	-9.73586
ेते	-9.73647
▁नाश	-9.7367
ेर	-9.73676
इदानीम्	-9.73713
▁घुटन	-9.73713
▁नीत्वा	-9.73718
▁परिवर्तताम्	-9.73748
▁संयोजितुं	-9.7376
▁string	-9.73774
▁सक्षम	-9.73813
▁क्विज़्	-9.73893
▁प्रीति	-9.73911
▁करवाम	-9.73927
▁विधान	-9.73939
▁grep	-9.73942
योजन	-9.73954
प्रकार	-9.74038
▁भ्राता	-9.74049
ादय	-9.74111
▁नोदनेन	-9.74125
ary	-9.74125
▁विषयकस्य	-9.74181
हू	-9.74185
▁प्रसन्न	-9.74203
दीय	-9.74212
▁आधार	-9.74238
▁विरुद्ध	-9.74253
▁योहन्	-9.74334
▁तदर्थम्	-9.74408
मानं	-9.74415
▁देख	-9.74457
▁चितं	-9.74562
▁अधिकविवरण	-9.74619
▁Files	-9.74634
▁शास्त्र	-9.74655
ow	-9.74732
▁कर्म	-9.74758
im	-9.74772
▁Type	-9.74848
जि	-9.74859
▁W	-9.75033
ीकृत्य	-9.75094
ादेश	-9.75112
▁फील्ड्स्	-9.75125
टो	-9.75284
▁txt	-9.75348
ीयते	-9.7544
▁)	-9.75455
पृष्ठ	-9.7564
दोष	-9.75673
▁श्लाघ	-9.75674
▁आब्जेक्ट्	-9.75674
▁शङ्का	-9.75677
▁selection	-9.75684
▁सीध	-9.7569
क्लास्	-9.75715
▁मत्	-9.7572
ावश्यक	-9.7572
▁चित्रमिदं	-9.75724
▁प्रविष्ट	-9.75741
▁तरह	-9.75744
▁सङ्गणक	-9.75751
▁करणीयमिति	-9.75755
▁पृष्टवान्	-9.75756
▁रक्षितुं	-9.75763
▁सज्ज	-9.75852
▁मास	-9.75856
तुल्य	-9.75868
▁Shift	-9.75892
▁शिथिल	-9.75893
▁Teacher	-9.75932
▁दोनों	-9.75972
▁निकटे	-9.75985
str	-9.7606
▁प्रकल्पस्य	-9.76163
नम	-9.76172
▁सम्यग्	-9.76194
स्थिति	-9.76196
▁करतल	-9.76214
▁आगच्छाम	-9.76219
▁नाव	-9.76224
age	-9.76244
ीयं	-9.76254
▁पुनरपि	-9.76299
▁मेष	-9.76323
मत्र	-9.76337
▁विश्व	-9.76525
श्रम	-9.76539
▁उन्ह	-9.76541
▁प्रती	-9.76589
डर्	-9.7665
▁रथ	-9.76738
▁सन्देशः	-9.76841
us	-9.76891
ागमन	-9.76893
▁सीमा	-9.76925
▁नष्ट	-9.76953
सौ	-9.76962
▁लें	-9.76996
सह	-9.77022
र्यीशुख्रीष्टस्य	-9.77094
▁होता	-9.77256
▁दायूद	-9.77264
▁आचर	-9.77331
▁सहस्र	-9.77412
▁समस्त	-9.77424
▁कुर्वन्	-9.77462
▁स्थ	-9.77469
▁सञ्चय	-9.77502
▁दान	-9.77512
▁प्रो	-9.77624
▁Employee	-9.77674
▁बाहर	-9.7768
िर	-9.77689
दक्षिण	-9.77689
▁चलच्चित्रं	-9.77695
▁अन्वेषण	-9.77702
▁इच्छन्ति	-9.77711
ट्युटोरियल्	-9.77754
Name	-9.77758
ोऽभवत्	-9.77762
▁मानवा	-9.77804
▁शुष्क	-9.77857
▁याच	-9.77906
▁तद्वत्	-9.77913
▁दर्शनं	-9.77999
▁Z	-9.78018
▁आप्षन्	-9.78018
▁शाखा	-9.78029
▁डेटाबेस्	-9.78059
र्द	-9.78101
▁परस्पर	-9.78152
▁जातं	-9.78206
व्यवस्था	-9.78212
ीश्वरस्य	-9.78232
णम्	-9.783
▁साँस	-9.78302
▁No	-9.78323
▁विकल्पान्	-9.78328
▁वर्णन	-9.7839
▁सन्ताना	-9.78418
▁कार्याणि	-9.7848
नस्य	-9.78566
मृत	-9.78567
:"	-9.78578
▁चन्द्र	-9.78581
▁कृतवन्त	-9.78617
▁एकां	-9.78754
ओं	-9.78902
▁इत्येतानि	-9.7896
ष्टि	-9.78993
शक्य	-9.79062
▁सर्वर्	-9.7908
ाक्ष	-9.7933
▁तावत	-9.79403
▁item	-9.79431
िनी	-9.79493
ल्यं	-9.79498
▁you	-9.7951
▁add	-9.79576
▁आरभ्य	-9.79581
द्वयम्	-9.79666
▁11.10	-9.79715
gmail	-9.79715
▁उवाच	-9.79715
▁सारांश	-9.79723
शक्त	-9.79739
▁Page	-9.79742
▁विद्यन्ते	-9.79743
▁परिवर्तितुं	-9.79778
▁अतीव	-9.79833
दत्त	-9.79878
ग्रहण	-9.79998
▁चक्र	-9.80003
▁बाद	-9.80009
कृते	-9.80038
रेण	-9.80047
▁जीवा	-9.80177
▁भवतीति	-9.80195
▁पृथिव्या	-9.80251
me	-9.80274
▁हत	-9.80278
विधान	-9.80352
▁अन्या	-9.80391
10	-9.80392
▁धेनवस्य	-9.80405
रीत्या	-9.80416
▁जनाः	-9.80472
▁वन	-9.80528
एव	-9.80529
▁दिशा	-9.80631
हर	-9.80706
▁विश्वासेन	-9.80843
▁आद	-9.80908
▁गोप	-9.80915
▁उत्सर्गतया	-9.81089
▁समुप	-9.81126
▁उदर	-9.81215
ीन्	-9.81238
▁पृथिव्यां	-9.81255
बा	-9.8133
▁वृद्ध	-9.8134
▁जाए	-9.81367
क्षण	-9.81399
▁प्रकाशित	-9.81415
▁विन	-9.81449
▁राज्य	-9.81535
▁केन	-9.81621
to	-9.81681
स्तद्	-9.81752
▁पप्रच्छ	-9.81783
▁Class	-9.8179
▁Account	-9.81793
▁महायाजक	-9.81798
▁जांघ	-9.81799
▁सोफ़्ट्वेर्	-9.81801
साक्षरता	-9.81803
▁ब्लोक्	-9.81806
▁हिस्स	-9.81821
▁न्य	-9.81828
▁साम	-9.81838
▁सफल	-9.81869
जनक	-9.81875
यीशु	-9.819
▁लैन्	-9.81941
स्तर्हि	-9.81967
▁Desktop	-9.81988
थि	-9.82007
▁टीचर्	-9.8203
▁एलिमेण्ट्स्	-9.82036
इत्य	-9.8205
▁अश्व	-9.82088
श्वसन	-9.821
रित	-9.82111
th	-9.82155
▁हृदय	-9.82157
कृत्वा	-9.82168
▁सन्निधौ	-9.82169
▁account	-9.82199
स्मिन्नेव	-9.82221
▁स्वर्गे	-9.82274
▁स्रोत	-9.82286
▁यथार्थं	-9.82369
▁पर्यन्त	-9.82449
▁नुदाम	-9.82481
▁व्रज	-9.825
▁करणं	-9.82509
▁योजन	-9.82711
▁प्रण	-9.82733
▁राजत्व	-9.82753
▁आनय	-9.82753
▁टङ्कित	-9.82846
▁एताः	-9.82927
▁कृता	-9.82934
▁मन्दिर	-9.82951
ुक	-9.82969
▁जानु	-9.8304
▁ततस्ते	-9.83073
दाय	-9.8321
▁बुद्धि	-9.83258
वर्ग	-9.83347
▁जले	-9.8339
मधि	-9.83439
▁परम्	-9.83669
▁धन्यं	-9.83677
▁यस्या	-9.83743
प्राण	-9.83788
ानन्द	-9.83833
%	-9.83903
▁वचन	-9.83909
भो	-9.83913
▁Package	-9.83926
▁mask	-9.83926
▁विवृणोमि	-9.83926
▁डिलीट्	-9.83926
▁विद	-9.83933
▁कतिचन	-9.8394
▁दोषः	-9.83948
▁उपलब्ध	-9.83948
▁In	-9.83949
▁कापि	-9.84
▁यादृश	-9.84003
▁इत्येक	-9.8401
▁क्रुशे	-9.84018
पु	-9.8402
▁आगे	-9.8402
स्तेन	-9.84024
वाम	-9.84024
▁रच	-9.84032
▁इण्टीजर्	-9.84034
▁गण्डस्योपरि	-9.84037
gcc	-9.84056
▁अस्तीति	-9.84062
▁भवत्या	-9.8409
वेरियेबल्	-9.84138
▁प्रारम्भ	-9.84166
▁शीर्षक	-9.84188
▁case	-9.84206
▁वामपार्श्वे	-9.84269
व्यक्त	-9.8428
ाएं	-9.84289
▁copy	-9.8438
▁संभव	-9.84381
▁उत्पाद	-9.84394
▁खाद	-9.84413
▁अल्प	-9.84418
▁विष	-9.84438
▁संधारिका	-9.84522
नार्थं	-9.84529
▁आवश्यकानि	-9.84581
ेदं	-9.84836
▁12	-9.84848
▁सदा	-9.85046
▁अन्	-9.85081
▁यूयम	-9.85165
▁जब	-9.85171
▁मत्स्य	-9.85214
भवन्तः	-9.85216
क्स	-9.85308
▁ख्रीष्टेन	-9.85363
▁वर्ष	-9.8559
योग्य	-9.85637
▁यावन्त	-9.85689
▁आसीत	-9.85699
▁यस्मिन	-9.85758
▁अष्ट	-9.85795
▁रक्षा	-9.85796
घात	-9.85799
▁ततस्त	-9.8582
▁उच्च	-9.85918
▁सीता	-9.85986
▁एकेन	-9.85997
▁प्राप्नोमि	-9.861
▁निम्नलिखित	-9.86102
▁square	-9.86104
▁मनांसि	-9.86116
▁भ्रातृ	-9.86117
▁रचयित्वा	-9.86123
▁आवर्तयेत	-9.86165
▁स्वर	-9.86169
मेक	-9.86182
यितुम्	-9.86186
त्रय	-9.86189
▁इत्यस्ति	-9.862
▁पूर्वमेव	-9.86209
▁रक्षित्वा	-9.86214
▁शान्ति	-9.86229
▁भवथ	-9.86274
▁Next	-9.86342
नाम्ना	-9.86348
▁मार्क्स्	-9.86362
▁पृथ्व्या	-9.86386
▁colour	-9.86386
▁तमा	-9.86397
▁अग्रिमं	-9.86429
▁अर्रे	-9.86431
▁परिवर्तयामः	-9.86455
▁नैव	-9.86471
अस्माकं	-9.86561
▁स्वीकृत	-9.86599
भूत्	-9.86677
कान्	-9.86768
▁11	-9.86777
▁गमन	-9.86836
▁पर्ण	-9.86849
▁निर	-9.86881
▁वामभागे	-9.86894
भागे	-9.86943
▁क्लेश	-9.86964
प्रकारक	-9.87127
▁अभिजान	-9.87136
▁भावना	-9.87154
▁नोदन	-9.87203
न्स्	-9.87212
▁भेद	-9.87306
▁हर	-9.87311
येत्	-9.87404
▁अभ्यासाय	-9.87417
भ्यां	-9.8747
▁एकत्र	-9.87485
▁आसनानि	-9.87525
▁तेभ्य	-9.87544
▁पठ	-9.87598
▁संस्था	-9.87632
▁शिक्षा	-9.87767
▁उत	-9.8777
▁तेज	-9.87911
यम	-9.87941
▁यन्न	-9.88016
▁विनाश	-9.88018
▁नामक	-9.88139
ण्ड्	-9.88177
▁महान	-9.8822
वदत्	-9.88284
▁प्रेषित	-9.88301
▁example	-9.88322
▁पेकेज्	-9.88322
▁साहाय्येन	-9.88322
▁योजयन्तु	-9.88322
▁directory	-9.88322
▁स्टोर्	-9.88323
ान्तिक	-9.88328
▁than	-9.88328
▁गुप्त	-9.88335
लन	-9.88348
▁table	-9.88348
▁यदस्ति	-9.88359
▁चल	-9.88372
▁रक्षन्तु	-9.88435
▁भवितुम्	-9.88451
पङ्क्ति	-9.88453
गे	-9.88456
शास्त्र	-9.88491
▁एकवारं	-9.88501
▁sed	-9.8852
लम्ब	-9.88532
▁प्रत्यक्ष	-9.88598
कथय	-9.88624
ब्रौसर्	-9.88629
मेथड्	-9.88633
सहस्र	-9.88636
िष्ये	-9.88645
▁उपदेश	-9.88656
▁सम्पर्क	-9.88661
references	-9.88667
▁उपयुञ्जे	-9.88714
त्थ	-9.88734
▁क्षण	-9.88736
भवतां	-9.88802
▁सएव	-9.88815
if	-9.88816
▁नक्षत्र	-9.8883
▁कदाचित्	-9.88859
eg	-9.88881
▁गतिविधि	-9.88906
न्ताम्	-9.88922
▁निष्कासन	-9.88976
गोचर	-9.89045
▁प्रधानयाजका	-9.89064
▁प्रदत्त	-9.89104
▁25	-9.89136
▁शिव	-9.89219
ैड्	-9.89245
▁पराक्रम	-9.89262
▁सङ्केत	-9.89294
▁सेव	-9.89301
▁java	-9.89384
▁उपयोगः	-9.89401
▁भ्रातर	-9.89413
तेन	-9.89437
▁क्रीडा	-9.8944
▁सीवन	-9.8952
▁or	-9.89548
▁आपको	-9.89574
▁भज	-9.89581
िते	-9.89655
▁हरित	-9.89661
▁यिहूदीया	-9.89665
ip	-9.89729
▁पु	-9.89737
ट्ट	-9.89771
▁गद	-9.89791
▁हु	-9.89808
▁लोकास्त	-9.89814
िष्यत	-9.89944
▁जानीम	-9.89973
ान्तर	-9.90015
वेद	-9.90132
▁किमर्थ	-9.90199
▁...............	-9.90205
▁एतादृशं	-9.90317
▁जिस	-9.90436
▁str	-9.90527
▁सक्रिय	-9.90536
▁मैत्री	-9.90595
▁यच्छन्तु	-9.90595
cpp	-9.90596
▁database	-9.90596
▁MySQL	-9.90596
sudo	-9.90597
▁खेल	-9.9061
वादीत्	-9.90618
▁रक्तवर्ण	-9.90654
▁भद्र	-9.90686
▁दिने	-9.90743
▁दृश्यमान	-9.90745
▁re	-9.9075
▁स्थापयति	-9.90787
▁शिमोन्	-9.90806
▁ज्योति	-9.90895
▁Open	-9.90895
▁कोष्ठक	-9.90899
while	-9.90948
रन्	-9.90968
▁तेनैव	-9.90981
▁डिस्प्ले	-9.90987
▁"""""""	-9.91006
▁योषित	-9.91019
▁धारय	-9.91035
▁वात्स	-9.91041
▁प्रकृति	-9.91054
▁8	-9.91072
ance	-9.91107
▁इत्यपि	-9.91123
▁पितुः	-9.9116
▁कुर्वन्त	-9.91187
▁Path	-9.91264
▁युष्माभिर	-9.91264
▁कर्त्तुम	-9.91284
▁विभागे	-9.9139
▁जातः	-9.91393
ve	-9.91418
▁पथ	-9.91444
▁टङ्कयामः	-9.91451
▁परमेश्वरस्य	-9.91506
▁यतस्त	-9.91554
क्षेत्र	-9.91639
▁कथयित्व	-9.91648
▁सन्तो	-9.91655
▁यीशुना	-9.91706
▁जगतो	-9.91733
▁सोपान	-9.91747
़	-9.91848
▁सङ्क्षेपेण	-9.91867
▁प्रतिज्ञा	-9.91885
टल्	-9.91895
ear	-9.9191
▁दिवस	-9.91984
▁विधि	-9.92015
▁भवत्य	-9.9216
अतो	-9.92285
स्तान्	-9.92366
▁भाष	-9.92428
ेषां	-9.92429
यामास	-9.92452
▁रात्र	-9.92456
▁चेद	-9.92539
▁कीलफलक	-9.92553
▁यम	-9.92561
पति	-9.92566
मूल्य	-9.92606
▁कारणात्	-9.92643
ध्वम्	-9.92682
▁कर्त्त	-9.92775
▁प्रदेश	-9.92783
कोश	-9.92873
्येत	-9.9291
्यो	-9.92914
स्केप्	-9.92917
—	-9.92921
▁OPAC	-9.92921
▁अवचित्य	-9.92921
▁वद	-9.92967
▁तादृशं	-9.92968
▁मिलित्वा	-9.9298
▁आश्चर्य्य	-9.93018
▁सर्वविध	-9.93025
ोत्तम	-9.9306
▁बिना	-9.93085
तदर्थं	-9.93094
▁उद्यान	-9.93095
यतः	-9.93096
तौ	-9.93098
▁छात्र	-9.93129
▁Serial	-9.93133
▁कथाया	-9.93172
ोपदेश	-9.93174
ान्तरं	-9.93183
ct	-9.93267
▁तिष्ठन्ति	-9.93298
▁open	-9.93322
मेन्यु	-9.93385
▁अहमिद	-9.93424
▁सञ्चिकाया	-9.93429
निष्	-9.93468
रुप	-9.93477
दैव	-9.93488
मम	-9.93491
▁प्रस्तुत	-9.93553
▁LaTeX	-9.93558
▁प्रवेश	-9.93595
▁व्यवस्थाया	-9.93595
▁Display	-9.93653
▁पूजा	-9.93725
▁त्रय	-9.93733
धुना	-9.93749
कल	-9.93811
भवत	-9.93849
समय	-9.93849
▁User	-9.93882
▁पात	-9.93897
▁कहा	-9.9392
▁गच्छ	-9.93952
▁लिखामः	-9.93978
▁सङ्ग	-9.94011
▁महाभाग	-9.94107
▁विन्यास	-9.94271
▁प्राप्तम्	-9.94344
▁सन्निधि	-9.944
▁तत्तु	-9.945
▁प्रभुः	-9.94516
प्रथम	-9.94583
लोकान्	-9.94654
षन्	-9.94736
रस्य	-9.94832
ोऽहं	-9.94859
▁शाक	-9.94981
वै	-9.95026
देशं	-9.95134
मास	-9.95217
▁समर्पित	-9.95261
▁निष्कासित	-9.95279
करणम	-9.95301
▁Order	-9.95302
▁window	-9.95302
▁मजबूत	-9.95302
▁इन्वोक	-9.95302
▁राष्ट्रिय	-9.95302
▁array	-9.95302
www	-9.95302
▁ददातु	-9.95302
▁शक्यन्ते	-9.95302
▁पङ्क्ती	-9.95303
▁ईक्वल	-9.95304
▁परिपूर्ण	-9.95345
▁त्वम	-9.95346
▁प्रदर्शित	-9.95363
▁रहे	-9.95395
▁असैन्	-9.954
▁साध्य	-9.9541
>>	-9.95416
▁फिरूशिन	-9.95423
▁प्रायेण	-9.95438
Setup	-9.95464
▁आनीय	-9.95493
ूष	-9.95499
▁परिचय	-9.95549
▁अनेका	-9.95562
▁DNA	-9.95568
▁सर्प	-9.95571
सो	-9.95621
▁पाठनियोजनम्	-9.95645
▁प्रत्याशा	-9.95665
ex	-9.9573
▁Netbeans	-9.95761
वयमधुना	-9.95781
भारत	-9.9579
▁"“	-9.95843
निवास	-9.95848
वदद्	-9.95856
▁भोज्य	-9.95975
▁स्वान्	-9.96012
▁all	-9.96014
मासीत्	-9.9602
▁बो	-9.96031
▁सामर्थ्य	-9.96053
▁परीक्षा	-9.96198
▁द्विवारं	-9.96262
▁पङ्क्ति	-9.96271
▁अच्छ	-9.96284
▁public	-9.96356
▁यूयमप	-9.96533
▁टण्कय	-9.96569
▁हन्तु	-9.96588
▁प्रजा	-9.96592
नामक	-9.96603
▁इतीद	-9.96717
aft	-9.96734
मूल्यं	-9.96769
om	-9.96924
▁चित्रक	-9.96951
लोड्	-9.96953
िताः	-9.96971
▁बुद्ध	-9.96991
▁टङ्क	-9.97011
पुट	-9.97068
▁योजनीय	-9.97075
▁आवश्यकं	-9.97086
दूर	-9.9712
वचन	-9.97231
र्ध	-9.97262
▁माध्यम	-9.97329
▁कर्त्तव्य	-9.97481
▁अर्थात	-9.97533
▁उद्याने	-9.97573
▁याजक	-9.97578
हेतो	-9.97624
▁पालन	-9.9763
▁अन्तर्जाल	-9.97637
▁अह	-9.97649
नाम्	-9.97692
▁not	-9.97702
▁तिष्ठ	-9.97726
nd	-9.97733
Y	-9.97739
▁marks	-9.97741
▁Person	-9.97741
▁प्रददाति	-9.9776
▁कथ्यन्ते	-9.97769
ङ्क्त	-9.97786
▁भूयात्	-9.97807
SS	-9.97826
मेका	-9.97855
मप्य	-9.97892
▁परीक्षाया	-9.97932
▁परिमाण	-9.97951
दायक	-9.97957
▁terminal	-9.97964
▁Inkscape	-9.97964
▁चत्वारि	-9.97979
ष्टा	-9.97997
▁Manage	-9.98062
विधि	-9.98096
▁कुर्व्वन्ति	-9.98123
सम्बद्ध	-9.98134
र्व्व	-9.9814
▁MARC	-9.98162
डा	-9.98176
and	-9.98182
ge	-9.98211
▁General	-9.98211
▁search	-9.98211
▁प्रार्थ	-9.98241
▁अनुग्रह	-9.98271
▁पाने	-9.98283
▁समर्थित	-9.98289
▁बा	-9.98339
भु	-9.98419
▁an	-9.9843
▁सैट्	-9.98514
▁दत्तं	-9.98559
▁Text	-9.98559
▁विवाद	-9.98569
▁लाभा	-9.98619
▁ऐकान्स्	-9.98653
▁लो	-9.987
▁दद	-9.98702
क्षेप	-9.98772
्यहं	-9.98793
▁प्रत्येकस्य	-9.98828
▁काम	-9.98845
▁सन्दर्भे	-9.9885
िभि	-9.98864
▁धनं	-9.98878
▁पू	-9.98885
रक्ष	-9.98919
▁X	-9.99003
▁सन्त	-9.99027
▁वारं	-9.99038
▁चिन्तय	-9.99073
ितव्यं	-9.99078
▁प्राप्नु	-9.99249
िट्	-9.99264
▁अन्व	-9.99286
▁इस्रायेल	-9.99311
पदार्था	-9.99321
महा	-9.99393
▁समित	-9.9942
▁लभ	-9.99439
▁माम्	-9.99489
▁कुतः	-9.9952
▁id	-9.99566
नः	-9.9958
कथयत्	-9.99583
करणस्य	-9.9962
स्वरूपा	-9.99626
▁तैल	-9.99637
▁आगच्छेत	-9.99711
स्प	-9.99741
तद्	-9.99846
▁आवश्यकम्	-9.99885
▁तदह	-9.99897
सञ्चिकाया	-10
▁समर्पय	-10.001
▁दत्त्वा	-10.0014
्स	-10.0018
▁चोर	-10.0019
dro	-10.0024
▁Finish	-10.0024
▁color	-10.0024
▁औत्सर्गिक	-10.0024
▁भवितुमर्हति	-10.0024
▁संत्यजन	-10.0024
बॉक्स	-10.0024
▁छोडत	-10.0024
▁उच्चारण	-10.0024
▁मांसपेशियों	-10.0025
▁बनाए	-10.0027
▁awkdemo	-10.0027
▁दीयते	-10.0029
▁दर्शयामि	-10.003
▁उद्घटते	-10.0031
▁ch	-10.0032
▁विवाह	-10.0035
▁HTML	-10.0037
शत	-10.0038
▁semicolon	-10.0042
▁इत्यस्योपयोग	-10.0042
▁जागरूकता	-10.0045
▁थे	-10.0046
जित	-10.005
U	-10.0051
▁धाव	-10.0056
▁काले	-10.0056
समीप	-10.0056
▁Number	-10.0057
▁स्थापय	-10.0064
as	-10.0066
able	-10.0066
पाल	-10.0071
िदं	-10.008
number	-10.0084
awk	-10.0084
औट्	-10.0085
भवत्	-10.0087
ाकृति	-10.0095
▁कार्	-10.0095
▁book	-10.0098
▁एवम्	-10.0103
ामहै	-10.0106
▁$	-10.0107
पश्य	-10.0109
▁भोजनस्य	-10.011
▁पुनर्	-10.0119
▁उदाहरणार्थम्	-10.0123
पुट्	-10.0124
▁लिखाम	-10.014
▁गीता	-10.0147
वन्तौ	-10.0156
▁इत्येतेषाम	-10.0164
ाधिक	-10.0164
▁घटना	-10.0165
▁उपयुज्यमान	-10.0171
▁15	-10.0173
स्तस्मिन्	-10.0175
▁स्वच्छता	-10.0176
च्	-10.0181
▁धन्या	-10.0186
co	-10.0187
▁रक्षण	-10.0189
पराध	-10.0192
▁w	-10.0194
▁इद	-10.0195
▁यिहूदीय	-10.0196
पत्र	-10.021
नुसारं	-10.021
ष्म	-10.0222
पश्चाद्वयं	-10.0222
वदन्	-10.0224
यी	-10.0224
राज्यस्य	-10.0232
▁तिष्ठत	-10.0233
ुद	-10.0245
स्यापि	-10.025
ज्ञानं	-10.0257
ह्य	-10.0258
दृक्	-10.0264
▁शत्रु	-10.0264
▁जाने	-10.0265
▁कट	-10.0278
Calculus	-10.028
oga	-10.028
▁Back	-10.028
▁KTouch	-10.028
▁राउंड	-10.028
▁व्याल्यू	-10.028
▁शक्ष्यन्ति	-10.028
▁आवल्या	-10.0281
gedit	-10.0281
Print	-10.0281
▁मेघ	-10.0281
▁दिया	-10.0282
▁save	-10.0283
▁त्यक्त्वा	-10.0283
▁शक्नुथ	-10.0283
▁वह्नि	-10.0284
▁परीक्षितुं	-10.0284
▁निष्कासयाम	-10.0286
▁प्रदृष्ट	-10.0287
वार	-10.0289
▁इदमेव	-10.0289
▁पृच्छ	-10.0289
▁स्वीकरोति	-10.029
DB	-10.029
▁प्लस्	-10.0293
▁प्रदर्शन	-10.0294
▁कथन	-10.0295
ानाञ्च	-10.0297
▁वयमिदानी	-10.0299
▁दृष्टवान्	-10.0299
▁पृथिवी	-10.0304
▁Patron	-10.0304
▁6.	-10.0305
▁Settings	-10.0305
▁कर्सर्	-10.0309
▁योजयामि	-10.0314
▁सार	-10.0316
▁अदृश्य	-10.0317
▁श्रवण	-10.0325
ांसि	-10.0328
▁email	-10.0335
▁इम	-10.0338
▁J	-10.0339
▁निर्मिता	-10.0342
मूडल्	-10.0346
▁रङ्ग	-10.0346
वयमत्र	-10.0349
▁पास	-10.0351
इत्यस्मै	-10.0352
एवमेव	-10.0352
▁स्वर्गीय	-10.0354
▁स्थापयामः	-10.036
▁नून	-10.0362
अनेन	-10.0365
न्तो	-10.0366
कारणात्	-10.0367
ाणाम	-10.037
▁नोड्	-10.0371
su	-10.0381
दर	-10.0384
यिष्यते	-10.0389
▁गौ	-10.0389
अन्य	-10.0394
▁टि	-10.0398
▁यातु	-10.0398
▁एतान्	-10.0399
▁हित	-10.0402
ान्तःकरण	-10.0408
राग	-10.041
▁पानी	-10.0416
िनः	-10.042
▁आगच्छामः	-10.0428
पाप	-10.0429
ुत	-10.043
▁केन्द्र	-10.044
▁आत्मन	-10.044
▁र्वि	-10.0443
▁पुत्रं	-10.0448
▁परीक्ष	-10.045
▁कीदृश	-10.0468
▁प्रयत्नं	-10.0472
▁अध्य	-10.0475
▁नदी	-10.0491
▁बना	-10.0498
▁संयोजयन्त	-10.0499
यस्माद्	-10.0504
लक्षण	-10.0505
ur	-10.0507
▁मृत्तिका	-10.0509
▁as	-10.0511
▁जाती	-10.0511
tion	-10.0515
▁देशे	-10.0517
िव	-10.0517
▁o	-10.053
▁परितः	-10.053
▁कप	-10.0538
▁क्रीण	-10.0544
▁Entry	-10.0544
▁ओपरेटिङ्ग्	-10.0544
▁कण्डीषन्	-10.0544
▁जानीयुः	-10.0544
▁दद्मः	-10.0544
▁संतुलन	-10.0544
▁हथेली	-10.0544
▁अन्यदेक	-10.0544
▁एरर्	-10.0544
▁object	-10.0544
▁Line	-10.0545
▁पाचन	-10.0545
▁अप्लोड्	-10.0545
▁प्रत्युवाच	-10.0545
▁सद्यः	-10.0546
▁भीष्म	-10.0546
डाइ	-10.0546
▁स्थापयित्वा	-10.0546
▁स्थापयितुं	-10.0547
▁अड्रेस्	-10.0548
▁सेट्टिङ्ग्स्	-10.055
▁गृहकार्य	-10.0552
▁विपक्ष	-10.0554
▁dollar	-10.0557
▁डीफोल्ट्	-10.0557
▁Alt	-10.0568
कारण	-10.0568
तत्र	-10.0578
▁बन्ध	-10.0578
▁विपरीत	-10.0578
▁भुज	-10.0581
▁नेम्	-10.0582
▁व्यक्ति	-10.0583
नुम	-10.0585
▁पाठान्	-10.0587
▁भवामि	-10.0589
▁इदानीम	-10.06
▁गन्तव्य	-10.0605
▁जाना	-10.0606
शाला	-10.0606
▁Home	-10.0611
user	-10.0611
▁प्रभ	-10.0616
कूर्च	-10.0617
पुण्य	-10.0617
समूह	-10.0617
ब्रेकेट्	-10.0618
ेभ्यश्च	-10.0618
माणा	-10.062
▁सिंहासन	-10.0626
▁फ़ील्ड्स्	-10.0633
▁आर्ग्युमेण्ट्	-10.0633
▁100	-10.0637
कल्पना	-10.064
▁एकमेव	-10.0641
▁धार्म्मिक	-10.0642
तर्हि	-10.0646
र्श	-10.0651
वसन	-10.0657
▁मज्ज	-10.0668
▁cat	-10.0673
चित्त	-10.0681
▁दास्य	-10.0682
▁स्वेषा	-10.0682
कर्ष	-10.0687
▁इत्याख्ये	-10.0688
▁देह	-10.0691
िक्	-10.0691
▁मो	-10.0704
▁कोण	-10.0707
▁मान	-10.0714
▁विद्यमाना	-10.0714
▁सावधान	-10.0717
ST	-10.0729
भवन	-10.0742
▁माध्यमेन	-10.0744
▁मनः	-10.0751
▁कथयितु	-10.0752
भिन्न	-10.0754
▁रू	-10.0757
घोष	-10.0764
▁केवलम्	-10.0767
▁विशेषत	-10.0769
ry	-10.077
▁आया	-10.0779
▁योजयाम	-10.0779
प्रदा	-10.0779
▁तस्मिन	-10.0782
तव्यम्	-10.0783
गच्छति	-10.0783
▁भारत	-10.0787
▁प्राप	-10.0795
घ्न	-10.0797
▁गमिष्य	-10.0799
▁मति	-10.0801
डै	-10.0805
सम्भव	-10.0806
▁ऊर्जा	-10.0807
▁भवितव्य	-10.0809
▁बैठ	-10.0811
▁teacher	-10.0814
▁सिण्टेक्स्	-10.0814
▁विकसित	-10.0814
▁उत्पत्ति	-10.0814
▁server	-10.0814
▁प्राकृतिक	-10.0814
▁भगवत	-10.0814
▁अनुवादक	-10.0814
▁12.04	-10.0814
▁पेस्ट्	-10.0815
▁शिशु	-10.0815
▁द्योतयति	-10.0815
▁लोकसंगीत	-10.0815
▁वक्तुं	-10.0816
▁मुद्रापयामः	-10.0816
▁num	-10.0817
▁स्थातु	-10.0817
▁स्युः	-10.0819
▁फिर	-10.0819
▁स्थापयतु	-10.0821
निवासिन	-10.0824
करणार्थं	-10.0825
no	-10.0826
▁तुभ्य	-10.0827
▁वक्त	-10.0828
▁लक्ष्य	-10.0828
▁Apache	-10.0839
ानुसार	-10.0839
अहमधुना	-10.084
▁ख्रीष्टो	-10.084
▁पहले	-10.0841
▁वयमिद	-10.0844
▁ओन्	-10.0846
कर्म	-10.085
▁मुद्र	-10.0854
विष्ट	-10.0858
▁सर्वत्र	-10.0859
▁तत्स्थान	-10.086
▁इदानीमहं	-10.0864
ीकर्तुं	-10.0872
▁यिहूदा	-10.0875
▁समानान्तर	-10.0876
करोति	-10.0876
▁return	-10.0877
▁ऐटम्	-10.0877
िंग	-10.0879
ाच्च	-10.088
▁रम	-10.0882
▁address	-10.0883
▁एतौ	-10.0887
▁शीघ्रं	-10.0892
▁तात	-10.0893
अतएव	-10.0895
बन्धन	-10.0903
▁नौका	-10.0903
▁छिद्र	-10.0904
▁लिस्ट्	-10.091
▁बद्ध	-10.0911
op	-10.0912
▁कार्य्य	-10.0917
चेत	-10.092
▁भवामः	-10.092
▁योजयामः	-10.0926
▁साफ	-10.0928
▁नयति	-10.0933
▁Types	-10.0934
▁पति	-10.0934
दूत	-10.0935
चरण	-10.0936
▁मध्यस्थ	-10.0945
▁प्रकल्पं	-10.0948
ष्यति	-10.0954
▁पुरा	-10.0958
▁अश्र	-10.0959
▁कोहा	-10.0973
ताप	-10.0977
▁विनियोग	-10.0979
निधि	-10.0979
र्द्द	-10.0986
▁लेट	-10.0994
▁फलिते	-10.1003
पादप	-10.1007
▁पूर्व्वपुरुष	-10.101
▁मन्दिरं	-10.1016
▁वीक्ष	-10.1023
▁तर्ह्य	-10.1027
टिका	-10.103
▁प्राप्ता	-10.1033
▁सेवक	-10.1035
The	-10.104
▁घट	-10.1041
▁ट्युटोरियल्स्	-10.1043
▁वदन	-10.1046
▁क्ल	-10.1051
▁पितामह	-10.1051
▁दृश्य	-10.1057
▁शांत	-10.1059
▁अवश्य	-10.106
▁ID	-10.1068
ेऽहं	-10.1074
▁पतित	-10.1076
▁र्भ	-10.1078
पङ्क्तौ	-10.108
वदेव	-10.1087
q	-10.1092
▁PHP	-10.1092
▁ट्याग्	-10.1092
ध्वन्यङ्कनायाहम्	-10.1092
▁दरिद्र	-10.1092
▁पाठागता	-10.1092
▁निरन्तर	-10.1092
▁prompt	-10.1093
▁कोशिका	-10.1093
▁अध्ययन	-10.1093
▁रचयतु	-10.1093
▁समझ	-10.1094
▁दक्षिणपाद	-10.1095
▁अधिका	-10.1095
▁तदुपरि	-10.1097
▁If	-10.11
old	-10.11
▁मेन्	-10.1101
▁कुरुथ	-10.1102
▁नील	-10.1104
▁पक्षिण	-10.1106
▁पृष्ठदेश	-10.1107
▁शीघ्र	-10.1116
▁धारयति	-10.1117
▁ह्य	-10.1122
▁Drive	-10.1123
▁Journal	-10.1123
क्व	-10.1125
▁जिह्वा	-10.1129
▁सूचित	-10.1134
▁लिखामि	-10.1138
▁पठामः	-10.1143
कालं	-10.1155
▁तया	-10.1156
कूल	-10.1156
▁Hello	-10.1163
▁धृत	-10.1169
विशिष्ट	-10.1172
▁तप	-10.1177
▁else	-10.118
सम्बन्ध	-10.1182
पत्त	-10.1186
पश्यन्तु	-10.119
स्थले	-10.1192
▁तद्यथा	-10.1193
▁सजीव	-10.1198
▁पर्वत	-10.12
▁ज्ञातुम्	-10.1202
तेषां	-10.1203
बीज	-10.1205
ाभिलाष	-10.1213
▁form	-10.1215
मेल्	-10.1217
▁दिनाङ्क	-10.122
▁एतादृशी	-10.1226
▁पीठ	-10.1231
▁शा	-10.1242
कथ	-10.1261
ीभूत	-10.1261
▁एकस्या	-10.1267
▁वस्तुत	-10.1268
▁भवेयु	-10.1271
स्तथा	-10.1272
▁कथितवन्त	-10.1275
▁नगरे	-10.1289
▁सू	-10.1296
▁तेभ्यो	-10.1306
▁हेतोः	-10.1306
द्वयस्य	-10.1307
▁ताव	-10.132
▁यन्त्र	-10.1327
▁बोध	-10.1332
▁अभवत	-10.1338
▁खाद्य	-10.1342
ारम्भ	-10.1343
▁सन्धि	-10.1349
▁शि	-10.1351
दानं	-10.1351
▁यथ	-10.1357
फ़्	-10.1359
क्ते	-10.136
गीत	-10.1364
▁चर्चा	-10.1366
▁तैर	-10.1368
▁सन्तः	-10.137
▁गालील	-10.1371
ाणाम्	-10.1374
▁सामन	-10.1375
JDK	-10.1377
]	-10.1377
▁Maria	-10.1377
▁gradient	-10.1377
▁value	-10.1377
▁अकौण्ट्	-10.1377
▁विस्तृत	-10.1377
▁Application	-10.1377
▁कांश्चन	-10.1377
▁मिनट	-10.1377
▁लवण	-10.1378
▁असैन्मेण्ट्	-10.1378
▁format	-10.1379
▁दक्षिणभागे	-10.1379
▁cur	-10.1379
▁लिखितमास्ते	-10.1379
▁भ्रातृगण	-10.138
▁उंगलियो	-10.1382
▁Editor	-10.1383
▁श्वासग्रहण	-10.1384
▁हेतव	-10.1385
atch	-10.1389
▁पूर्ववत्	-10.139
▁प्राप्यन्ते	-10.139
▁प्रशंसा	-10.1391
▁परित्यज्य	-10.1391
ाऐं	-10.1393
वश	-10.1393
▁मन्त्र	-10.1394
▁किञ्चिद्	-10.1398
▁आयाति	-10.14
▁अर्ध	-10.1403
▁अन्तर्	-10.1408
▁काष्ठ	-10.1408
▁स्क्रीन्	-10.1409
▁इत	-10.141
▁गच्छन्ति	-10.1414
कानां	-10.1416
▁वर्त्तमान	-10.1419
▁system	-10.1421
▁पृथ्वी	-10.1421
तव	-10.1423
▁शृङ्खल	-10.1427
▁खनिज	-10.1427
रह	-10.1433
▁Terminal	-10.1439
विद्या	-10.1444
द्वार	-10.1454
ive	-10.1458
▁यान	-10.1464
▁स्मरन्तु	-10.1465
ाप्य	-10.1469
▁मातर	-10.147
▁मुद्रापयितुं	-10.1471
▁मध्यस्थं	-10.1471
V	-10.1472
संगीत	-10.1473
मास्ते	-10.1473
एडिटर्	-10.1474
पुस्तक	-10.1475
New	-10.1475
Add	-10.1475
उदाहरणार्थं	-10.1476
▁String	-10.1482
वयम्	-10.149
▁सैनिक	-10.1494
▁पित	-10.1495
▁बुध्य	-10.1501
▁विश्रामवारे	-10.1511
चित्	-10.1517
▁कर्त्तव्यं	-10.1519
rag	-10.1519
ोऽस्माकं	-10.152
19	-10.152
▁निवेश	-10.1526
न्यु	-10.1531
मनस	-10.1533
▁यै	-10.1545
वेष्ट	-10.1547
▁मृगय	-10.1547
▁स्वस्व	-10.1551
▁सारं	-10.1553
▁"‘	-10.1556
गत्य	-10.1558
स्थानस्य	-10.1579
▁निर्गत	-10.1585
▁ज्ञापय	-10.1591
परिवार	-10.1592
▁संधारिकाया	-10.1595
▁पिदध	-10.1603
▁रूपे	-10.1604
▁प्राणिन	-10.1604
पेक्षया	-10.1608
▁मधु	-10.1625
▁कुर्वन	-10.1631
▁भाषा	-10.1634
यीशौ	-10.164
▁सन्धारिका	-10.164
लोचन	-10.1653
▁प्राप्तं	-10.1661
भोग	-10.1663
▁50	-10.1663
▁पालय	-10.1664
षण	-10.1668
▁Qui	-10.1671
▁Image	-10.1672
▁error	-10.1672
▁दूसर	-10.1672
▁परावर्त्त	-10.1672
▁उपयुन	-10.1672
▁विवृणोति	-10.1672
▁स्पृश	-10.1672
▁फिलिप	-10.1672
▁इन्स्टालेशन्	-10.1672
▁गृह्लाति	-10.1672
▁व्यवस्थापयितु	-10.1672
▁भवदभीष्ट	-10.1672
▁सेनापति	-10.1672
▁शुरू	-10.1672
▁प्लग्	-10.1673
▁युगपत	-10.1673
ोत्तर	-10.1674
▁लिंक	-10.1674
▁कैस	-10.1675
▁कर्षयित्वा	-10.1676
▁कोलम्	-10.1676
▁विघ्न	-10.1678
using	-10.1682
▁मास्तु	-10.1684
▁पृच्छति	-10.1696
▁variables	-10.1696
णीय	-10.1698
▁शोभ	-10.1699
▁menu	-10.1705
युक्तम्	-10.1707
▁लिखतु	-10.1714
▁India	-10.1723
▁student	-10.1724
▁सेना	-10.1727
▁सुत	-10.173
▁यथार्थ	-10.1731
▁इतीदमेक	-10.1734
▁इत्यस्यानन्तरं	-10.1734
▁प्रचार	-10.1736
हसू	-10.1737
पञ्च	-10.1739
▁चिन्ता	-10.1744
▁रक्षति	-10.1745
वायु	-10.1748
▁उपविशेत	-10.1751
▁ताप	-10.1754
▁1.6	-10.1754
तृण	-10.1767
▁आगच्छ	-10.1769
▁दृष्टान्त	-10.177
मनो	-10.1773
उत्सर्गतया	-10.1777
टूल्	-10.1778
प्रत्येक	-10.1778
परिणाम	-10.1778
▁मज्जन	-10.1778
▁विश्वस्य	-10.1779
मन्दिर	-10.1779
ोदर	-10.1788
ही	-10.1789
महि	-10.1791
ायाम्	-10.1792
सिद्ध	-10.1793
परीक्षाया	-10.1804
▁कर्तुम	-10.1805
परन्तु	-10.1805
▁किन्त्वीश्वर	-10.1806
ोऽभव	-10.1809
रस्ति	-10.1816
ारोह	-10.1816
▁दशा	-10.1826
▁पाक	-10.1827
▁टै	-10.1829
▁टङ्कयाम	-10.183
▁प्रतिदिन	-10.1832
करणात्	-10.1833
▁परिवर्तितम्	-10.1835
▁no	-10.1846
▁विश्वास्य	-10.1847
क्रमेण	-10.1849
ाधार	-10.1851
▁Rol	-10.1852
पादपानां	-10.1856
▁मत्त	-10.1862
▁संस्थापन	-10.1871
▁व्यवस्थां	-10.1874
बी	-10.1875
▁उपविश	-10.1875
▁कृतानि	-10.1876
▁पाण्डव	-10.1877
▁परीक्षामह	-10.1894
▁लक्षण	-10.1896
▁स्वशरीर	-10.1896
घट	-10.1913
यूयं	-10.1913
▁उपयोक्तु	-10.1923
▁दन्त	-10.1929
▁जनक	-10.1931
पाठे	-10.1931
गमिष्यति	-10.1932
▁बहुत	-10.1933
ार्य्य	-10.1935
स्मिन	-10.194
▁ध्वनि	-10.1944
ध्यापक	-10.1953
नेत्र	-10.1958
गति	-10.1962
▁बढ	-10.1972
बर	-10.1973
.04	-10.1974
▁सिंह	-10.1974
▁वाञ्छ	-10.1975
google	-10.1975
▁Start	-10.1975
▁count	-10.1975
▁प्रारभामह	-10.1975
▁त्राटक	-10.1975
▁मरियम्	-10.1975
कौशल	-10.1975
▁एलिय	-10.1975
▁निश्चय	-10.1976
▁हठयोग	-10.1976
▁run	-10.1976
▁अधिकविवरणार्थम्	-10.1977
▁व्याप्त	-10.1977
▁Run	-10.1978
▁निष्कासयन्तु	-10.1978
▁विभक्त	-10.1979
▁सत्यमत	-10.1982
▁उपलभ्यमान	-10.1983
▁दीप्ति	-10.1984
▁आगतवान्	-10.1985
देह	-10.1989
▁यद्यद	-10.1989
▁request	-10.199
स्थलं	-10.1993
▁अकरोत्	-10.1995
▁प्रवाह	-10.1996
त्थं	-10.1997
विवरणानि	-10.1998
ेच्छा	-10.2001
ांग	-10.2001
▁शुभ	-10.2002
व्यय	-10.2002
▁स्लैडर्	-10.2002
▁हैड्रोजन्	-10.2002
▁प्रणाली	-10.2004
▁प्रत्यय	-10.2006
▁काण्ड	-10.2009
▁Accounts	-10.2016
शैल	-10.2019
▁गुणा	-10.2019
लब्ध	-10.2021
▁उपयोक्तुमर्हन्त	-10.2021
▁e	-10.2021
मिमं	-10.2022
भविष्यतीति	-10.2024
▁उत्थापयेत	-10.2024
क्रमे	-10.2026
▁अग्रिमपङ्क्तौ	-10.2029
▁*	-10.2034
▁पौलः	-10.2037
ोऽयं	-10.2038
▁comma	-10.2039
▁शु	-10.205
▁नम्बर्	-10.2052
▁कृतवान	-10.2053
▁अवलोक्यताम्	-10.2054
▁पटले	-10.2056
▁प्राप्तुम्	-10.2066
▁तन्त्र	-10.2067
शाक	-10.2069
▁मनुष्याणा	-10.2069
▁वध	-10.207
करोत्	-10.207
कृष्णवर्ण	-10.2074
000	-10.2076
▁आगता	-10.2076
▁सम्पुट	-10.208
▁करे	-10.2082
▁यान्ति	-10.2089
तवान्	-10.2091
▁केश	-10.2094
विशेष	-10.2095
▁Intro	-10.2102
▁रस	-10.2104
कोड्	-10.2106
▁तदीय	-10.2113
धु	-10.2116
▁साह	-10.2118
▁युक्तं	-10.2118
▁कवि	-10.2119
▁Log	-10.2121
ाहूय	-10.2122
▁चिन्तये	-10.2122
▁परिमाणं	-10.2126
ार्ह	-10.213
▁सृष्ट	-10.2136
यर्	-10.2137
स्यास्य	-10.215
▁दत्ता	-10.2153
▁सक्रियं	-10.2156
▁has	-10.2158
कृत्	-10.2159
▁भवाम	-10.2159
▁विद्या	-10.2163
ाई	-10.2163
िभिः	-10.2166
▁U	-10.217
प्रथमं	-10.2172
सङ्ख्यां	-10.2185
ाभवत्	-10.2185
▁पङ्क्तौ	-10.2191
जो	-10.2191
1.	-10.2191
▁साधय	-10.2207
ासीत्	-10.2209
भविष्यद्वादि	-10.2218
चयनं	-10.2225
िष्यथ	-10.2226
▁मद	-10.2228
▁वास	-10.2235
▁मोचय	-10.2252
फलानि	-10.2255
वेति	-10.2258
▁रचनां	-10.2267
▁एतद	-10.227
▁त्वक्छेद	-10.2274
▁विभ	-10.2276
स्वर	-10.2279
दिष्ट	-10.2281
▁त्यक्त	-10.2287
०	-10.2287
▁टिप्पणी	-10.2287
Email	-10.2287
Mozilla	-10.2287
access	-10.2287
▁Stroke	-10.2287
▁यौगिक	-10.2287
▁हड्डी	-10.2287
▁आरभत	-10.2287
कृति	-10.2287
▁यिरूशालम्नगर	-10.2287
▁कञ्चन	-10.2288
▁स्वामी	-10.2288
▁अधोभागे	-10.2288
▁स्त्री	-10.229
▁Curves	-10.229
▁उद्देश्य	-10.2291
▁पूरयन्तु	-10.2291
▁तथ्यं	-10.2291
▁moodle	-10.2292
▁अवगमन	-10.2292
▁अनिवार्य	-10.2292
▁स्थगय	-10.2293
▁दबा	-10.2295
▁नाटक	-10.2296
▁Av	-10.2296
▁ओपरेटर्	-10.23
▁मुद्रापयति	-10.2302
▁पूरित	-10.2303
स्तिष्ठति	-10.2306
दन्त	-10.2307
भाजन	-10.231
▁ज्ञातव्य	-10.2318
सविधे	-10.2322
त्रयं	-10.2323
▁इत्यस्यार्थं	-10.2325
रन्ति	-10.2327
▁इङ्क्	-10.2328
▁कौ	-10.2331
▁इत्येते	-10.2332
▁पदार्थ	-10.2334
क्ता	-10.2337
▁यतस्ते	-10.2338
▁स्क्रिप्ट्	-10.2341
▁धूसरवर्ण	-10.2343
▁लोभ	-10.2348
▁इच्छाम	-10.2349
गी	-10.2354
ाँ	-10.2359
पवाद	-10.2367
मिमा	-10.2369
ाधिकार	-10.2374
कारि	-10.2389
▁पश्यन्त	-10.2391
▁स्तम्भ	-10.2394
eet	-10.2404
▁आह्व	-10.2407
झ	-10.2408
pdf	-10.241
कोट्स्	-10.241
श्रा	-10.2411
कारणाद्	-10.2417
िष्यध्वे	-10.2418
▁मनस	-10.2423
▁शस्य	-10.2424
▁दी	-10.2427
ृत्य	-10.2431
▁विण्डौ	-10.2432
To	-10.2432
नुग्रह	-10.2433
▁प्रदर्श्यत	-10.2439
all	-10.2445
▁सहज	-10.2446
▁हानि	-10.2446
▁भिन्ना	-10.246
▁पठितवन्त	-10.2463
▁निन्द	-10.2466
षे	-10.2469
▁अण्ड	-10.2469
▁वश	-10.2469
▁आदिम	-10.2476
भवताम्	-10.2478
▁उपा	-10.248
▁यीशुख्रीष्टस्य	-10.248
▁प्रस्तर	-10.2488
चयन	-10.2497
भ्यो	-10.2501
▁कोट्स्	-10.2501
▁सङ्ख्याः	-10.2512
▁याकूब	-10.2513
▁विद्य	-10.2529
▁निकट	-10.2535
भवन्ति	-10.2535
▁विषयक	-10.2536
▁नव	-10.2536
▁निवेशन	-10.2538
▁घटक	-10.2548
▁उसक	-10.2552
▁बहून्	-10.2553
▁पृष्टं	-10.2557
श्लोक	-10.2561
वर्तते	-10.2568
▁राजान	-10.2576
▁दया	-10.2582
▁Un	-10.2586
▁स्लैड्	-10.2588
▁रक्तं	-10.2589
ेयं	-10.2592
▁व्यभिचार	-10.2595
सृत	-10.2595
▁मनसा	-10.2597
▁कल्पय	-10.2597
▁झुक	-10.2599
व्यवस्थ	-10.2601
भावेन	-10.2605
▁उत्सर्ग	-10.2606
१	-10.261
▁पवित्रेणात्मना	-10.261
▁केषाञ्चन	-10.261
▁प्रकल्पगणः	-10.261
▁उद्घाटयितुं	-10.261
▁कठिन	-10.261
वाद्ययन्त्र	-10.261
▁कृषि	-10.261
▁स्थूल	-10.261
संसूचके	-10.261
इसलिए	-10.261
▁निरंतर	-10.261
▁लेबल्	-10.261
▁पशव	-10.261
▁सीख	-10.2611
▁Blur	-10.2612
▁सेवा	-10.2612
▁प्रियतम	-10.2612
▁कर्षयन्तु	-10.2613
राष्ट्र	-10.2613
▁आयत	-10.2613
▁संरचना	-10.2613
▁रचयति	-10.2615
▁उनक	-10.2615
▁यूयञ्च	-10.2616
▁निम्न	-10.2619
▁3.3	-10.262
▁तस्मिन्नेव	-10.2624
▁पुत्रो	-10.2625
▁लिखित्वा	-10.2631
मावश्यकम्	-10.2631
▁नायक	-10.2632
▁show	-10.2634
▁कीलके	-10.2636
्रिय	-10.2644
▁Close	-10.2646
▁इन्स्टेन्स्	-10.2646
▁install	-10.2646
▁लज्ज	-10.2647
अयं	-10.265
▁तत्पश्चात	-10.2652
▁निद्रा	-10.2653
ीत्य	-10.2655
▁तत्रैव	-10.2657
दृष्ट	-10.2658
▁टङ्कण	-10.2659
▁स्वीकृत्य	-10.2659
▁वैशिष्ट्य	-10.2663
▁यीशुख्रीष्ट	-10.267
ाक्षर	-10.2673
▁सम्मुखे	-10.2677
▁उद्यत	-10.2681
▁तिष्ठन्	-10.2688
उपयोक्	-10.2689
▁data	-10.2698
▁एप्लिकेशन्	-10.2699
▁प्रकाशते	-10.2703
स्ट्	-10.2704
▁दीप	-10.2706
द्वा	-10.2707
▁याकूब्	-10.2707
लेखन	-10.2712
▁शोक	-10.2713
भागः	-10.2714
▁स्वरूप	-10.2721
▁मुद्रक	-10.2722
स्कन्ध	-10.2729
ग्रस्त	-10.273
▁j	-10.2738
▁प्रयत	-10.274
▁चित्रम्	-10.274
W	-10.274
▁पितृ	-10.2742
ध्वनि	-10.2745
▁Demo	-10.2746
आदौ	-10.2746
अर्थात्	-10.2747
पुनः	-10.2748
उपरि	-10.2751
हन्त	-10.2751
मनुज	-10.2754
▁समाज	-10.2757
▁set	-10.2758
▁प्राप्तव्य	-10.2763
▁राज्ञ	-10.2763
▁विवरणम्	-10.2765
▁शिरस	-10.2785
▁आत्मना	-10.279
▁जनन	-10.2793
▁नियन्त्र	-10.2796
▁प्रशिक्षण	-10.2805
▁हस्ते	-10.2809
▁योगी	-10.2811
यते	-10.2815
त्सु	-10.2836
▁संरक्ष	-10.2844
▁विश्वासिन	-10.2858
▁पलाय	-10.2868
▁आगामि	-10.2872
स्तीति	-10.2874
पत्य	-10.2876
▁ताड	-10.2879
बाएं	-10.2892
▁कम्पैल	-10.2903
▁कृष्णं	-10.2917
त्याग	-10.2924
▁क्रुश	-10.2928
▁जीवने	-10.293
पेटिका	-10.2934
▁कर्षण	-10.2938
▁मुद्राप	-10.2941
▁अणु	-10.2941
▁Fill	-10.2943
▁categories	-10.2943
▁import	-10.2943
▁क्रियेट्	-10.2943
▁डीफ़ोल्ट्	-10.2943
▁दुर्ब्बल	-10.2943
▁दैर्घ्य	-10.2943
ॆ	-10.2943
▁विडियो	-10.2943
▁code	-10.2943
▁कंधे	-10.2943
▁परियोजनाया	-10.2943
▁जायन्ते	-10.2943
▁वज्रासन	-10.2943
▁साक्षाद्	-10.2943
▁युष्मत्समीप	-10.2943
▁पोप्	-10.2943
▁प्रस्थाय	-10.2943
▁शयतान	-10.2944
▁षट्	-10.2944
▁रावण	-10.2944
▁रचयितुम्	-10.2944
▁get	-10.2944
▁मृदु	-10.2945
▁कल	-10.2945
▁variable	-10.2946
वर्शन्	-10.2947
▁कथयामासुः	-10.2948
▁प्रोम्प्ट्	-10.2948
▁लेखितुं	-10.2948
▁प्रत्यावर्तयेत	-10.2952
▁अपेक्षते	-10.2955
नगरे	-10.2963
▁यिहूदीयलोक	-10.2963
▁दूतो	-10.2964
▁अवधान	-10.2967
▁Source	-10.2967
down	-10.2967
लेट्	-10.2969
▁जीवनस्य	-10.297
ीभूय	-10.2971
▁नारी	-10.2973
▁Bank	-10.2974
न्व	-10.2977
पश्यत	-10.298
▁getDetails	-10.2981
▁मानसिक	-10.2981
▁function	-10.2981
सिद्धान्त	-10.2982
▁प्रभुना	-10.2983
▁Users	-10.2983
पश्चाद्	-10.2986
▁मृत्तिकाया	-10.2987
▁JSP	-10.2987
▁शांति	-10.2987
▁शोणित	-10.2988
▁बन्धन	-10.299
दिने	-10.2991
▁पश्यामि	-10.2991
▁मिलति	-10.2998
▁web	-10.3001
▁package	-10.3001
▁जननी	-10.3002
▁लम्ब	-10.3008
▁methods	-10.3009
ave	-10.3014
संधारिका	-10.3023
▁ऋत	-10.3026
▁जय	-10.3027
▁आवलिं	-10.3027
▁अपेक्ष	-10.3028
▁version	-10.3029
▁उभय	-10.303
▁भारतस्य	-10.3038
>	-10.3039
▁ii	-10.3047
आम्	-10.3049
भविष्यत्	-10.3051
▁गतः	-10.3053
▁प्रक्रियाया	-10.3053
▁un	-10.3057
यिता	-10.3061
▁21	-10.3065
▁प्रान्तर	-10.3066
▁संस्थापित	-10.3069
नीति	-10.3071
▁सम्पाद	-10.3076
ple	-10.3085
लिखित	-10.3088
सन्देश	-10.3089
माध्यमेन	-10.309
विन्यास	-10.309
परिमाण	-10.309
टेक्स्ट्	-10.3092
दशा	-10.3092
▁संक्षेप	-10.3094
तत्व	-10.3097
अथवा	-10.3097
पालक	-10.3098
सहाय	-10.3103
My	-10.3103
dot	-10.3104
टु	-10.3106
स्त्वा	-10.3107
▁परिधा	-10.3108
स्तद	-10.3113
▁छोड़	-10.3114
▁ब्रे	-10.3115
▁अनन्तरम्	-10.3118
▁कुर्व्व	-10.312
णेन	-10.312
▁अन्तर	-10.3121
▁एत्य	-10.3129
शिर	-10.3133
▁प्राप्तानि	-10.3145
▁अपना	-10.3156
................	-10.3158
ीतवान्	-10.317
▁ईश्वरे	-10.3172
▁उपकरण	-10.3174
नन्तरं	-10.3178
जाना	-10.318
▁जाताः	-10.3181
सीमा	-10.3183
▁र्नि	-10.3184
ize	-10.3187
▁तत्त्व	-10.3198
पच	-10.3204
▁डी	-10.3206
मवदत्	-10.3206
ासन्	-10.3206
▁निष्कासय	-10.3211
प्राप्ति	-10.3211
▁करिष्याम	-10.3211
▁वाद	-10.3213
▁मेल	-10.3214
▁दातुम	-10.3215
▁धेनव	-10.3217
▁ऋ	-10.3219
मुद्	-10.322
11	-10.322
▁सङ्गिन	-10.3242
▁संवादपेटिकाया	-10.3245
पृच्छन्	-10.3248
▁प्रयुक्त	-10.3248
वोच	-10.325
विभाग	-10.3262
▁Show	-10.3266
▁आपरेटर्	-10.3266
ान्वित	-10.3268
ुत्तम	-10.3281
▁श्रोतु	-10.3285
ुवाच	-10.3286
Data	-10.3287
aussian	-10.3288
मुद्दिश्य	-10.3288
▁Group	-10.3288
▁Operat	-10.3288
▁Title	-10.3288
▁path	-10.3288
▁statement	-10.3288
▁आँख	-10.3288
▁एण्टर्	-10.3288
▁खिलाड	-10.3288
▁back	-10.3288
▁आरभे	-10.3288
▁गर्दन	-10.3288
▁दंडासन	-10.3288
mod	-10.3288
▁shell	-10.3288
▁आच्छाद	-10.3288
▁मेषशावक	-10.3288
भ्यन्तर	-10.3288
▁आरोह	-10.3288
▁आहूय	-10.3288
▁अधोलिखित	-10.3289
▁हानिकारक	-10.3289
▁आहूत	-10.3289
बायीं	-10.329
▁केंद्र	-10.3292
▁कियते	-10.3293
▁प्रसार्य	-10.3293
▁पठित्वा	-10.3294
▁शपथ	-10.3295
▁तन्नहि	-10.3295
▁वदथ	-10.3296
▁सर्वाधिक	-10.3297
सिनाप्टिक्	-10.3299
Re	-10.3302
करणेन	-10.3302
▁करिष्यन्ति	-10.3304
▁Change	-10.3306
पत्रं	-10.3307
विषयक	-10.331
▁खण्ड	-10.3311
▁तथ	-10.3312
▁करणीया	-10.3313
वृत्तान्त	-10.3314
ER	-10.3315
ater	-10.3315
▁चित्रकण	-10.3316
▁K	-10.3316
▁उपयोक्तार	-10.3318
▁अस्मत्	-10.3318
ञ्चेत्	-10.3319
▁मरण	-10.3322
▁चित्राणि	-10.3323
▁उपयुज्यताम्	-10.3326
▁उपविश्य	-10.3327
▁मनुजसुत	-10.3327
▁हेरोद्	-10.3328
▁वासुदेवः	-10.3329
▁मेनेजर्	-10.333
▁अस्मान	-10.3331
▁करिष्यामि	-10.3333
ङ्गल	-10.3334
▁निर्वहण	-10.3334
▁अद	-10.3339
▁भार्य्या	-10.3341
▁grade	-10.3341
▁नाग	-10.3352
ाचार्य	-10.3358
ant	-10.3359
▁तल	-10.3365
▁पूर्वे	-10.3366
▁पादयो	-10.3369
▁करणीयं	-10.3369
▁यस्मै	-10.3371
▁बहिर	-10.3375
▁रात्रि	-10.3381
कर्तुम्	-10.3383
भूता	-10.3386
▁आकृत	-10.3388
मागत्य	-10.3394
▁पाठस्यान्तमागतव	-10.3399
▁तोय	-10.3404
▁निर्मितं	-10.3411
▁निमित्तम्	-10.3412
▁टङ्कन	-10.3413
▁सावधाना	-10.3413
भिर	-10.3414
ात्मानं	-10.3414
मभवत्	-10.3417
▁सर्व्वदा	-10.3427
▁बहूना	-10.3429
▁print	-10.3429
▁वर्णान्	-10.3437
तिष्ठन्	-10.3443
नोदन	-10.3447
सङ्क्षेपेण	-10.3447
फैल्	-10.3448
▁संयुक्त	-10.3452
▁ताल	-10.3454
प्रभु	-10.3457
▁नयन	-10.3458
▁दृश्येत	-10.3463
▁मृता	-10.3466
ितवन्त	-10.3471
▁कतिपय	-10.3472
▁>	-10.3475
▁लेखनीय	-10.348
sh	-10.3484
▁cd	-10.3485
भुज	-10.3493
▁हमे	-10.3495
▁इच्छा	-10.3499
▁पाल	-10.3505
मेत्य	-10.351
▁बह्व	-10.3519
टिङ्ग्	-10.3524
स्त्वं	-10.3533
▁अनुसर	-10.3534
▁राज्यं	-10.3536
▁चित्रण	-10.354
▁पीत	-10.355
▁सकल	-10.3555
कला	-10.3577
बोर्ड्	-10.3579
▁इष्ट	-10.3603
शन	-10.3603
▁हेरोद	-10.3605
▁समम्	-10.3609
ात्मना	-10.3612
▁पितरः	-10.3615
▁पटल	-10.3619
ोपयोग	-10.3623
तिष्ठत्	-10.3627
सर्व्व	-10.3627
ङ्गानि	-10.3629
िणो	-10.3631
ॉ	-10.3631
▁कोणे	-10.3632
▁मृषा	-10.3635
यथ	-10.3639
▁स्थापन	-10.3642
\	-10.3645
39.50	-10.3645
Superlibrarian	-10.3645
▁Administration	-10.3645
▁Browse	-10.3645
▁कश्चिन्	-10.3645
▁कूर्पर	-10.3645
▁तात्पर्य	-10.3645
▁image	-10.3645
▁नेविगे	-10.3645
ोत्सव	-10.3645
▁stream	-10.3645
▁सिङ्क्	-10.3645
▁करोषि	-10.3645
▁शैतान	-10.3645
▁रामायण	-10.3645
▁कथामेता	-10.3645
▁उपस्थाय	-10.3645
▁मस्तक	-10.3645
▁दाहिन	-10.3646
▁index	-10.3646
पट्टिका	-10.3646
▁Supplier	-10.3646
▁शौल	-10.3646
▁लङ्का	-10.3647
▁printf	-10.3647
▁अधस्तात्	-10.3649
▁बैठें	-10.3649
▁जानुनी	-10.365
▁जाऐं	-10.365
▁इदमस्माकं	-10.365
02	-10.365
▁भ्रामरी	-10.365
▁साहाय्यमाचरति	-10.3654
▁मन्दिरे	-10.3654
▁रचितवानस्मि	-10.3654
▁प्रोसेस्	-10.3656
▁ग्रस	-10.3657
▁याति	-10.3657
▁जप	-10.3657
▁भविष्यथ	-10.3658
▁पाप्	-10.3659
▁Preferences	-10.3661
▁यात्रा	-10.3663
▁आहार	-10.3666
▁अचल	-10.3667
▁प्रकृतौ	-10.3668
▁स्प	-10.3669
▁भविष्यद्वादी	-10.3671
▁Be	-10.3673
▁विस्तर	-10.3675
▁सभा	-10.3676
▁यया	-10.368
▁तदैव	-10.368
▁परिवर्त्यते	-10.3685
▁document	-10.3685
▁अब	-10.3687
▁लिनक्स्	-10.3688
▁आदेशेन	-10.3688
▁ख्रीष्टे	-10.3688
▁स्पोकन	-10.3689
▁तेषा	-10.369
▁उभयो	-10.3693
▁फङ्क्षन्स्	-10.3694
▁अज	-10.3699
▁नित्य	-10.37
▁विज्ञाय	-10.3701
भजन	-10.3702
▁दासा	-10.3704
▁गवाक्षे	-10.3715
▁आचार्य	-10.3717
र्जा	-10.3718
विद्यत	-10.3722
▁Web	-10.3722
▁बीजानि	-10.3724
▁brackets	-10.3726
▁युतं	-10.3726
▁किन्त्वीश्वरस्य	-10.3733
▁उद्घाटयामः	-10.3734
▁वस्तूनि	-10.3737
▁प्राप्ति	-10.3739
▁वरं	-10.3746
▁र्यीशुख्रीष्ट	-10.3747
▁भवितव्यं	-10.3749
इव	-10.3754
रक्षक	-10.3756
▁कारक	-10.3758
▁प्रदूषण	-10.3759
बंध	-10.3761
▁लिखति	-10.3771
▁ततस्तस्य	-10.3772
▁ऽस्माक	-10.3778
मिल	-10.378
श्वर	-10.3783
▁वेग	-10.3788
▁भवेयुः	-10.3789
ाख्य	-10.3789
सहितं	-10.3794
ीकरोति	-10.3795
पवित्र	-10.3797
मस्तीति	-10.3801
▁चत्वार	-10.3805
▁बजेट्	-10.3811
▁St	-10.3814
मानव	-10.3816
▁संयोजनम्	-10.3817
User	-10.3817
NMEICT	-10.3818
home	-10.3818
नूतन	-10.3818
▁सञ्चये	-10.3819
सन्तान	-10.382
▁समिति	-10.3822
▁रिक्तस्थान	-10.3823
ीकरणं	-10.3824
▁एतयो	-10.3824
पूरण	-10.3834
▁एड	-10.3837
भुक्त	-10.3847
▁बाह्य	-10.3856
▁स्थापयाम	-10.3865
बालक	-10.3869
विषयान्	-10.3874
स्थानां	-10.3876
निष्ठा	-10.3879
यद्यत्	-10.3881
चित्रं	-10.3885
▁सत्यम्	-10.389
▁तादृशा	-10.389
ine	-10.39
▁प्रव	-10.3905
▁पाठमिद	-10.3905
iv	-10.3907
▁तेऽ	-10.391
▁उर्वरक	-10.3912
वस्तूना	-10.3912
ावश्यकं	-10.3916
▁तस्यै	-10.3919
▁संयोज	-10.392
▁निवार	-10.3926
▁न्यूनता	-10.3936
िष्यामः	-10.3945
ोर्ट्	-10.3949
▁यिहूद	-10.3954
वत्यः	-10.3959
▁परीक्षित	-10.3972
▁point	-10.3979
ादौ	-10.3979
दीनां	-10.3982
▁एकस्मिन	-10.3989
▁Ch	-10.3991
▁किञ्चित	-10.3996
लाभ	-10.3996
▁दुर्	-10.3998
min	-10.4006
▁age	-10.401
▁कीट	-10.4013
ाप्	-10.4013
SQL	-10.4015
▁डीफाल्ट्	-10.4015
▁दृग्गोचर	-10.4015
▁न्यूनातिन्यून	-10.4015
▁पेरन्थिसिस्	-10.4015
▁फोर्मेट्	-10.4015
▁भोक्तु	-10.4015
▁वीडियो	-10.4015
Return	-10.4015
score	-10.4015
▁Step	-10.4015
▁structure	-10.4015
▁भजनभवन	-10.4015
Basic	-10.4015
▁उल्लेख	-10.4015
▁MarcEdit	-10.4015
मूर्ति	-10.4015
▁निचले	-10.4015
कोर्सस्	-10.4015
▁Auto	-10.4015
▁login	-10.4015
▁महिला	-10.4016
▁Microbiology	-10.4016
▁लौह	-10.4016
▁Grade	-10.4016
द्रव्याण	-10.4016
▁अंतिम	-10.4016
▁Budget	-10.4016
▁सूर्यनमस्कार	-10.4016
▁आज्ञापय	-10.4016
▁निरूपित	-10.4017
▁end	-10.4017
▁शक्नुयात	-10.4018
▁महर्षि	-10.4018
▁दक्षिणहस्त	-10.4019
▁निष्कासितुं	-10.4019
▁char	-10.4019
▁निर्दिश	-10.4019
▁वामपाद	-10.402
▁ऽभवत्	-10.402
मिषन्	-10.402
zi	-10.4021
▁पठितुं	-10.4021
▁कथामिमा	-10.4021
▁प्रेषितवान्	-10.4024
▁संयोग	-10.4025
▁दत्तवन्तः	-10.4028
लॉ	-10.4029
▁व्याहर	-10.4031
▁कार्बन	-10.4031
▁निर्माति	-10.4032
▁Field	-10.4035
▁List	-10.4037
ादाय	-10.4038
▁करोती	-10.4039
पर्यन्तम	-10.4039
▁गोशालाया	-10.404
पेलेट्	-10.4041
▁प्रोच्चै	-10.4042
▁पृष्टे	-10.4042
▁मधुर	-10.4045
▁निवस	-10.4045
▁दास्यति	-10.4046
▁स्थानान्तर	-10.4046
▁गए	-10.4047
▁लोग्	-10.405
ाली	-10.4051
▁"*	-10.4054
▁साक्षिण	-10.4058
▁उपयुज्यन्ते	-10.4059
▁केचित्	-10.406
क्रियत	-10.4062
▁गते	-10.4063
▁साम्प्रत	-10.4065
▁पङ्क्त्या	-10.4065
▁प्रोक्त	-10.4072
▁list	-10.4073
▁बोण्ड्	-10.4074
मित्य	-10.4075
▁विद्यार्थिन	-10.4075
मोड्	-10.4078
▁ma	-10.4079
▁default	-10.408
गमनकाले	-10.409
▁तारा	-10.409
▁निर्म	-10.4092
पालन	-10.4097
▁स्वर्गस्थ	-10.4098
▁क्लोस्	-10.4098
▁स्क	-10.4099
▁भविष्यद्वादिन	-10.4109
पर्य्यन्तं	-10.4109
ोऽन्य	-10.4109
▁link	-10.4111
▁con	-10.4113
▁स्तरस्य	-10.4117
मैन्	-10.4124
▁Insert	-10.4126
▁रोच	-10.4131
▁note	-10.4132
▁सहैव	-10.4136
▁अनन्त	-10.4136
▁जीवित	-10.4139
▁सर्व्वत्र	-10.4141
तत्त्व	-10.4142
▁लैब्ररि	-10.4149
▁युत	-10.4157
पीठ	-10.4159
माल	-10.4163
▁उपयोगी	-10.4165
▁सर्वेभ्य	-10.4165
▁मोह	-10.417
▁युग	-10.4177
▁सम्म	-10.4178
▁मनुष्या	-10.4179
्यमाण	-10.4179
ष्व	-10.418
ज्म	-10.4182
तीव	-10.4187
शास्त्रीय	-10.4188
▁पश्चाद	-10.4192
ञ्जन	-10.4197
▁प्रभुर	-10.4199
jsp	-10.42
गवाक्ष	-10.42
अनन्तरम्	-10.4201
X	-10.4202
मनुष्य	-10.4203
तृतीय	-10.4203
ओब्जेक्ट्	-10.4203
मौल्य	-10.4203
पूर्व्व	-10.4207
युद्ध	-10.4219
po	-10.4222
▁iv	-10.4224
▁कोड्स्	-10.4225
प्रस्तर	-10.4228
प्रयोग	-10.4236
GL	-10.4238
शरीरस्य	-10.4239
▁भिन्नदेशीय	-10.4243
▁मूल्यम्	-10.4246
करणाय	-10.4249
ापेक्षया	-10.4249
मन्त्र	-10.4256
ेतत्	-10.4259
सप्त	-10.4261
▁read	-10.4264
▁सर्व्वै	-10.4267
▁प्रदान	-10.4268
▁कह	-10.4278
▁ट्र	-10.4283
ound	-10.4287
करणीय	-10.4288
यिष्यामि	-10.4288
▁पठत	-10.4289
▁आवृत्ति	-10.429
▁शर	-10.43
सूत्र	-10.431
▁प्रविश	-10.4317
▁ताडासन	-10.4319
▁सिद्धि	-10.4321
▁सत्कर्म्म	-10.4323
▁युष्मन्मध्ये	-10.4329
वासिन	-10.4333
▁तदनु	-10.4336
▁उष्ण	-10.4337
▁कमर	-10.4341
▁मार्गे	-10.4344
▁दत्तांश	-10.4344
ke	-10.4346
▁Content	-10.4348
भवान्	-10.4349
▁एतेषाम	-10.4357
प्रक्रियाया	-10.4366
िए	-10.4368
▁तदर्थम	-10.437
ाधिप	-10.439
ाध्याय	-10.4399
▁Opac	-10.44
view	-10.44
▁ध्वन्यङ्कन	-10.44
meetthegimp	-10.44
▁Bookmarks	-10.44
▁Color	-10.44
▁Hydrogen	-10.44
▁shift	-10.44
▁void	-10.44
▁अस्थीनि	-10.44
▁ग्रीवा	-10.44
▁फ़ोर्मेट्	-10.44
▁माड्यूल्	-10.44
▁मिथ्या	-10.44
▁वृक्क	-10.44
▁हरिद्वर्ण	-10.44
▁Brush	-10.44
▁float	-10.44
▁अनुसृत्य	-10.44
▁उद्दिश्य	-10.44
▁उपचार	-10.44
▁Password	-10.44
▁उद्योग	-10.44
▁द्रष्टुम्	-10.44
▁दूष्य	-10.44
▁तकनीक	-10.44
▁तीव्र	-10.44
pass	-10.44
ोढुं	-10.44
▁Level	-10.44
▁रिसोर्स्	-10.44
भट्टः	-10.44
▁तनाव	-10.44
▁निधाय	-10.44
▁आऐं	-10.4401
दृग	-10.4401
▁option	-10.4401
▁इत्युक्त्वा	-10.4402
▁जानीत	-10.4402
▁लाऐं	-10.4402
▁ऋषि	-10.4403
▁पेश्य	-10.4403
▁Date	-10.4403
▁लाग्	-10.4404
▁मनुष्यपुत्र	-10.4404
ाश्चर्य्य	-10.4404
▁iii	-10.4405
▁कुत्रापि	-10.4406
▁अपठ	-10.4406
▁समाप्यते	-10.4407
▁उपाध्याया	-10.4407
▁वैद्य	-10.4407
▁वर्धयति	-10.4408
▁श्वेतवर्ण	-10.4409
▁मेधा	-10.441
▁पादपा	-10.441
rofile	-10.4412
▁कारा	-10.4413
▁स्वहस्तौ	-10.4413
▁बढात	-10.4417
▁तुलना	-10.4418
ज्ञानार्थं	-10.4419
▁car	-10.4422
क्ल	-10.4423
▁नियुक्त	-10.4424
▁ददौ	-10.4426
ादिषु	-10.4426
▁एतै	-10.4427
▁खड	-10.4428
▁युष्मान	-10.4428
न्धकार	-10.4429
▁तदन्य	-10.4432
▁संवाद	-10.4433
▁करणे	-10.4438
▁लिखितवान्	-10.4441
▁परिचारक	-10.4444
▁जनयति	-10.4444
▁उत्सव	-10.4445
स्याधः	-10.4449
▁इदमेक	-10.445
▁शीत	-10.4454
▁दूरे	-10.4456
▁सम्प्रति	-10.4461
ावस्थाया	-10.4461
युग	-10.4465
▁AW	-10.4471
▁testdir	-10.4476
मुद्राया	-10.4477
▁विशाल	-10.448
▁इतर	-10.449
▁सूच्यांश	-10.4492
▁र्द	-10.4497
▁दृष्टवन्तः	-10.4498
ेष्व	-10.4498
चल	-10.4498
▁उत्तिष्ठ	-10.4498
वादन	-10.4498
वासर	-10.4502
ept	-10.4503
▁gr	-10.4508
▁वार्ता	-10.4515
▁सर्पण	-10.4517
▁उच्चैः	-10.4518
▁वीर	-10.4519
ng	-10.4521
▁क्रीडक	-10.4525
संख्या	-10.453
पोल	-10.4536
नुसारेण	-10.4536
▁बी	-10.4544
▁शत	-10.4551
▁right	-10.4554
▁गात्र	-10.4577
▁इसक	-10.4582
ame	-10.4586
▁मिलित	-10.4587
▁टण्क	-10.4589
▁कोट्	-10.4595
जगत	-10.4598
कन्स्ट्रक्टर्	-10.4603
कृपया	-10.4604
पेनल्	-10.4604
slash	-10.4604
इतीमानि	-10.4604
सोपान	-10.4604
सीक्वेन्स्	-10.4604
File	-10.4604
▁To	-10.4614
स्माद्	-10.4616
प्रकारेण	-10.462
▁अवगत	-10.4623
▁चिनोत	-10.4624
▁प्रकट	-10.4625
बध	-10.4634
वन्	-10.4634
▁चकार	-10.4635
भेद	-10.4637
पन्न	-10.4638
भविष्य	-10.4639
प्राप्तये	-10.4641
▁कुर्व्वन्त	-10.4641
▁लेखक	-10.4642
पोर्ट्	-10.4646
▁प्रकृत	-10.4646
▁अस्माभिर	-10.4646
ne	-10.4648
▁मज्जिता	-10.4651
▁साधनम्	-10.4657
▁महिमा	-10.466
अन्ते	-10.466
▁कारणाद्	-10.4668
▁संस्थाप्य	-10.4669
▁आगच्छत	-10.4682
▁इच्छ	-10.4689
ष्टुं	-10.469
प्रदेशस्य	-10.4698
▁जोड	-10.47
▁उपयोक्तव्य	-10.4717
ical	-10.4719
रूपाणि	-10.4724
त्वे	-10.4736
ड़ी	-10.4745
तथापि	-10.4753
ुभ	-10.4755
ैतत्	-10.4755
दानीं	-10.4757
▁ओपन	-10.4763
भिश्च	-10.4769
▁कस्मिन	-10.477
▁कियन्तो	-10.4771
▁record	-10.4772
▁उच्चै	-10.4775
▁उपलभ्य	-10.4776
ारभ्य	-10.4791
मज्ज	-10.4792
lock	-10.4794
औ	-10.4796
वर्ड्	-10.4797
oft	-10.48
Default	-10.48
Exception	-10.48
▁Excel	-10.48
▁Explorer	-10.48
▁MikTeX	-10.48
▁Server	-10.48
▁capital	-10.48
▁ctrl	-10.48
▁उत्कृष्ट	-10.48
▁फ़ोरम्	-10.48
▁भगिनी	-10.48
सैज़्	-10.48
▁Assignment	-10.48
▁कृषीवल	-10.48
▁डीग्री	-10.48
CPU	-10.48
echo	-10.48
▁अङ्गुष्ठ	-10.48
▁मूषक	-10.48
xml	-10.48
▁स्मृति	-10.48
▁मनोनीत	-10.48
▁दायीं	-10.48
▁जगाम	-10.48
▁कपटिन	-10.48
गृह्लन्	-10.48
▁कौरव	-10.48
▁Downloads	-10.48
▁उत्सर्जन	-10.48
ोत्पाद	-10.48
▁सङ्कलयामः	-10.4801
▁Checkout	-10.4801
▁अप्डेट्	-10.4801
भित्ति	-10.4801
▁प्रयतामहे	-10.4801
▁घृत	-10.4801
▁Purchase	-10.4802
▁आक्सीजन	-10.4802
▁मदर्थ	-10.4802
▁पप्रच्छुः	-10.4803
▁प्रत्यवदत्	-10.4804
▁मङ्गल	-10.4806
ेऽहन	-10.4808
▁gre	-10.4808
▁स्थाप्यते	-10.4809
▁केचिद्	-10.4809
▁सुप्त	-10.481
▁परेश	-10.481
▁तीन	-10.4811
▁पोस्ट्	-10.4813
▁स्नायु	-10.4813
▁उपदिश	-10.4815
▁अवरोह	-10.4816
▁फिरूशिनश्च	-10.482
▁प्रयोगो	-10.4821
▁प्रहित	-10.4821
▁दृढीकुर्वन्त	-10.4822
▁सुवर्ण	-10.4822
लोकेभ्य	-10.4824
▁logo	-10.4827
▁condition	-10.4829
ker	-10.4835
रचन	-10.4838
▁change	-10.4845
▁library	-10.4845
▁विनिमय	-10.4845
▁किए	-10.4848
▁वदतु	-10.4848
▁महत्त्व	-10.4849
▁आयतं	-10.485
▁मेलन	-10.4853
▁CTRL	-10.4854
▁Con	-10.4863
▁विल	-10.4866
▁कंस	-10.4867
▁Layer	-10.4868
▁भर	-10.4869
▁छात्रेभ्य	-10.4869
▁धन्यवादाः	-10.4869
कर्त	-10.4872
▁Books	-10.4872
▁आड्	-10.4876
▁पतति	-10.4885
▁बलि	-10.4898
▁शिष्याः	-10.49
▁वसति	-10.49
▁बालकाः	-10.4901
▁हेण्डल्	-10.4902
▁संस्थाप	-10.4903
▁प्रीय	-10.4906
▁पूरयितुं	-10.4907
▁गर्भ	-10.4907
▁सुर	-10.4909
▁उबण्टु	-10.4912
▁महत्	-10.492
शर्	-10.4931
▁नियन्त्रित	-10.4934
▁सूचय	-10.4935
▁दुर्ग	-10.4936
▁उदाहरणानि	-10.4945
▁सहित	-10.4947
▁गिर	-10.4948
ान्तरे	-10.4952
▁मत	-10.4956
▁sh	-10.4962
▁तस्यैव	-10.4962
ार्थम	-10.4981
In	-10.4981
मुत्था	-10.4981
▁one	-10.4985
अपरम्	-10.5001
▁गौरव	-10.5002
पुष्प	-10.5017
▁द्व	-10.5018
java	-10.5019
निर्देश	-10.502
कमाण्ड्	-10.502
पूप	-10.502
यूसर्	-10.5022
स्ट्रिङ्ग्	-10.5023
AL	-10.5027
▁पोर्ट	-10.5027
कट्	-10.5033
▁अन्ध	-10.5033
▁इय	-10.5039
Ex	-10.5044
▁---	-10.5044
▁परमेश्वरः	-10.5048
▁केस्	-10.5051
पेक्षित	-10.5058
▁कर्तन	-10.5085
ru	-10.5085
ell	-10.509
तायै	-10.5095
स्कन्धस्य	-10.5099
▁वर्धन	-10.5101
▁बै	-10.5102
▁चालय	-10.5111
तेषाम्	-10.5116
▁नरक	-10.5116
▁ऐस	-10.513
शेष	-10.5134
पश्यतां	-10.514
मेतत्	-10.5143
लभ्य	-10.5144
▁नाक	-10.5144
▁प्रदीप	-10.5152
ितुञ्च	-10.5157
अन्यच्च	-10.5158
ash	-10.5161
हर्ष	-10.5166
तस्त	-10.5172
▁विशेषता	-10.5173
▁भोजने	-10.5174
▁ट्युटोरियल	-10.5176
▁यीश	-10.518
▁प्रारम्भिक	-10.5182
ाचरण	-10.5186
▁लक्ष्म	-10.5188
ेश्वरेण	-10.5189
▁पर्यावरण	-10.5191
▁पार्श्व	-10.5192
▁गच्छन्	-10.5196
राश	-10.5198
चारिण	-10.5198
मन्यत	-10.5202
मुद	-10.5204
▁स्थास्य	-10.5207
निमित्त	-10.5211
▁mode	-10.5213
▁त्वक	-10.5214
▁धन्य	-10.5215
▁समुचित	-10.5217
▁बर्णब्बा	-10.5217
Import	-10.5217
Record	-10.5217
▁under	-10.5217
▁अन्वेष्टुं	-10.5217
▁एक्स्टेन्षन्	-10.5217
▁डिफ़ैन्	-10.5217
▁मेसेज्	-10.5217
▁यशस्वि	-10.5217
ोदाहरण	-10.5217
▁Tax	-10.5217
▁दशमांश	-10.5217
▁पर्याप्त	-10.5217
▁फार्म्याट्	-10.5217
▁Main	-10.5217
▁distribut	-10.5217
▁गोलाकार	-10.5217
ातिथ्य	-10.5217
▁पुतलिय	-10.5217
▁कस्यचिद्	-10.5217
▁भुक्त्वा	-10.5217
▁आश्रय	-10.5217
roxy	-10.5217
▁आवरण	-10.5217
पोइण्ट्	-10.5217
मल्टि	-10.5217
▁सङ्ग्रह	-10.5217
▁युगपन्न	-10.5217
▁काश्चन	-10.5217
▁जगदुः	-10.5218
▁null	-10.5218
▁Dash	-10.5218
▁नित्यं	-10.5219
▁भूतग्रस्त	-10.5219
एड्मिनिस्ट्रेटर्	-10.522
▁कुरुध्वं	-10.522
▁कवक	-10.5222
▁इत्यादेश	-10.5222
▁अन्तरं	-10.5223
पोषकतत्त्व	-10.5223
▁हठ	-10.5223
▁स्रष्ट	-10.5224
▁उन्मीलयेत	-10.5224
▁धीम	-10.5224
▁आदाव	-10.5225
ोऽस्मि	-10.5226
▁डाल	-10.5226
▁भूमे	-10.5227
हरण	-10.5227
cale	-10.5228
▁वयमेक	-10.5228
▁पुटं	-10.5229
▁अहमेव	-10.523
▁ईदृश	-10.5231
▁प्रेष्य	-10.5234
▁विराम	-10.5234
बेक्	-10.5234
फलित	-10.5236
▁प्रबोध	-10.5237
▁स्थास्यति	-10.5238
▁कबन्ध	-10.5238
▁मन्द	-10.5241
ास्मान्	-10.5241
▁आपरेटर्स्	-10.5243
तथैव	-10.5243
प्राप	-10.5246
▁मिश्रण	-10.5249
▁उद्घाटयामि	-10.525
एष	-10.5252
▁देन्	-10.5254
▁एण्ट्रि	-10.5255
▁अवकर	-10.5258
सीधा	-10.5259
▁हंस	-10.5259
▁फोर	-10.526
▁कार्बन्	-10.5263
▁डाय	-10.5267
ाख्यान	-10.5269
▁आइ	-10.5269
▁नियन्त्रण	-10.5269
▁अंगूठे	-10.5272
टङ्क	-10.5272
▁डैमेन्शनल्	-10.5273
▁विषयम्	-10.5276
▁नुद	-10.5277
▁महेच्छ	-10.5278
तस्मिन्	-10.5279
▁लागि	-10.528
▁program	-10.5281
▁जागर	-10.5287
त्री	-10.5289
▁पठति	-10.5296
▁वाणी	-10.5301
ptic	-10.5303
▁सके	-10.5303
▁विज्ञान	-10.5304
▁अंग	-10.5317
top	-10.5323
▁वैज्ञानिक	-10.5325
▁छू	-10.5328
▁वदामः	-10.533
▁मातु	-10.5334
▁शान्त	-10.5335
▁परकरेष	-10.5336
▁users	-10.5337
▁क्रीत	-10.5339
▁यतोऽह	-10.5339
मर्था	-10.5344
िणा	-10.535
NR	-10.5353
क्ट्	-10.5356
पास	-10.5357
▁day	-10.5359
▁Google	-10.5359
▁ईश्वरात्	-10.5366
tar	-10.5368
▁क्रियतां	-10.5371
▁स्टेट्मेण्ट्स्	-10.5371
▁एरो	-10.5379
रथ	-10.5382
▁पाठ्य	-10.5383
▁पुनश्च	-10.5394
▁सामग्री	-10.5403
▁सागर	-10.541
तेजस	-10.542
प्रान्त	-10.5424
▁ओवर्	-10.5425
नयन	-10.5425
▁दक्षिणे	-10.543
▁विधवा	-10.5441
ब्लोक्	-10.5441
▁गृहस्य	-10.5446
बजेट्	-10.5452
विण्डौ	-10.5453
दिनाङ्क	-10.5453
▁वाक्ये	-10.5453
test	-10.5454
अग्रिम	-10.5454
निर्मित	-10.5456
पूर	-10.5456
ईश्वर	-10.5456
परिमित	-10.5457
क्ति	-10.5458
धर्म	-10.546
मिदम्	-10.5465
▁श्मशाने	-10.5465
▁हस्तयो	-10.5467
कुर्व्वन्	-10.5473
▁हेतु	-10.5474
▁40	-10.5476
▁प्रधानयाजक	-10.5476
अधिक	-10.5477
भूमि	-10.5479
▁झ	-10.548
ाधिपति	-10.5484
▁अत्यन्तं	-10.5486
▁रोद	-10.5489
try	-10.5491
50	-10.5491
यसि	-10.5491
▁पितरो	-10.5495
यन्त्र	-10.5502
▁वदाम	-10.5511
▁लगा	-10.5519
cd	-10.5536
▁अवलोक	-10.5537
संधारिकाया	-10.5538
▁अवगच्छ	-10.5547
▁प्राप्ताः	-10.5554
▁सृष्टि	-10.5558
▁पुट्	-10.556
▁प्रभव	-10.5564
▁शिष्यास्त	-10.5568
▁दातव्य	-10.557
यथार्थ	-10.5571
▁लोड्	-10.5572
▁सान्त्वना	-10.5577
▁क्षिप	-10.5581
लेने	-10.5582
▁आयतस्य	-10.5584
चन्द्र	-10.5587
▁अग्र	-10.559
▁सम्यग	-10.5591
▁जनान्	-10.5593
थुन	-10.5595
.......	-10.5602
▁प्रार्थय	-10.5609
▁शिमोन	-10.5611
ाद्य	-10.5611
▁स्पेस	-10.5613
आर्	-10.5614
हन्तु	-10.563
▁तस्मात	-10.5633
लक्ष	-10.5633
▁सङ्ख्याया	-10.5644
▁प्रतीक्ष	-10.5645
न्द्रिय	-10.5646
▁दिवसे	-10.5647
▁तन्म	-10.5647
▁डाटा	-10.5648
▁Menu	-10.5649
बाहु	-10.565
▁check	-10.565
Servlet	-10.5651
कण्ट्रोल्	-10.5651
GIN	-10.5651
▁3.7.0	-10.5651
▁GUI	-10.5651
▁German	-10.5651
▁Raju	-10.5651
▁constructor	-10.5651
▁उपयोक्तृभ्यः	-10.5651
▁कपालभाति	-10.5651
▁पवित्रस्यात्मन	-10.5651
etail	-10.5651
▁Update	-10.5651
▁begin	-10.5651
▁tag	-10.5651
▁अनुसर्तुं	-10.5651
▁कठोर	-10.5651
▁नासरतीय	-10.5651
▁शक्ष्यथ	-10.5651
मारुह्य	-10.5651
▁इलियासर	-10.5651
sharp	-10.5651
▁Yes	-10.5651
▁चिन्तन	-10.5651
▁अर्हति	-10.5651
▁लोगिन्	-10.5651
▁प्रवेष्टु	-10.5652
▁लप्स्यते	-10.5652
▁सङ्कलयामि	-10.5652
▁handle	-10.5652
▁महत्त्वपूर्ण	-10.5652
▁क्रियन्ते	-10.5652
▁घटिष्यते	-10.5653
▁lines	-10.5653
▁Unit	-10.5654
▁फलितांश	-10.5654
▁मुखपृष्ठ	-10.5654
▁start	-10.5655
▁धूम	-10.5655
▁गाढतम	-10.5655
▁गदितवान्	-10.5655
फ़ोर्	-10.5656
▁सम्मन्य	-10.5656
▁90	-10.5656
▁Table	-10.5657
▁चिन्तयामि	-10.5658
▁धैर्य्य	-10.5659
▁परिवर्तयति	-10.5662
ux	-10.5662
▁इदमत्र	-10.5666
▁व्याहरन्	-10.5668
ोद्धार	-10.5668
▁अवकाश	-10.567
कृतौ	-10.567
▁पाठमिम	-10.5671
▁निरूपय	-10.5674
▁सप्ताह	-10.5674
▁स्थित्वा	-10.5675
विश्वासिन	-10.5676
▁पूरयत	-10.5676
▁मन्त्रणा	-10.5678
▁पुष्पाणि	-10.5678
▁आगच्छतु	-10.568
है	-10.5681
प्रेषण	-10.5682
हमपि	-10.5684
▁आवलिः	-10.5685
▁सम्पूर्णतया	-10.569
▁switch	-10.5692
▁जिसक	-10.5694
▁मांस	-10.5696
▁प्ल	-10.5699
▁control	-10.5701
▁ऊ	-10.5703
▁पीडित	-10.5704
▁वत्सर	-10.5706
रक्त	-10.5708
ासां	-10.5712
ons	-10.5715
▁कर्तुमर्ह	-10.5715
कर्तृ	-10.5717
▁सामान्यतया	-10.5719
ादिभि	-10.5724
▁Build	-10.5728
▁Xfig	-10.5728
▁खङ्ग	-10.5729
▁फ़ङ्क्षन्स्	-10.573
ीश्वरेण	-10.5733
▁दातव्यम्	-10.5736
▁पृष्टस्याध	-10.5737
सत्य	-10.5741
▁यीशुख्रीष्टेन	-10.5748
▁Check	-10.5754
▁काराया	-10.5764
▁परीक्षण	-10.5767
किन	-10.5774
▁प्रकाशमान	-10.5776
्रेटर्	-10.578
▁ईक्ष	-10.578
शिश	-10.5785
क्षराणि	-10.579
वादी	-10.5793
▁इत्येतेषु	-10.5798
▁तमेव	-10.5798
अद्य	-10.5809
“	-10.5809
टेड्	-10.581
▁close	-10.5819
नाथ	-10.582
▁निवारण	-10.5822
▁अर्थत	-10.5823
र्त्तुं	-10.5829
▁निकाल	-10.5835
ऽहम्	-10.5839
मार्ज	-10.5846
▁उत्पन्ना	-10.585
▁भारते	-10.586
▁पङ्क्तिः	-10.5862
▁अज्ञान	-10.5868
▁भ्रात	-10.5869
ुदन्तु	-10.5871
▁श्लोकाना	-10.5872
▁उत्प	-10.5873
▁परिवर्तनम्	-10.5886
▁मात्रा	-10.5889
▁तासा	-10.5896
▁कार्यम्	-10.5896
लोञ्चर्	-10.5906
▁एवमस्ति	-10.5906
सामग्री	-10.5906
▁नौकाया	-10.5906
सङ्केत	-10.5908
विद्यमान	-10.5908
कम्पैल्	-10.5909
Ubuntu	-10.591
सूक्ष्म	-10.591
चेक्	-10.5911
तस्माद्	-10.5913
▁स्तरवर्णिका	-10.5916
दाता	-10.5918
काचित्	-10.5919
ty	-10.5928
▁pdf	-10.5929
वारम्	-10.5931
▁महत्वं	-10.5935
▁उत्था	-10.5935
प्रचार	-10.594
ाधि	-10.5944
मेन्	-10.5953
▁उद्घाटयाम	-10.5958
बिन्दु	-10.5962
दू	-10.5963
रेख	-10.5972
डो	-10.5973
▁@	-10.5977
मारभ्य	-10.5978
MM	-10.5979
▁पवित्रलोकाना	-10.5996
ाभ्याम्	-10.5997
▁प्रार्थयन्त	-10.6
भ्याम्	-10.6001
▁आधारित	-10.6006
▁नैक	-10.6012
लिया	-10.6012
▁हरि	-10.6014
4.	-10.6014
िरे	-10.6017
▁कहान	-10.6024
hi	-10.6034
remen	-10.6053
▁क्लोस	-10.6064
▁ऊर्ध्व	-10.607
▁पूरयाम	-10.6073
ऽहं	-10.6075
▁उपयोक्ता	-10.6077
निवेश	-10.6078
▁चतुर्थ	-10.6079
वत्यौ	-10.6079
▁बढ़	-10.608
▁संयोजनीय	-10.6081
▁सङ्गणके	-10.6088
▁निन्दा	-10.6088
set	-10.6096
▁षष्ठ	-10.6098
▁पुष्पस्य	-10.6103
▁होन	-10.6103
tein	-10.6106
▁display	-10.6106
brush	-10.6106
Configure	-10.6106
dialog	-10.6106
मेट्रिक्स्	-10.6106
▁Apply	-10.6106
▁Math	-10.6106
▁TeXworks	-10.6106
▁break	-10.6106
▁message	-10.6106
▁settings	-10.6106
▁पर्चनी	-10.6106
▁प्राप्स्यति	-10.6106
▁मुट्ठ	-10.6106
▁शङ्ख	-10.6106
▁सञ्जात	-10.6106
▁सुग्रीव	-10.6106
Width	-10.6106
▁order	-10.6106
▁super	-10.6106
▁नामाङ्कन	-10.6106
▁निशम्य	-10.6106
▁व्यवस्थापयामि	-10.6106
▁शैवाल	-10.6106
▁Syn	-10.6106
▁बहिरागन्तु	-10.6106
▁ईमैल	-10.6106
▁उद्घाटयति	-10.6106
▁गवेषय	-10.6106
rther	-10.6106
४०	-10.6106
▁डोक्यूमेण्ट्	-10.6106
▁परावृत्य	-10.6106
▁पुमान्	-10.6106
pwd	-10.6106
▁विस्मय	-10.6106
▁ब्रू	-10.6106
▁आरभामहे	-10.6107
▁कारयति	-10.6107
▁Company	-10.6107
▁स्त्रिय	-10.6107
▁गमनागमन	-10.6107
▁editor	-10.6108
▁परिवर्तयतु	-10.6109
▁उपलभ्यन्ते	-10.6109
▁ग्रेड्	-10.6109
▁विजय	-10.6109
▁मोचयित्वा	-10.6109
▁शक्यम्	-10.611
▁रचनीय	-10.611
▁संयम	-10.611
वाष्प	-10.611
▁ऐच्छ	-10.611
▁वर्त्त	-10.6111
sub	-10.6111
तादृग्	-10.6112
न्तर्	-10.6113
टोक्	-10.6113
▁राजयोग	-10.6114
▁विवरणार्थं	-10.6119
▁तदनुसार	-10.612
▁इत्थम	-10.6121
▁हमार	-10.6122
▁तत्सर्व्व	-10.6123
▁अवस्था	-10.6123
▁र्नाम्ना	-10.6124
▁स्थिता	-10.6125
Height	-10.6126
विलोम	-10.6127
▁Navigat	-10.6127
▁सम्मुख	-10.6129
▁एक्स्टेन्शन्	-10.613
▁आगमिष्यति	-10.6132
▁आगच्छन्ति	-10.6135
▁धूसर	-10.6137
देता	-10.6138
▁रहन	-10.6138
▁ग्रेडियेण्ट्	-10.6139
▁प्रीयते	-10.6142
ज्ञापित	-10.6143
▁पितु	-10.6145
▁Control	-10.6148
->	-10.615
▁Sp	-10.615
▁आनयति	-10.6152
ON	-10.6153
▁प्रतिलेख	-10.6154
▁Per	-10.6155
▁दशवार	-10.6156
▁अवदन्	-10.6156
पार्	-10.6158
▁am	-10.6159
▁अलैन्	-10.616
Thi	-10.6161
ेश्वरीय	-10.6165
▁select	-10.6165
US	-10.6166
▁frame	-10.6167
▁multi	-10.6167
▁रिटर्न्	-10.6167
▁व्यवहार	-10.617
▁वर्षा	-10.6174
▁field	-10.6177
▁बाहुल्य	-10.6177
▁रेखाया	-10.6178
▁नासीत्	-10.6179
▁भूमित	-10.6183
▁वाग्	-10.6185
▁योषित्	-10.6188
▁चक्षुष	-10.6191
▁pop	-10.6191
▁बाण	-10.6191
▁परिष्कृत	-10.6193
▁पकड	-10.6196
▁कलह	-10.6197
▁आनीत	-10.6198
▁भृ	-10.6199
▁.............	-10.6202
▁उपयोक्तव्यम्	-10.6202
▁पर्व्वत	-10.6205
▁प्रयच्छ	-10.6205
▁वेल्यू	-10.6205
▁स्थापनीय	-10.6208
▁box	-10.6213
▁निर्म्मित	-10.6213
▁[	-10.6213
▁जीवानां	-10.6216
▁मनुजा	-10.6218
▁कर्तुमहं	-10.622
▁कमाण्ड्स्	-10.622
▁मत्तो	-10.6221
▁धारणा	-10.6221
सम्पद	-10.6223
▁निर्मातु	-10.6225
▁वस	-10.6229
▁जैसे	-10.6239
▁औषध	-10.6241
▁angle	-10.6243
पार्श्वे	-10.6244
▁भवितव्यम्	-10.6244
▁व्यवह	-10.6246
▁प्रचारयितु	-10.6264
ुमर्हन्ति	-10.6268
▁स्पर्श	-10.627
▁इन	-10.6278
▁कुर्	-10.6284
▁मिशन्	-10.6291
▁अत्रैव	-10.6295
▁निरीक्ष	-10.6301
)"	-10.6311
▁मद्	-10.6311
▁कर्तव्यम्	-10.6343
▁jsp	-10.6349
ाघात	-10.6353
▁भ्रमण	-10.6357
▁नेत्रे	-10.6362
▁आगतम्	-10.637
िणी	-10.637
नलिका	-10.6372
▁लभ्य	-10.638
स्तत्र	-10.6381
Demo	-10.6381
धिकारिण	-10.6382
▁स्थापयेत्	-10.6383
Intro	-10.6383
कीलफलक	-10.6384
युष्मानह	-10.6385
शीर्ष	-10.6385
print	-10.6385
ड्राप्	-10.6385
Firefox	-10.6385
Ctrl	-10.6386
एक्सिक्यूट्	-10.6386
सूर्य	-10.6387
ऐकान्	-10.6387
Book	-10.6387
बहु	-10.6388
त्याज	-10.6392
▁परीक्ष्य	-10.6392
▁देवता	-10.6392
कोहा	-10.6394
नोड्	-10.6398
मानीय	-10.6413
धिकार	-10.6416
सर्वेषा	-10.6424
▁क्रियाया	-10.6425
घटना	-10.6431
▁दन्ता	-10.6436
▁र्या	-10.6437
▁मुद्रित	-10.6437
अहम्	-10.6438
▁कुर्व्वन्	-10.6438
▁पठित	-10.6442
ोपस्थित	-10.6455
रचित	-10.6461
ावर्त	-10.6461
जब	-10.6462
फील्ड्स्	-10.6463
ेत्य	-10.6469
▁श्रीकृष्ण	-10.647
सैन्	-10.6473
ततस्ते	-10.6481
▁लोग	-10.6488
ेण्ड्	-10.6492
▁पुनरावर्त	-10.6498
▁विवृत	-10.6499
▁मान्य	-10.6502
▁प्रकारस्य	-10.6502
रक्षण	-10.6508
ञ्चित्	-10.6511
विष	-10.6516
▁शृणु	-10.6516
Arrays	-10.6518
सृष्ट	-10.6528
▁शिष्यै	-10.6531
▁स्वीक	-10.6538
▁प्रोग्राम	-10.6541
▁question	-10.6553
▁निरीक्ष्य	-10.6554
▁quote	-10.6554
▁दो	-10.6562
▁भविष्यद्वादिना	-10.6563
लता	-10.6566
विंशति	-10.6566
one	-10.657
scal	-10.657
Pro	-10.6572
▁गणः	-10.6574
▁प्राणी	-10.6576
▁शिक्षक	-10.6577
▁key	-10.6578
script	-10.6582
▁opac	-10.6582
▁audio	-10.6582
Maintenance	-10.6582
Training	-10.6582
मुदाहरण	-10.6582
▁Database	-10.6582
▁Generate	-10.6582
▁MyFirstProject	-10.6582
▁Preview	-10.6582
▁अक्सेस्	-10.6582
▁इस्हाक	-10.6582
▁कंधों	-10.6582
▁कंपैल	-10.6582
▁कन्दुक	-10.6582
▁क्रियमाण	-10.6582
▁तूर्ण	-10.6582
▁फंक्षन्	-10.6582
▁लगभग	-10.6582
▁स्वतन्त्र	-10.6582
▁स्वीकुर्यात	-10.6582
Submit	-10.6582
गवेषक	-10.6582
▁लूपाकार	-10.6582
▁वाणिज्य	-10.6582
▁Develop	-10.6582
▁आंतरिक	-10.6582
▁व्यश्वसन्	-10.6582
▁less	-10.6582
▁ऋजु	-10.6582
▁अभिप्राय	-10.6582
over	-10.6582
▁यच्छेत	-10.6582
▁किन्त्विदानी	-10.6582
चाप्टर्	-10.6582
▁कागद	-10.6582
▁दर्श्यते	-10.6582
▁quiz	-10.6582
वांश्च	-10.6582
विड्त्	-10.6582
▁भूमौ	-10.6582
▁Internet	-10.6582
▁random	-10.6582
प्राप्त्यर्थ	-10.6583
▁स्कन्धौ	-10.6583
▁व्याकुल	-10.6583
रिलेषन	-10.6583
द्वीप	-10.6583
▁दृष्टुम्	-10.6583
▁विलिख	-10.6583
किण्व	-10.6583
▁प्रेम्ना	-10.6584
▁निरामय	-10.6584
▁चतुर्दश	-10.6584
▁समर्पयिष्यति	-10.6584
▁कुर्यु	-10.6584
▁section	-10.6585
▁दर्शयितुम्	-10.6585
▁श्रीराम	-10.6585
▁कर्षयतु	-10.6585
▁तन्निमित्तं	-10.6586
▁नृप	-10.6587
▁स्थानम्	-10.6587
▁अवबोध	-10.6588
▁स्ले	-10.6588
▁सृज	-10.6588
▁इत्यादीनां	-10.6589
▁उद्भव	-10.659
▁लोकेभ्यो	-10.659
▁प्रणाल्या	-10.6591
▁स्वर्ण	-10.6591
▁मनःसु	-10.6591
▁आगतवन्तः	-10.6592
▁साधु	-10.6592
▁द्रष्टव्य	-10.6593
▁विकल्पमुपयुज्य	-10.6593
ph	-10.6597
▁दर्प	-10.6597
कुशल	-10.6598
▁यदाह	-10.6598
▁यथार्थत	-10.6599
▁समापित	-10.6601
sp	-10.6602
▁फलम्	-10.6605
▁सर्व्वविषये	-10.6607
▁इत्येव	-10.6607
▁अणून	-10.6608
▁तत्समीप	-10.6608
▁प्रविशति	-10.6608
NU	-10.6609
▁फिल	-10.661
▁रक्षामि	-10.6611
▁भाषते	-10.6611
▁13	-10.6615
▁प्रवृत्त	-10.6616
▁विश्वसिति	-10.6616
▁इत्यहं	-10.6617
▁फ़ोल्डर्	-10.6617
▁result	-10.6617
▁प्रबल	-10.6618
▁लोकल्	-10.6623
▁बाधा	-10.6625
▁column	-10.6627
▁विद्यार्थिना	-10.6627
▁कोमेण्ट्	-10.6631
▁ऊर्जाया	-10.6632
▁./	-10.6633
▁sample	-10.6637
▁group	-10.6637
▁प्राम्प्ट्	-10.6637
▁परिमित	-10.6639
▁colon	-10.6647
▁फुप्फुस	-10.6647
▁मृद	-10.665
▁सम्पादन	-10.6654
नामानि	-10.6657
मरियम	-10.6659
▁रेकोर्ड्स्	-10.6662
▁ग्राहक	-10.6666
▁महती	-10.667
▁सानन्द	-10.6686
▁FASTA	-10.6686
▁सैन्य	-10.6688
▁ताडासनम्	-10.6688
गत्वा	-10.669
ब्द	-10.669
▁For	-10.6692
▁प्रसाद	-10.6697
▁रोगा	-10.6699
▁चेति	-10.6706
▁मानवाना	-10.6709
▁अवलोकन	-10.6716
▁धन्यः	-10.6717
▁कियन्त	-10.6735
▁अध्याय	-10.6736
bit	-10.6744
ection	-10.6748
▁मन्दिरस्य	-10.6751
राव	-10.6753
▁डिल	-10.6761
space	-10.6762
▁निमेष	-10.6767
▁जाया	-10.677
▁रचयामि	-10.677
ेनापि	-10.6772
▁वसन	-10.6781
फी	-10.6783
गृह्णाति	-10.6786
▁देवी	-10.679
▁लोञ्चर्	-10.6797
▁प्रयत्न	-10.6811
▁बात	-10.6821
▁अक्षराणा	-10.6833
▁ज्ञानम	-10.6837
▁कीलफलके	-10.6862
0.1	-10.6864
प्रेम	-10.6864
▁निक्षिप	-10.6864
ND	-10.6866
भ्रातृ	-10.6867
▁प्रशिक्षणे	-10.6869
▁योगदान	-10.6879
किन्त्व	-10.6883
▁तस्मा	-10.6883
नास्ति	-10.6883
right	-10.6884
बुद्धि	-10.6884
j	-10.6884
क्लेश	-10.6885
static	-10.6885
प्रोग्राम्	-10.6886
औट्पुट्	-10.6886
अधः	-10.6887
प्रदाता	-10.6888
form	-10.6888
इत्थं	-10.6889
▁मनुष्यस्य	-10.689
मिशन्	-10.6894
▁अध्यापकः	-10.6896
इत्यस्योपरि	-10.6898
▁ज्ञाता	-10.6906
▁अग्रत	-10.6912
ray	-10.6919
ish	-10.6922
▁स्वभाव	-10.6927
र्तुं	-10.6933
▁स्वर्गाद	-10.6935
du	-10.6941
आदेश	-10.6943
▁देहि	-10.6956
▁प्रभुस्त	-10.6957
▁गुरुः	-10.6957
▁विश्वासो	-10.696
▁वाक्यम्	-10.6974
▁fi	-10.6974
▁प्रथमवार	-10.6981
▁आमेन	-10.6981
▁आचार	-10.6981
▁बहुवार	-10.6983
भूत्वा	-10.6991
▁चक्षु	-10.6993
▁युष्म	-10.6996
▁तंत्र	-10.6997
जन्म	-10.6998
प्रमाण	-10.7004
▁औषधीय	-10.7006
▁गणना	-10.7013
▁अध्यापका	-10.7014
▁विशेषतो	-10.7016
नृत्यानि	-10.7028
पार्श्व	-10.7029
▁पश्चात	-10.7042
मेतद्	-10.7042
▁तट	-10.7043
वकाश	-10.7048
जीभ	-10.705
▁धारण	-10.7051
ध्यान	-10.7054
वर्धन	-10.7056
▁Set	-10.7061
▁विश्वसित	-10.7062
▁रीढ	-10.7063
▁वितर	-10.7064
▁उद्घट	-10.7066
▁Bio	-10.7074
▁आंख	-10.7078
Download	-10.7082
Q	-10.7082
स्क्वेर्	-10.7082
▁लचीला	-10.7082
BLAST	-10.7082
BufferedReader	-10.7082
Document	-10.7082
Format	-10.7082
defined	-10.7082
ember	-10.7082
execute	-10.7082
▁16.05	-10.7082
▁engine	-10.7082
▁इण्डिकेटर्	-10.7082
▁कण्ठ	-10.7082
▁केरेक्टर्	-10.7082
▁विजेता	-10.7082
▁शोमिरोण	-10.7082
▁कुत्सित	-10.7082
Copies	-10.7082
▁विक्रीय	-10.7082
Latex	-10.7082
▁गहरी	-10.7082
▁चित्रपट	-10.7082
ाभिषिक्त	-10.7082
small	-10.7082
▁अग्ने	-10.7082
▁उपवेशन	-10.7082
▁छाती	-10.7082
▁विस्मृत	-10.7082
▁स्यन्दन	-10.7082
▁Clone	-10.7082
▁शृण्वन्ति	-10.7082
▁विंडो	-10.7082
▁निस्तार	-10.7082
▁कुल्हाड	-10.7083
▁undo	-10.7083
▁वर्तेते	-10.7083
▁दिगन्त	-10.7083
▁command	-10.7083
▁सन्तुष्ट	-10.7083
सूपर्	-10.7084
डेमो	-10.7084
▁Properties	-10.7084
▁manager	-10.7084
▁धारक	-10.7084
ेण्डर्	-10.7085
▁परिवर्तयितुम्	-10.7085
▁विभज्य	-10.7085
▁उद्घाटन	-10.7085
▁प्रत्यवोच	-10.7085
▁जगद	-10.7085
▁बेस्	-10.7085
▁bash	-10.7085
▁प्रत्यवदन्	-10.7086
▁विश्वसिष्य	-10.7087
▁अस्यान्तः	-10.7087
▁लाएं	-10.7087
ike	-10.7087
▁बद्ध्वा	-10.7087
▁आगन्तुं	-10.7088
निर्म्मल	-10.7088
▁दाऐं	-10.7088
▁एतदर्थं	-10.7089
▁sum	-10.709
▁तिष्ठामि	-10.709
▁इन्द्र	-10.709
▁प्रयुज्यते	-10.7091
▁निर्गच्छति	-10.7092
ानुरूप	-10.7093
▁प्रत्यावर्त	-10.7093
शीट्	-10.7093
▁भृत्य	-10.7093
कोष	-10.7094
▁rm	-10.7094
▁कम्पनी	-10.7098
क्षीण	-10.7098
▁परिचित	-10.71
▁जनिष्यते	-10.71
▁समीकरण	-10.71
▁जीवाण	-10.7101
▁पवित्रलोक	-10.7102
▁पतित्वा	-10.7102
ओप्टिमैसेशन्	-10.7103
▁कमेण्ट्	-10.7105
▁Description	-10.7108
▁पन्थान	-10.7108
▁उपयोक्तॄणा	-10.7109
▁गमनात्	-10.711
चिकित्सा	-10.7112
युक्ताः	-10.7113
यत्र	-10.7115
▁आरभ्यते	-10.7116
▁स्वहस्त	-10.7116
सेवा	-10.7117
▁वने	-10.7117
▁विविच्य	-10.7119
BE	-10.7119
▁यस्यार्थ	-10.7119
आक्साइड	-10.7121
पाठार्थम्	-10.7124
▁मध्येऽहं	-10.7124
64	-10.7125
▁तप्त	-10.7128
स्मभ्यं	-10.7128
▁स्ट्रक्चर्	-10.7129
ँ	-10.7132
▁आंखें	-10.7133
ky	-10.7136
▁प्रोजेक्ट	-10.7141
▁नियमित	-10.7146
▁Options	-10.715
▁All	-10.7152
पद्धत	-10.7152
▁Typ	-10.7152
▁मोडे	-10.7156
▁लोगो	-10.7165
▁शिष्याणा	-10.7167
▁सान्त्व	-10.7169
▁abc	-10.7174
▁मोद	-10.7178
▁भविष्यद्वादिनो	-10.7179
▁अवसर	-10.7179
▁द्राक्षारस	-10.7182
▁वस्तुन	-10.7182
▁वच	-10.7184
▁समीपस्थ	-10.7184
पाठेषु	-10.7185
▁दायूद्	-10.7187
▁कोहन	-10.7187
▁परिशीलयामः	-10.7189
धारिण	-10.7192
▁अस्यार्थः	-10.7193
भवन्	-10.7198
▁अन्तःकरण	-10.7198
▁सम्मिलिता	-10.7198
▁यद्वद	-10.7199
▁वायो	-10.721
▁wc	-10.7211
▁तन्नाम	-10.7212
▁भवन	-10.7213
▁एतान	-10.7214
प्रिय	-10.722
दीर्घवृत्त	-10.7221
नन्तकाल	-10.7222
▁शोध	-10.7225
▁अन्यथा	-10.7226
▁शासन	-10.7229
▁एकैव	-10.7232
पश्यन्	-10.7233
▁प्रोटीन्	-10.7236
▁मध्यभाग	-10.724
▁प्रतिष्ठापन	-10.7251
▁तादृशी	-10.7252
▁एतेभ्य	-10.7254
रपि	-10.726
युक्तो	-10.7262
▁मुक्ति	-10.7267
भक्ति	-10.7268
▁As	-10.7279
ेथे	-10.728
हरति	-10.7283
ज्वल	-10.7288
पेरामीटर्स्	-10.7289
▁विनियोगः	-10.7291
▁कस्या	-10.7291
▁सीताया	-10.7293
into	-10.73
▁मुद्रापित	-10.7308
▁सूच्या	-10.7314
▁उपयुञ्ज	-10.7314
▁प्राणिना	-10.7331
▁70	-10.7339
वयम	-10.734
▁सञ्चिकाना	-10.7341
▁दधि	-10.7347
▁व्यवस्थायाः	-10.7348
▁नेतु	-10.7349
▁महिमान	-10.7349
▁पादपस्य	-10.735
पदार्थानां	-10.7358
▁बता	-10.7361
▁दक्षिणत	-10.7361
सरति	-10.7363
▁संसारस्य	-10.7363
▁विचारो	-10.7372
▁अधिकार	-10.7383
▁मध्येऽपि	-10.7403
▁निक्षिप्य	-10.7404
निमेष	-10.7408
Item	-10.7408
उदाहरणार्थम्	-10.7411
Admin	-10.7411
धार्म्मिक	-10.7412
▁लग	-10.7412
मेन्यू	-10.7413
रिक्त	-10.7414
आसन	-10.7417
युष्माक	-10.7422
▁योजना	-10.7423
▁My	-10.7423
रिव	-10.7426
▁निर्माणे	-10.7429
▁लोकनृत्य	-10.7429
जावा	-10.7431
्रेड्	-10.7432
सज्ज	-10.7433
▁एन्	-10.7434
नाशक	-10.7434
▁तिष्ठन्त	-10.7439
▁मेरुदण्ड	-10.7439
भक्ष्य	-10.744
▁मध्यम	-10.7449
कदा	-10.7449
इदम्	-10.7451
कर्म्मणि	-10.7453
▁अन्येषा	-10.7454
file	-10.7455
▁प्रात	-10.7458
▁हल	-10.7459
for	-10.7459
▁यद्यह	-10.747
▁पौलो	-10.7479
वल्	-10.7485
▁types	-10.7486
12	-10.7487
▁जलम	-10.7492
▁प्रवाचक	-10.7495
cout	-10.7497
▁परिशीलयाम	-10.7497
▁ज्ञास्याम	-10.7499
शस्यानि	-10.7499
भविष्यद्वादिना	-10.7499
▁भवद्भि	-10.75
▁अवि	-10.7526
▁बृह	-10.7529
ाएँ	-10.753
दल	-10.7536
▁आपण	-10.7541
▁प्राणि	-10.7547
▁चिन्तयत	-10.7556
▁यूषफ	-10.7567
EN	-10.7569
मीश्वर	-10.7579
▁अपेक्षा	-10.7581
▁दृ	-10.7588
वरोह	-10.7592
तैल	-10.7595
▁वर्द्ध	-10.7595
▁दृष्टवन्त	-10.7598
▁व्यू	-10.7602
बिन्द	-10.7603
▁प्राथमिक	-10.7605
bstract	-10.7606
word	-10.7608
▁Seq	-10.7608
▁दैनिक	-10.7608
▁ब्राह्मण	-10.7608
Amount	-10.7608
Categories	-10.7608
Category	-10.7608
GenBank	-10.7608
ऋग्वेद	-10.7608
ब्ल्यु	-10.7608
▁5.6.30	-10.7608
▁Balance	-10.7608
▁Catalog	-10.7608
▁Mask	-10.7608
▁Mathematic	-10.7608
▁Saturation	-10.7608
▁price	-10.7608
▁stroke	-10.7608
▁इतोप्यधिक	-10.7608
▁उप्पिनपट्टण	-10.7608
▁गर्ब्भ	-10.7608
▁ग्रुप्	-10.7608
▁डेस्क्टोप्	-10.7608
▁दुर्योधन	-10.7608
▁निर्ब्बोध	-10.7608
▁पोटलिक	-10.7608
▁विष्णो	-10.7608
Statement	-10.7608
व्यतिरेक	-10.7608
सपरेटर्	-10.7608
▁Bond	-10.7608
▁dna	-10.7608
▁कथमुपयोक्तव्य	-10.7608
▁प्रोवाच	-10.7608
report	-10.7608
Element	-10.7608
▁सांसारिक	-10.7608
▁अर्हन्ति	-10.7608
▁अनुशासन	-10.7608
पश्चिम	-10.7609
स्मत्प्रभो	-10.7609
▁Filters	-10.7609
▁साधारण	-10.7609
▁फसल	-10.7609
▁Lecture	-10.7609
▁व्यवस्थया	-10.7609
सन्तुलित	-10.7609
▁जालपर्ण	-10.7609
▁इतस्तत	-10.7609
▁प्रसारित	-10.7609
▁स्वर्गीयदूत	-10.7609
▁स्मर्यताम्	-10.7609
▁मत्सविधे	-10.7609
▁curve	-10.7609
▁Rotat	-10.761
▁उपयोक्त्र	-10.761
▁भ्रान्त	-10.761
▁अंदर	-10.761
▁धेनु	-10.761
What	-10.761
▁धनु	-10.761
▁sign	-10.7611
▁किन्त्वधुना	-10.7611
फेस्	-10.7611
ाङ्गुल	-10.7611
▁कलङ्क	-10.7612
▁उन्नत	-10.7612
रसायन	-10.7612
▁कला	-10.7613
ाश्रय	-10.7614
▁उपविष्ट	-10.7615
▁तदर्थमेव	-10.7615
▁resource	-10.7615
▁प्रेषयितुं	-10.7616
▁मंत्र	-10.7616
▁दास्यामि	-10.7616
▁देखें	-10.7618
▁अनुसरणाय	-10.7618
▁चित्रयामि	-10.7618
शनल्	-10.7619
▁परिभ्रमण	-10.7619
गिंग	-10.7621
▁थी	-10.7623
करणकाले	-10.7624
▁CD	-10.7624
▁वर्त्तते	-10.7624
kit	-10.7625
▁समापय	-10.7625
ाकाश	-10.7627
▁निर्मातव्य	-10.7631
ong	-10.7632
▁पुरतः	-10.7635
▁बुध्यते	-10.7635
▁अकथयन्	-10.7636
संस्करण	-10.764
▁सर्व्वस्मिन्	-10.7641
▁कल्पयति	-10.7643
▁ओपरेटर्स्	-10.7646
किन्त्वहं	-10.7646
▁records	-10.7646
▁शीर्ष	-10.7647
▁Delete	-10.7647
▁Upload	-10.7647
▁यूषफ्	-10.765
ज़	-10.7652
▁पालयति	-10.7652
शेल्	-10.7654
श्चिद	-10.7655
▁स्वच्छताया	-10.7658
मधिक	-10.766
डेट्	-10.766
▁अकथयत्	-10.7661
▁मुख्यत	-10.7663
▁मुद्रण	-10.7665
▁चलति	-10.767
▁तद्दिन	-10.767
▁समग्र	-10.7672
▁सर्व्वस्व	-10.7673
▁सहाय्य	-10.7673
गोचरे	-10.7676
▁प्रार्थयध्व	-10.7677
▁भ्रातरो	-10.768
ाइट	-10.7683
▁व्यत्यास	-10.7691
मध्यस्थ	-10.7693
▁सम्बद्धानि	-10.7694
▁कष्ट	-10.7694
▁गतेषु	-10.7694
▁गता	-10.7697
▁title	-10.7702
प्रकाराणां	-10.7707
▁&	-10.7713
▁पूरा	-10.7718
▁सत्यां	-10.7724
कैक	-10.7728
▁फ़ैल्स्	-10.7732
एतस्य	-10.7735
▁र्वा	-10.7735
▁श्रीकृष्णः	-10.7735
▁ततौ	-10.7741
जर्	-10.7747
▁किमस्ति	-10.7755
▁उत्थान	-10.7756
▁प्रकाशयितु	-10.7761
ctivity	-10.7767
▁कर्तु	-10.7769
▁सर्च्	-10.7769
मिक	-10.777
▁7.	-10.7774
▁आवश्यकी	-10.7777
String	-10.7779
▁मेद	-10.778
ाॅ	-10.7792
▁शक्नु	-10.7793
Get	-10.7796
त्वञ्च	-10.7801
▁किमर्थम्	-10.7808
▁ज्ञापयितु	-10.7808
▁अट	-10.7808
योरेक	-10.7811
ोऽर्थ	-10.7817
सङ्ख्यया	-10.7824
▁अस्तु	-10.7829
▁इत्येष	-10.7832
▁गताः	-10.7834
▁गृहीत	-10.7834
▁Rs	-10.7841
ग्राह्य	-10.7861
▁प्रेरिता	-10.7887
न्तीति	-10.7889
वता	-10.7893
▁र्यद्	-10.79
▁पर्व	-10.79
▁टङ्कयितु	-10.7907
▁अन्विष्य	-10.791
▁ऽहं	-10.7913
▁कीटा	-10.7913
▁गात्रे	-10.7914
वंशीय	-10.7924
ull	-10.7925
ेयुः	-10.7928
▁र्यूय	-10.7931
ल्लोका	-10.7933
न्यून	-10.7933
ङ्कुर	-10.7938
श्रू	-10.7942
मुत्तम	-10.7945
ेनैव	-10.7951
pic	-10.7962
कृष्ण	-10.7963
लैब्ररि	-10.7965
▁14	-10.7965
सागर	-10.7965
प्रस्तुत	-10.7965
केवल	-10.7966
आवश्यक	-10.7966
सामान्य	-10.7966
पाषाण	-10.7967
वर्णिका	-10.7967
दुःख	-10.7968
लिस्ट्	-10.797
वायुना	-10.7971
कील	-10.7971
विकास	-10.7971
OK	-10.7971
पराक्रम	-10.7974
पेज्	-10.7974
सञ्चय	-10.7978
प्रेम्न	-10.7979
▁युष्मत्त	-10.7979
..........	-10.7981
श्वेत	-10.7982
स्तीत्यतः	-10.7988
▁पाठस्यान्त	-10.7989
▁आगमन	-10.7992
▁7.0	-10.7996
▁निर्माणम्	-10.8005
▁प्रश्नाना	-10.801
▁प्रतिज्ञात	-10.8011
अपन	-10.8026
वेग	-10.8035
निमित्तम्	-10.8054
▁योऽ	-10.8055
▁ज्ञातवन्त	-10.8059
मह्यं	-10.8066
गम्य	-10.8067
▁मुद्रापय	-10.8067
▁दुर	-10.807
जनजात	-10.807
▁त्रिकोण	-10.81
कृत्य	-10.81
▁सदृशा	-10.8113
▁आगच्छन्	-10.812
▁परिक्रम	-10.8128
मणि	-10.8134
▁सती	-10.8134
विख्यात	-10.814
मुख्य	-10.814
▁प्रचारित	-10.8142
▁धातु	-10.815
▁अत्यधिक	-10.815
▁तीर	-10.8151
ीकृतवान्	-10.8151
पूर्वकं	-10.8153
▁आरब्ध	-10.8156
ोक्तं	-10.8158
ीक्रियते	-10.8159
▁गोधूम	-10.8161
▁edit	-10.8162
▁Install	-10.8163
मुद्घाट	-10.8163
पैथन्	-10.8164
spect	-10.8164
Alpha	-10.8164
Gmail	-10.8164
Remove	-10.8164
delete	-10.8164
lampp	-10.8164
localhost	-10.8164
percentage	-10.8164
गूगल्	-10.8164
ट्यूब्	-10.8164
ब्लाक्	-10.8164
भाण्डागार	-10.8164
स्ल्याश्	-10.8164
▁Colour	-10.8164
▁PID	-10.8164
▁label	-10.8164
▁pattern	-10.8164
▁आञ्जनेय	-10.8164
▁इत्युच्यते	-10.8164
▁कन्फ़र्मर्	-10.8164
▁कूटशब्द	-10.8164
▁कृषक	-10.8164
▁प्यारामीटर्	-10.8164
▁युधिष्ठिर	-10.8164
▁शृणोति	-10.8164
▁शृणोतु	-10.8164
▁सामाजिक	-10.8164
क्याटलाग	-10.8164
▁Hue	-10.8164
▁alert	-10.8164
▁paint	-10.8164
▁एप्लेट्	-10.8164
▁घुमाऐं	-10.8164
▁प्रत्यागच्छाम	-10.8164
▁हृद्यन्त्र	-10.8164
▁दोहराऐं	-10.8164
▁निश्चिनोत	-10.8164
▁वास्तविक	-10.8164
▁निपुण	-10.8164
▁बोद्धु	-10.8164
▁मेदिन्या	-10.8164
2017	-10.8164
IIT	-10.8164
▁फोण्ट्	-10.8164
▁शक्ष्यति	-10.8164
Trash	-10.8164
सूचक	-10.8164
maths	-10.8164
▁श्रोष्य	-10.8164
▁तिमिर	-10.8164
▁fill	-10.8164
▁environment	-10.8164
▁निर्भर	-10.8164
▁यूय	-10.8164
▁रूप्यक	-10.8164
▁Topic	-10.8164
▁समचिह्नं	-10.8164
प्रोक्सि	-10.8164
▁प्रोफ़ैल्	-10.8164
▁सम्पन्न	-10.8164
▁ब्रौ	-10.8165
▁ऋणात्मक	-10.8165
सिङ्गल्	-10.8165
प्रिंट्	-10.8165
▁इङ्क्स्केप्	-10.8165
▁गृह्णीयात	-10.8165
ulation	-10.8165
▁लम्बरेखा	-10.8165
▁Multipl	-10.8166
▁अद्यत्वे	-10.8166
▁पूर्वरचित	-10.8166
▁मीटर	-10.8166
▁दृष्टान्तकथा	-10.8166
ign	-10.8166
▁सुरक्षित	-10.8166
▁यातना	-10.8166
▁दद्यात	-10.8166
▁अद्यतन	-10.8167
▁चालयामः	-10.8167
▁मिसरदेश	-10.8167
▁Currency	-10.8167
ोद्देश	-10.8167
ादनन्तरं	-10.8168
▁स्वप्न	-10.8168
▁creat	-10.8168
ाध्यक्ष	-10.8168
पृथ	-10.8168
परिच्छद	-10.8169
▁शैली	-10.8169
▁मुद्राप्यते	-10.8169
▁अवयव	-10.817
▁महाभारत	-10.8171
▁श्वसनाभ्यास	-10.8171
▁एतर्हि	-10.8171
▁गृह्णन	-10.8172
▁योजयितुम्	-10.8172
▁परिश्रम	-10.8173
▁उत्साह	-10.8174
▁अङ्कनी	-10.8175
▁Sh	-10.8176
▁पक्व	-10.8177
▁अभिज्ञा	-10.8178
▁निर्बन्ध	-10.8178
40	-10.8179
▁प्राप्तवती	-10.8179
निवेदन	-10.8179
वाल	-10.8181
▁•	-10.8182
▁गहन	-10.8182
otal	-10.8183
▁वाचं	-10.8183
▁किञ्चिद	-10.8185
▁द्वाव	-10.8185
▁जातमिति	-10.8187
Enroll	-10.8187
▁हवा	-10.8191
धातव	-10.8191
ile	-10.8192
▁तुच्छ	-10.8193
▁amount	-10.8193
▁उदरबलेन	-10.8193
▁चतुरश्र	-10.8193
▁Customer	-10.8195
▁अम्ब	-10.8197
▁रोल्	-10.8197
▁पश्यथ	-10.8198
कालीन	-10.8199
न्तःकरण	-10.8201
pla	-10.8203
▁front	-10.8204
▁Continue	-10.8205
▁अन्यस्मिन्	-10.8207
▁आवश्यकतानुसार	-10.8209
▁पत्रिका	-10.8209
▁एकस्मात्	-10.8212
नेके	-10.8212
▁Car	-10.8214
बिल्ट्	-10.8217
▁एकैकश	-10.8222
▁स्वपुत्र	-10.8222
▁रज	-10.8226
▁पढ	-10.8227
▁standard	-10.8228
▁write	-10.8228
गैस	-10.8235
▁कनिष्ठ	-10.8235
▁केटगरि	-10.8235
▁एतावत्	-10.8237
▁वर्त	-10.8239
म्रियत	-10.8239
▁तन्त्रांश	-10.8242
▁पश्येत	-10.8242
▁पाठनियोजन	-10.8242
▁टङ्कनीय	-10.8243
पिटक	-10.8247
▁तस्माद	-10.8248
▁ऋतीय	-10.8248
▁आसक्ति	-10.825
▁लेना	-10.825
▁Welcome	-10.8252
प्रशंस	-10.8252
▁दत्तांशप्रकार	-10.8253
▁सोच	-10.8255
▁विह	-10.8259
▁तत्रत्य	-10.8261
इण्टर्	-10.8262
▁विवृतम्	-10.8263
▁स्वगृह	-10.8264
▁चर्च	-10.8268
▁अनुदान	-10.8271
▁श्मशानाद	-10.8273
▁सम्मान	-10.8277
▁छाया	-10.8278
▁प्रवाचकः	-10.8285
▁एतस्याः	-10.829
▁मोचयितु	-10.829
▁गीताया	-10.8292
इदम	-10.8293
हेतोर	-10.8301
▁दृष्टा	-10.8308
▁पूर्वतनपाठ	-10.8308
▁info	-10.831
▁गज	-10.8311
▁अत्रापि	-10.8313
िष्यसि	-10.8322
▁डेश्	-10.8322
▁अपराध	-10.8327
▁पापिन	-10.833
▁सज्जन	-10.8334
भागिनो	-10.8335
▁वञ्च	-10.8337
▁रुद्ध	-10.8338
▁ब्रेकेट्स्	-10.8344
▁क्रीडाया	-10.8345
▁पोषण	-10.8346
▁सारथ	-10.8352
▁आकर	-10.8357
▁उपयोगेन	-10.8359
्तुम्	-10.8368
द्यापि	-10.8373
....	-10.8373
▁अत्यन्त	-10.8381
▁प्राप्नुव	-10.8383
गृहीत	-10.8396
▁क्षत	-10.8397
IP	-10.8398
▁योजितम्	-10.8413
▁र्मा	-10.8424
स्थापयत	-10.8425
▁योगिन	-10.8428
▁man	-10.8428
वदन	-10.8446
▁र्मध्ये	-10.8447
▁जलेन	-10.8448
तथ्य	-10.8452
▁वसा	-10.8458
▁शुचि	-10.8466
▁रुधिर	-10.8471
▁घर	-10.8488
▁पर्स	-10.8491
▁इत्येषा	-10.8491
▁तन्नुद	-10.8491
▁सृष्टे	-10.8505
▁wa	-10.8509
▁दण्डवत	-10.8509
▁clos	-10.8529
ul	-10.8535
▁कस्यचित	-10.8542
▁मृताना	-10.8544
ख्रीष्ट	-10.8551
आर्ग्युमेण्ट्	-10.8552
Google	-10.8552
स्तम्भ	-10.8553
सन्धारिका	-10.8554
Text	-10.8554
व्रज	-10.8554
Select	-10.8555
बुक्	-10.8556
कोर्स्	-10.8556
बटन्	-10.8557
गमिष्यामि	-10.8558
पर्ण	-10.8559
ावरण	-10.8559
लेयर्	-10.856
इत्यनेन	-10.856
day	-10.856
लुक	-10.8561
यिहूदीय	-10.8562
सरल	-10.8563
करिष्य	-10.8569
अस्माभिः	-10.8582
▁युवान	-10.8586
टिक्	-10.8589
▁शोधन	-10.859
द्भि	-10.8592
▁प्रेषयामास	-10.8596
िकल्	-10.8598
स्थलस्य	-10.8608
▁प्रकाशसंश्लेषण	-10.8612
ीभूता	-10.8622
▁सेवन	-10.8628
▁र्युष्मा	-10.8641
▁वामपार्श्व	-10.8645
▁आयु	-10.8651
यामासुः	-10.8656
▁प्राप्तवन्त	-10.8662
पश	-10.8664
▁31	-10.867
सीत्	-10.8678
धानं	-10.8686
नृत्य	-10.8686
▁On	-10.8689
▁प्रदर्शय	-10.8693
▁महत्व	-10.8694
▁फिरूशिना	-10.8694
▁प्रत्यागत	-10.8695
▁पृथक	-10.8712
▁मार्क	-10.8714
स्तिष्ठत	-10.8723
▁संग्रह	-10.8728
दिशाया	-10.8729
▁Non	-10.873
द्भुत	-10.8733
वशिष्ट	-10.8734
▁आवर्त	-10.8736
python	-10.8743
ावदत्	-10.8743
वृत्तिः	-10.8746
▁जैविक	-10.8746
▁पर्य्य	-10.8747
▁तोल	-10.8747
▁स्थाप्य	-10.8747
urchase	-10.875
▁Sample	-10.875
▁मूत्र	-10.8751
dir	-10.8751
Curren	-10.8752
Message	-10.8752
▁Circ	-10.8752
nested	-10.8752
एक्सिक्य	-10.8752
▁custom	-10.8752
Extension	-10.8752
JPEG	-10.8752
testScore	-10.8752
प्रिफरेन्स्	-10.8752
ोपलभ्यते	-10.8752
▁Green	-10.8752
▁Mumbai	-10.8752
▁Rupee	-10.8752
▁interface	-10.8752
▁paste	-10.8752
▁root	-10.8752
▁testtree	-10.8752
▁आकुञ्चन	-10.8752
▁ददृशुः	-10.8752
▁ब्रैकेट्	-10.8752
▁लैब्ररी	-10.8752
▁विष्णु	-10.8752
▁सङ्गृहीत	-10.8752
▁सूक्ष्मव्यायाम	-10.8752
patron	-10.8752
▁redirect	-10.8752
▁प्रच्छन्न	-10.8752
▁भविष्यद्वाक्य	-10.8752
▁उबंट	-10.8752
▁पारदर्शक	-10.8752
▁पोइण्टर्	-10.8752
ोत्थापित	-10.8752
▁Year	-10.8752
▁अयोध्या	-10.8752
▁आश्रित	-10.8752
▁यिशयिय	-10.8752
First	-10.8752
▁योजयित्वा	-10.8752
▁र्भविष्यति	-10.8752
▁कल्याण	-10.8752
▁पिधाय	-10.8752
▁स्खल	-10.8752
▁भजनगृह	-10.8752
▁योजयति	-10.8752
Copy	-10.8752
▁अनुलोम	-10.8752
▁क्रमाङ्क	-10.8752
▁खड़े	-10.8752
▁ग्रामीण	-10.8752
▁तर्हीश्वर	-10.8752
▁उपस्थास्य	-10.8752
▁उपाविश	-10.8752
▁विक्रय	-10.8752
▁नोत्तु	-10.8752
hapter	-10.8753
▁नितंब	-10.8753
ोद्योग	-10.8753
▁आर्थिक	-10.8753
▁star	-10.8753
▁अन्यदेशीय	-10.8753
▁समार्पय	-10.8753
▁समर्प्य	-10.8753
▁एवम्प्रकारेण	-10.8753
▁role	-10.8753
▁ग्रहीतु	-10.8753
ctive	-10.8753
More	-10.8753
▁सुनिश्चित	-10.8753
▁दक्षिणकोणे	-10.8753
▁करणञ्च	-10.8754
▁प्रोग्रामिङ्ग्	-10.8754
▁descriptor	-10.8754
▁व्यवस्थापक	-10.8754
▁उत्थापित	-10.8754
▁subscription	-10.8754
▁सरणि	-10.8754
▁उठा	-10.8755
▁"""2.	-10.8755
▁कस्यचन	-10.8756
▁भाति	-10.8756
FF	-10.8756
कीर्ण	-10.8756
▁द्यान्	-10.8756
▁पौलस्त	-10.8757
▁fun	-10.8757
▁सोवदत्	-10.8757
stance	-10.8758
▁गेह	-10.8758
▁चालयन्तु	-10.8758
▁इन्स्ट	-10.8759
▁हरितवर्ण	-10.8759
करणद्वारा	-10.8759
द्रोणाचार्य	-10.8759
वादीद्	-10.876
▁समाधि	-10.8761
▁आवश्यकतानुसारेण	-10.8761
ाचारिणो	-10.8762
$	-10.8763
▁मन्यन्ते	-10.8763
▁शक्ते	-10.8767
▁यिहूदीयदेश	-10.8768
▁पितरस्त	-10.8768
▁शस्त्र	-10.8768
▁अतिरिक्त	-10.8768
ादिशत्	-10.8768
arrow	-10.8769
▁सम्पत्ति	-10.8769
AC	-10.877
▁गुरुतर	-10.877
▁Gradient	-10.8771
▁कीबोर्ड्	-10.8771
▁सर्व्वथा	-10.8771
ेतादृश	-10.8772
साध्यम्	-10.8772
▁कुड्मल	-10.8773
मिच्छन्ति	-10.8773
शक्त्या	-10.8774
▁आद्यता	-10.8774
▁गन्ध	-10.8777
▁बहुविध	-10.8778
▁विशेषरूपेण	-10.8778
▁अकुर्व्वन्	-10.8782
▁प्रचारय	-10.8782
▁परीक्षते	-10.8783
प्रभाव	-10.8784
▁तेषामेक	-10.8785
ुक्तं	-10.8789
▁तन्मध्ये	-10.879
▁भोज्यपदार्थ	-10.8791
▁प्रत्यहं	-10.8791
own	-10.8793
123	-10.8794
▁Label	-10.8796
▁history	-10.8796
Can	-10.8797
▁सर्व्वेभ्यो	-10.8798
▁ज्ञापयति	-10.8798
▁हित्वा	-10.8798
▁मुनि	-10.8799
▁वर्धते	-10.88
▁नोड्स्	-10.8803
6.1	-10.8806
▁वैशिष्ट्यानि	-10.8807
fore	-10.8807
▁Folder	-10.8808
▁एक्सिक्यूशन्	-10.8808
▁ड्रेग्	-10.8808
▁वियोग	-10.8808
▁नद्या	-10.881
▁जितन	-10.8811
▁ऋण	-10.8813
▁स्वयम्	-10.8815
▁अन्यद्	-10.8816
ताभ्यां	-10.8817
▁input	-10.882
▁शाटिक	-10.8821
छिद्र	-10.8821
▁आध	-10.8822
AT	-10.8826
cc	-10.8828
▁अवद	-10.8828
▁वामत	-10.8829
▁यूसर्स्	-10.8831
▁View	-10.8833
▁परिवर्तनीयम्	-10.8834
▁नम्र	-10.8837
▁खोले	-10.8838
पेट	-10.8843
▁extract	-10.8845
माला	-10.8846
▁प्रीयध्व	-10.885
▁source	-10.8858
आप	-10.8866
▁अहमेक	-10.8869
▁भावि	-10.887
▁आगच्छामि	-10.8871
▁श्रोतार	-10.8874
▁आन्	-10.8875
होरा	-10.8884
जाया	-10.8887
▁दोषिण	-10.8891
▁एकैको	-10.89
▁बोधयितु	-10.8903
ref	-10.8905
▁तएव	-10.8905
▁प्रथमतः	-10.8906
प्लै	-10.8909
▁लोप	-10.891
▁विभिन्नप्रकार	-10.891
▁स्थानेषु	-10.8916
▁प्रेरय	-10.894
▁layers	-10.8942
▁परिष्क	-10.8943
▁चेतव्य	-10.8949
▁वानर	-10.895
दिवसे	-10.8951
गच्छन्तु	-10.8959
तद्यथा	-10.8964
▁निर्व	-10.897
▁पीडा	-10.8976
सम्बद्धपाठार्थं	-10.8983
कारेण	-10.899
▁फलत	-10.9006
▁सुस्थिरा	-10.9008
ीकृता	-10.9016
▁होना	-10.9026
पुंस	-10.9037
▁चत्वारो	-10.9041
▁कतिपया	-10.9043
ब्लोक्स्	-10.9044
▁वाक्येन	-10.9052
▁सर्व्वलोका	-10.9054
bon	-10.9056
do	-10.9057
प्रार्थन	-10.9061
त्मक	-10.9063
▁इतीमा	-10.9065
▁उत्स	-10.9069
▁प्रार्थयत	-10.9076
कुण्ड	-10.9077
Login	-10.9077
ुपयुज्य	-10.9088
कर्त्तव्य	-10.909
▁....	-10.9093
▁बनात	-10.9095
▁Fi	-10.9096
▁वदन्त	-10.9096
▁उन्	-10.9102
▁स्पृष्ट	-10.9103
▁लोह	-10.9105
दिग	-10.9108
भिलाष	-10.9112
▁उभयत	-10.9131
ेन्स्	-10.9137
▁पण	-10.9146
िच्छेद	-10.9147
पात्राणि	-10.9157
"$	-10.9159
▁अमर	-10.9159
ational	-10.9164
not	-10.917
पोषण	-10.9176
प्रदूषण	-10.9178
सामर्थ्य	-10.9179
ऐटम्	-10.9179
Display	-10.9179
छात्र	-10.9179
सैट्	-10.9179
साँस	-10.918
कुर्वन्तु	-10.918
println	-10.918
दुग्ध	-10.918
सम्पुट	-10.918
सिस्टम्	-10.918
new	-10.9181
एलिमेण्ट्	-10.9182
भ्राम	-10.9183
this	-10.9184
ऋ	-10.9185
▁प्रिया	-10.9186
else	-10.9188
▁कुल	-10.9191
▁कथयत	-10.9192
▁पतन	-10.9201
ायें	-10.9203
ानीव	-10.9203
cat	-10.9212
▁योजनाया	-10.9212
सूचना	-10.9215
एरो	-10.9215
▁वपु	-10.9219
▁पिव	-10.9223
परीक्षा	-10.925
▁उल्ल	-10.9254
......	-10.9258
दृष्टि	-10.9262
विध्य	-10.9269
▁उपयोक्तुमर्ह	-10.9281
सञ्चिकया	-10.9287
स्तस्माद्	-10.9295
▁गच्छत	-10.9295
▁सम्मिलित	-10.9298
▁गृह्णी	-10.9299
▁पादपान	-10.9308
तरु	-10.9313
ङ	-10.9315
▁प्रदर्शयाम	-10.9316
▁सम्भाष	-10.9317
▁परिवर्तनीय	-10.9331
जनाना	-10.9334
▁प्रोटीन	-10.9336
▁ताक	-10.934
pro	-10.9347
मनुसृत्य	-10.936
कर्म्मणा	-10.936
▁नियंत्र	-10.9366
सुक्तस्य	-10.937
▁आनयन्	-10.9371
board	-10.9372
output	-10.9374
चूर्ण	-10.9374
सूक्तस्य	-10.9375
▁विवृण	-10.9377
bject	-10.9377
▁अङ्गुली	-10.9377
TestData	-10.9377
anirban	-10.9377
#	-10.9377
▁कम्पोनेण्ट्	-10.9377
▁विसृज	-10.9377
ISBN	-10.9377
eedback	-10.9377
expression	-10.9377
firefox	-10.9377
hase	-10.9377
ppear	-10.9377
vertical	-10.9377
}	-10.9377
क्यान्वास्	-10.9377
टाइपिंग	-10.9377
बूलियन्	-10.9377
मञ्जूषा	-10.9377
मस्किष्क	-10.9377
ानन्तरम्	-10.9377
▁English	-10.9377
▁Move	-10.9377
▁Pattern	-10.9377
▁Subject	-10.9377
▁Volume	-10.9377
▁content	-10.9377
▁exception	-10.9377
▁कण्टक	-10.9377
▁डिफाल्ट्	-10.9377
▁पञ्चमहाभूत	-10.9377
▁प्रगल्भ	-10.9377
▁प्राप्स्यथ	-10.9377
▁फुस्फुस	-10.9377
▁बभाषिरे	-10.9377
▁ब्रवीमि	-10.9377
▁संतुलित	-10.9377
▁संपर्क	-10.9377
▁स्ट्रोक्	-10.9377
copies	-10.9377
onfirm	-10.9377
फैनल्	-10.9377
▁ज़ूम्	-10.9377
▁युष्मदर्थ	-10.9377
▁र्यीशो	-10.9377
Issue	-10.9377
▁Connection	-10.9377
▁उद्घाटयतु	-10.9377
▁प्रचलति	-10.9377
▁पृथग्	-10.9377
▁मेनिरे	-10.9377
ffice	-10.9377
TION	-10.9377
▁कार्यालय	-10.9377
vision	-10.9377
▁निवर्त्त	-10.9377
▁उठाएं	-10.9377
intro	-10.9377
वरुह्य	-10.9377
▁जटिल	-10.9377
आवृत्तेः	-10.9377
▁इन्टर्फेस्	-10.9377
▁Shell	-10.9378
▁ऊँ	-10.9378
▁इन्क्रिमेण्ट्	-10.9378
▁बच्चो	-10.9378
▁गणेश	-10.9378
▁white	-10.9378
लाइन	-10.9378
▁डेटाटैप्	-10.9378
▁ध्यातव्य	-10.9378
ोड़ें	-10.9378
▁लौट	-10.9378
▁Palette	-10.9378
▁गन्तुम्	-10.9378
परमाणु	-10.9379
▁setup	-10.9379
▁क्लिष्ट	-10.9379
▁विद्यालय	-10.9379
▁दशरथ	-10.9379
duck	-10.9379
▁दिव्य	-10.9379
▁संविधा	-10.9379
▁चेहर	-10.938
▁Username	-10.938
▁परिष्करण	-10.938
▁वदिष्यति	-10.938
▁मन्ये	-10.938
ture	-10.938
▁आरामदायक	-10.938
▁चित्रचालनं	-10.9381
▁सुरक्षा	-10.9381
▁सन्देह	-10.9381
SV	-10.9382
▁अनुमत	-10.9382
▁भावयामि	-10.9382
▁उपाय	-10.9382
यस्मात	-10.9383
करणानन्तरं	-10.9383
▁भरें	-10.9384
▁झुकें	-10.9384
▁जीविष्यति	-10.9386
▁प्याकेज्	-10.9387
▁निरीक्षमाण	-10.9387
▁योजितवन्तः	-10.9387
▁वर्णित	-10.9388
स्तादृश	-10.9388
▁वेत्	-10.9388
▁बाई	-10.9388
AR	-10.9388
▁निक्षिप्त	-10.939
▁तदनुसारेण	-10.939
श्चेत्	-10.9391
▁तदधिक	-10.9392
▁क्लासस्	-10.9392
▁स्वीक्रियते	-10.9392
▁सदस्य	-10.9394
▁अनुक्रम	-10.9395
▁श्रोत्र	-10.9395
▁उपग्रह	-10.9396
▁भविष्यामि	-10.9397
▁कैश्च	-10.9397
क्षोभ	-10.9397
▁application	-10.9397
▁माकिदनियादेश	-10.9397
▁area	-10.9399
ेष्वपि	-10.9399
▁ज्ञानयोग	-10.94
▁आत्मिक	-10.94
▁त्रिषु	-10.94
पश्यताम्	-10.9401
▁सादृश्य	-10.9401
▁किमप्य	-10.9403
DD	-10.9403
▁इत्यादिषु	-10.9404
▁विख्यातो	-10.9404
▁आनेतु	-10.9405
▁र्यीशु	-10.9408
▁देने	-10.941
▁पार्श्वस्थ	-10.9411
माहूय	-10.9411
▁अद्यापि	-10.9412
▁कियत्	-10.9413
▁पृष्टतः	-10.9415
कुल	-10.9416
▁तर्जन	-10.9417
▁प्रहर	-10.9421
▁रखना	-10.9421
▁प्राप्तवानस्	-10.9422
▁प्रतिकूल	-10.9423
layer	-10.9424
▁पठाम	-10.943
▁अर्चक	-10.943
मपेक्ष	-10.9432
विविध	-10.9432
war	-10.9433
▁पठिष्याम	-10.9434
▁तावत्काल	-10.9436
दुःखभोग	-10.9436
▁याहि	-10.9439
▁दर्शनीय	-10.944
रक्षणाय	-10.9442
▁ओपन्	-10.9443
▁जङ्घ	-10.9452
बसे	-10.9455
▁फैल	-10.9455
▁इत्येतद्	-10.9455
ोऽकथयत्	-10.9457
▁वितरण	-10.946
धिपते	-10.9463
▁रेकार्ड्स्	-10.9463
▁वेश्या	-10.9464
ीकुरु	-10.9464
▁स्थानात्	-10.9469
▁cl	-10.9472
ओ	-10.9478
▁Items	-10.9483
▁तस्मान्	-10.9483
▁पर्यावरणस्य	-10.9488
▁80	-10.9498
▁घोषय	-10.9502
▁प्रवर्त्त	-10.9503
▁सीव	-10.9508
▁विद्यमानाना	-10.9514
▁वर्धयाम	-10.9517
▁निदेश	-10.9517
ावृत	-10.9518
र्पित	-10.9528
▁चलन	-10.9531
▁आकृती	-10.9539
▁पथि	-10.9548
ादपि	-10.9553
▁कुरुक्षेत्र	-10.9554
▁अंतर	-10.9554
▁सूर्य्य	-10.9561
▁नाशयितु	-10.9578
▁लोकाश्च	-10.958
दिस्	-10.959
ole	-10.9591
घटक	-10.96
▁प्रार्थये	-10.9615
▁वाक्यमिद	-10.9616
▁विफल	-10.9616
ऽस्माभि	-10.9618
MB	-10.9619
▁हिंस	-10.9621
शुद्ध	-10.964
▁मापन	-10.9643
ner	-10.9648
भृत	-10.9656
▁भीता	-10.9656
▁सन्धारिकाया	-10.9663
▁शीतल	-10.9664
रुद्ध	-10.9669
AME	-10.9671
▁भवितव्या	-10.9674
िटि	-10.968
▁वत्स	-10.9687
▁आने	-10.9687
मिश्रित	-10.9694
▁60	-10.9719
▁उपातिष्ठ	-10.9719
▁समुपस्थित	-10.9721
पत्राणि	-10.9731
▁द्वयम	-10.9738
ागम	-10.974
नन्तजीवन	-10.975
सभाया	-10.9757
▁लाल	-10.9757
▁अंत	-10.9763
▁समाप्ति	-10.9763
▁सैनिका	-10.9773
▁छात्राणा	-10.9779
▁प्रायश	-10.9787
श्री	-10.9791
▁निवेदय	-10.9798
▁योषिता	-10.98
▁न्यूनीकरो	-10.982
enter	-10.9826
▁अभ्यस	-10.9827
▁non	-10.9831
▁त्याजय	-10.9833
▁बहिर्गत	-10.9833
इतीदम	-10.9835
▁वेल	-10.9842
वह्न	-10.9843
जालपुट	-10.9843
angle	-10.9843
सिंहासन	-10.9844
Insert	-10.9844
book	-10.9845
सर्च्	-10.9845
दृष्टान्त	-10.9846
Path	-10.9846
निष्कासन	-10.9846
निर्दिष्ट	-10.9846
प्राणायाम	-10.9847
वेब्	-10.9847
Koha	-10.9847
Tutorial	-10.9847
Linux	-10.9848
विण्डो	-10.9848
स्पेस्	-10.9848
block	-10.9852
प्रत्यय	-10.9853
▁इत्यादिना	-10.9856
▁अत्राह	-10.9866
▁सेलेक्ट	-10.9879
धारेण	-10.9881
▁वनवास	-10.9889
कार्याणि	-10.9894
क्त्वा	-10.9899
सर्वर्	-10.9901
कुर्म	-10.9908
▁फैला	-10.9919
खाद	-10.9921
प्रारंभिक	-10.9924
निर्गत	-10.9927
▁यिहूदीयास्त	-10.9927
मूल्यानि	-10.9932
ोऽस्माभि	-10.9936
तद्वार्त्ता	-10.9948
इत्येत	-10.995
▁खोल	-10.9952
वार्त्ता	-10.9956
▁यावद	-10.9964
▁Cl	-10.9972
कथयन्	-10.9972
स्तै	-10.9974
भिरुचित	-10.9982
▁बद्धा	-10.9984
ावां	-10.9986
▁इम्प्लिमेण्ट	-10.9993
▁इत्यादीन	-10.9999
▁हनुमान	-11.0002
निन्दित	-11.0006
▁प्रत्येत	-11.001
▁परित्यज	-11.0011
▁ईश्वरराज्य	-11.0015
उद्घाट	-11.0015
▁आश्चर्य	-11.0015
▁कदाचित	-11.0019
▁भुञ्ज	-11.003
दर्शित	-11.003
ालक	-11.0034
ागच्छत्	-11.0039
urrency	-11.0041
चलच्चित्र	-11.0041
▁descript	-11.0042
ॄ	-11.0043
ैर्य्य	-11.0043
▁Exp	-11.0043
▁कफर्नाहूम	-11.0044
▁इतीमान्	-11.0044
Program	-11.0044
mouse	-11.0044
scape	-11.0044
{	-11.0044
एक्सेप्शन्	-11.0044
एड्मिन्	-11.0044
प्रातिकूल्य	-11.0044
ब्लास्ट्	-11.0044
स्टैपण्ड्	-11.0044
▁Animal	-11.0044
▁HelloWorld	-11.0044
▁PDF	-11.0044
▁Value	-11.0044
▁administrator	-11.0044
▁character	-11.0044
▁invoice	-11.0044
▁private	-11.0044
▁range	-11.0044
▁scope	-11.0044
▁team	-11.0044
▁true	-11.0044
▁उल्लिखित	-11.0044
▁कस्मिंश्चित	-11.0044
▁झटिति	-11.0044
▁ट्रान्सेक्षन्	-11.0044
▁दिवानिशं	-11.0044
▁द्रक्ष्यन्ति	-11.0044
▁ध्रुव	-11.0044
▁भजनगेह	-11.0044
▁भवितुमर्हन्ति	-11.0044
▁भोजनपरिवेशन	-11.0044
▁वेय्ट्	-11.0044
▁सम्पृच्यताम्	-11.0044
▁सिखरिय	-11.0044
<	-11.0044
orizontal	-11.0044
▁tax	-11.0044
▁आधुनिक	-11.0044
▁आर्यभट्ट	-11.0044
▁कुक्कुर	-11.0044
▁ज्येष्ठ	-11.0044
▁भगिन्य	-11.0044
▁सङ्गृह्णाति	-11.0044
▁inode	-11.0044
▁syn	-11.0044
▁अङ्गुलय	-11.0044
▁अन्वेष्टव्य	-11.0044
▁स्मृत्वा	-11.0044
जर्नल्	-11.0044
cial	-11.0044
▁अनयोरुप	-11.0044
▁पर्मिशन्	-11.0044
▁पिधातु	-11.0044
▁युष्मन्निमित्त	-11.0044
बयोपैथन्	-11.0044
▁डेस्क	-11.0044
▁धातूना	-11.0044
xcf	-11.0044
मारेभिरे	-11.0044
riya	-11.0044
▁उभौ	-11.0044
▁निष्फल	-11.0044
▁भंक्त्वा	-11.0044
▁दण्डायमान	-11.0044
lease	-11.0044
▁drop	-11.0044
▁वक्तव्यं	-11.0044
▁सर्व्वशक्तिम	-11.0044
▁उत्थित	-11.0044
▁कीटनाशक	-11.0044
▁आनंद	-11.0044
▁ज्वर	-11.0045
ावसरे	-11.0045
▁see	-11.0045
जननिवह	-11.0045
▁झुकाऐं	-11.0045
▁Draw	-11.0045
▁सङ्कलयन्तु	-11.0045
▁जनकराग	-11.0045
ॄणां	-11.0045
imple	-11.0045
▁operator	-11.0045
▁उच्छिन्न	-11.0046
▁त्रिभुज	-11.0046
▁धूल	-11.0046
▁क्लोसिङ्ग्	-11.0046
▁शेर्	-11.0046
▁संयोजितुम्	-11.0046
▁अवारोप	-11.0046
▁सर्वश्रेष्ठ	-11.0047
▁गुरू	-11.0047
▁वदिष्यन्ति	-11.0047
▁स्थापयितुम्	-11.0047
▁200	-11.0047
▁यीशुरवदत्	-11.0047
▁यीशुरकथय	-11.0047
▁नर्तक	-11.0047
▁द्राक्षाक्षेत्र	-11.0048
▁चालयित्वा	-11.0048
▁प्रशिक्षक	-11.0048
क्रियया	-11.0048
▁त्राण	-11.0048
▁आयुर्वेद	-11.0048
▁प्रहृत	-11.0048
▁stop	-11.0048
▁दर्शयिष्यामि	-11.0048
▁पीतवर्ण	-11.0048
▁द्विगुण	-11.0049
▁निष्कासयितुं	-11.0049
▁size	-11.0049
चतुर्थ	-11.0049
▁255	-11.005
▁आशिष	-11.005
▁कर्मयोग	-11.005
कृष्य	-11.0051
▁यच्छाम	-11.0051
सोर्स्	-11.0051
▁सर्व्वाण्य	-11.0053
▁विश्वसन्त	-11.0053
▁अवश्यकता	-11.0054
ella	-11.0054
▁प्रणम्य	-11.0055
▁बृहद्	-11.0055
▁लंब	-11.0055
▁Dis	-11.0055
▁प्रोच	-11.0056
ाग्नि	-11.0057
अन्तर्जालसम्पर्क	-11.0057
▁added	-11.0057
चिन्ह	-11.0057
▁निवसन्ति	-11.0057
▁वदसि	-11.0058
▁परिहार	-11.0058
▁त्यजन्तु	-11.006
टाक्	-11.006
▁18	-11.0062
▁ताम्र	-11.0062
▁संहत	-11.0063
नुवाद	-11.0063
▁BO	-11.0063
▁बनान	-11.0064
▁बढ़ात	-11.0065
▁लब्धवान्	-11.0065
▁लभ्यमान	-11.0066
▁भूमिका	-11.0066
▁स्वप्राणान	-11.0067
▁35	-11.0067
▁अज्ञात	-11.0068
▁अद्भुत	-11.0068
▁प्रक्षालय	-11.0072
▁स्थापितवान्	-11.0072
शुक्ल	-11.0073
ick	-11.0074
▁कोमल	-11.0076
▁आधारेण	-11.0078
▁सर्व्वविध	-11.008
▁स्वसमीप	-11.008
▁स्वेच्छ	-11.008
▁भ्रामयेत	-11.008
ेषू	-11.0081
पौत्र	-11.0082
▁बोण्ड्स्	-11.0084
▁अपवित्र	-11.0084
▁योध	-11.0085
▁Id	-11.0089
▁3.2	-11.0089
▁स्लैड्स्	-11.009
▁चात्र	-11.0091
▁लक्ष्मी	-11.0092
▁केचित	-11.0092
रीढ़	-11.0095
▁प्रचार्य्य	-11.0097
▁ऐटम्स्	-11.0099
▁ददति	-11.0101
बिन्दो	-11.0106
स्तदर्थं	-11.0107
▁विकासाय	-11.0109
▁युवयो	-11.011
▁बन्द	-11.0111
श्चास्ति	-11.0117
ैतद्	-11.0118
▁Ve	-11.0118
ऽर्थत	-11.0125
ुवन्ति	-11.0127
▁ab	-11.0129
▁शाप	-11.0132
▁बहुमूल्य	-11.0139
▁अत्रास्ति	-11.014
▁items	-11.014
▁लेयर्स्	-11.0145
▁साधनपेटिकाया	-11.0152
▁यीशुस्तेषा	-11.0158
▁रक्षणीय	-11.0162
▁जनाना	-11.0163
▁निष्कासयेत	-11.0168
कथाकथन	-11.0169
मत्कृत	-11.0173
▁पुनरावर्तन	-11.0173
गामी	-11.0175
▁हिप	-11.0178
▁इन्द्रिय	-11.0182
▁अन्त्य	-11.0183
▁मोक्ष	-11.0187
▁भिन्नजातीया	-11.0193
▁न्याय्य	-11.0201
श्चैते	-11.0204
▁केनचित	-11.0207
गमत्	-11.0223
▁आसन्द	-11.0224
▁एतावत	-11.0224
▁केनचि	-11.0229
▁आचरण	-11.0229
▁Red	-11.0231
लिप	-11.0251
तामह	-11.0255
▁देत	-11.0279
Actions	-11.0287
ारयितुं	-11.0293
▁परिक्रमा	-11.0306
धृत	-11.0307
शोक	-11.0308
▁नामकरण	-11.0312
अस्मात	-11.0315
युक्तमस्ति	-11.0321
विधाय	-11.0321
▁प्रदाय	-11.0322
वर्षाणि	-11.0327
▁वृष	-11.034
लार्	-11.0348
▁entr	-11.0356
दीर्घतम	-11.0359
ट्रू	-11.0381
▁यदीश्वर	-11.0393
लोकास्त	-11.0395
रत्न	-11.0403
तदधिका	-11.041
▁समागम	-11.0418
▁ग्राह	-11.0418
▁अनुवर्त	-11.0423
अहम	-11.0432
▁भास	-11.0436
क्षेप्स्य	-11.0443
पृच्छत्	-11.0453
▁परिचर्य्या	-11.0453
▁ड्र	-11.0455
कुरुत	-11.0473
▁आगमिष्य	-11.0487
▁सञ्चिकानाम	-11.0496
▁प्रभू	-11.0502
▁Action	-11.0504
▁वपन	-11.0512
सन्दर्भे	-11.0513
भ्रातृणा	-11.052
head	-11.0528
ेच्छया	-11.0533
▁संयुज्य	-11.0536
▁पितुर	-11.0544
▁Gl	-11.0549
ोऽपर	-11.0549
▁वानरा	-11.0553
▁इतोप	-11.0557
डेश्	-11.0558
ऊ	-11.0558
कर्ण	-11.0558
उबण्टु	-11.0558
गौरव	-11.0559
एप्लिकेशन्	-11.0559
स्मरन्तु	-11.056
LaTeX	-11.056
यिहूदा	-11.056
data	-11.0561
Edit	-11.0561
FrontAccounting	-11.0561
करतल	-11.0562
बाध	-11.0562
admin	-11.0562
सूची	-11.0562
विश्राम	-11.0563
यिरूशालम	-11.0563
भोज्य	-11.0564
Sale	-11.0564
पूर्वतन	-11.0564
▁ईश	-11.0565
स्पष्ट	-11.0567
पश्यामः	-11.0568
▁एतस्मात	-11.0571
एक्स्	-11.0586
हाँ	-11.0589
िच्छा	-11.0592
लूप्	-11.0596
चिनोत	-11.0599
थ्रेड	-11.0599
ization	-11.0605
नौक	-11.0616
▁परिवर्तयाम	-11.062
▁मोड	-11.0632
ii	-11.0634
date	-11.0644
▁उद्ग	-11.0645
विरुद्ध	-11.0649
arch	-11.0658
▁अंगूठ	-11.0663
▁न्याय	-11.0668
भक्त्या	-11.0668
▁अन्न	-11.0672
शाल	-11.0672
graphic	-11.0674
▁विवरिष्य	-11.0674
बाज	-11.069
▁कस्माद	-11.0696
तदनन्तरम्	-11.0701
▁फील्ड	-11.0714
▁सूक्त	-11.0721
▁अर्च	-11.0721
मात्राया	-11.0722
▁ज्ञास्यन्त	-11.0725
▁कुड्म	-11.0727
टेग्	-11.0746
lass	-11.0751
ग्राहिण	-11.0752
▁Blu	-11.0753
▁Method	-11.0754
▁द्योत	-11.0755
ubscription	-11.0756
▁ध्या	-11.0756
▁Libr	-11.0758
▁Front	-11.0758
parentheses	-11.0758
दौर्ब्बल्य	-11.0758
▁अवशोषित	-11.0758
▁एक्टिविटि	-11.0758
Condition	-11.0758
Evolutes	-11.0758
Question	-11.0758
Staff	-11.0758
complete	-11.0758
lack	-11.0758
second	-11.0758
sequence	-11.0758
आन्तियखियानगर	-11.0758
चतुष्टय	-11.0758
पार्ष्णी	-11.0758
वेरियबल्	-11.0758
▁0.48.4	-11.0758
▁8080	-11.0758
▁Acquisition	-11.0758
▁Author	-11.0758
▁administration	-11.0758
▁argument	-11.0758
▁move	-11.0758
▁throw	-11.0758
▁अन्विषन्तु	-11.0758
▁आपरेषन्	-11.0758
▁आर्ग्यूमेण्ट्	-11.0758
▁गम्भीर	-11.0758
▁गृह्लीत	-11.0758
▁चिबुक	-11.0758
▁डिक्लरेशन्	-11.0758
▁डिफैन्	-11.0758
▁दम्मेषकनगर	-11.0758
▁निष्कास्य	-11.0758
▁प्रोपर्ट	-11.0758
▁भुङ्क्ते	-11.0758
▁रिसोर्सस्	-11.0758
▁र्भवितव्यं	-11.0758
▁व्याजहार	-11.0758
Static	-11.0758
▁Mode	-11.0758
▁action	-11.0758
▁success	-11.0758
▁आरभन्त	-11.0758
▁जीर्ण	-11.0758
▁ट्रान्स्लेट्	-11.0758
▁सौर्स्	-11.0758
erspective	-11.0758
oice	-11.0758
जग्मुः	-11.0758
▁suggestion	-11.0758
▁पुरस्तात्	-11.0758
▁पृष्ठबलेन	-11.0758
▁वच्मि	-11.0758
▁शत्रून	-11.0758
▁निर्वहति	-11.0758
▁यदेतद्	-11.0758
▁अवनयामि	-11.0758
▁उपदेष्ट	-11.0758
▁नेच्छामि	-11.0758
▁भस्मासुर	-11.0758
▁सफाई	-11.0758
Report	-11.0758
पतंजलि	-11.0758
शक्तिविकासक	-11.0758
▁निद्रित	-11.0758
▁align	-11.0758
▁इत्यस्याधस्तात्	-11.0758
Awk	-11.0758
▁आहत्य	-11.0758
▁इमेजस्	-11.0758
▁समन्वय	-11.0758
▁आवली	-11.0758
▁कस्मिन्नपि	-11.0758
▁kern	-11.0758
▁द्रढय	-11.0758
▁इस्रायेलीयलोक	-11.0758
▁पूर्णाङ्क	-11.0758
▁वार्लि	-11.0758
▁World	-11.0758
RNA	-11.0758
▁एकलव्य	-11.0758
ाश्रिता	-11.0758
▁Area	-11.0758
▁पिदधातु	-11.0758
स्ट्रेच	-11.0758
▁शौच	-11.0759
ाह्वान	-11.0759
▁Sheet	-11.0759
▁कारिष्यते	-11.0759
▁अणुसङ्केत	-11.0759
ओवर्लोडिङ्ग्	-11.0759
▁आवश्यक्ता	-11.0759
▁Export	-11.0759
▁गृह्लन्ति	-11.0759
▁चतुर	-11.0759
▁धृतराष्ट्र	-11.0759
▁Forum	-11.0759
▁ग्रन्थसूची	-11.0759
शलाका	-11.0759
ाज्ञाग्राहिण	-11.0759
▁परिशीलन	-11.0759
ोत्थान	-11.076
▁वेतन	-11.076
▁कैसरस्य	-11.076
▁Fix	-11.076
ular	-11.076
egular	-11.076
▁ज्ञापितवान्	-11.076
▁Turn	-11.076
▁यीशुरुवाच	-11.076
▁दक्षिणनोदन	-11.0761
ट्रान्स्	-11.0761
▁कतिपयदिन	-11.0761
स्टेट्मे	-11.0761
▁गेर्	-11.0761
▁रोटिका	-11.0762
मेंट्	-11.0762
▁unit	-11.0762
▁व्यवस्थित	-11.0762
▁बिन्दून	-11.0762
पेलव	-11.0763
▁त्वदीय	-11.0763
▁धनात्मक	-11.0763
▁कस्याप्य	-11.0764
▁पूरणीय	-11.0764
▁चक्रुः	-11.0764
▁योगसूत्र	-11.0764
▁प्रदद	-11.0764
▁opt	-11.0764
बिंदु	-11.0765
▁छोट	-11.0765
▁Classes	-11.0765
▁अधीत	-11.0765
▁युध्य	-11.0765
▁कार्यविधान	-11.0766
▁अददात्	-11.0766
▁मार्गदर्शन	-11.0766
▁भारतदेश	-11.0766
▁पातयित्वा	-11.0767
▁नास्तीति	-11.0767
▁असुर	-11.0767
▁अणो	-11.0767
▁पाठनियोजनमस्ति	-11.0768
ndex	-11.0769
▁दर्शयामः	-11.0769
द्वेष	-11.0769
▁अनामिक	-11.0769
▁आलुक	-11.0769
वधेय	-11.0769
▁गृहीतवान्	-11.0771
▁जानासि	-11.0771
▁नियंत्रित	-11.0771
▁अपसारय	-11.0772
▁Sum	-11.0773
▁पठन्तु	-11.0773
▁अहङ्कार	-11.0773
▁कैश्चित	-11.0773
▁प्रकल्पाय	-11.0774
▁शिष्यगण	-11.0774
▁महाराज	-11.0774
दधाति	-11.0775
▁गालीलीय	-11.0776
▁प्रसारयेत	-11.0776
▁चलचित्र	-11.0776
hic	-11.0777
▁खुशी	-11.0777
▁कथयन्ति	-11.0777
▁जङ्घाया	-11.0777
▁सहस्रसेनापति	-11.0778
▁भविष्यसि	-11.0779
▁विलम्ब	-11.0779
टेग्स्	-11.078
▁र्दूत	-11.078
▁अवधि	-11.0782
▁आम्र	-11.0782
▁धारयन्ति	-11.0783
▁उपयुक्तवन्तः	-11.0783
▁खादन्ति	-11.0784
▁मूलभूत	-11.0785
▁तावद्	-11.0785
▁एफ	-11.0789
▁शिष्ट	-11.0791
showDetails	-11.0791
▁दर्शितवान्	-11.0792
▁इत्ययं	-11.0792
▁श्वान	-11.0794
▁आस्म	-11.0795
▁ज्ञास्यन्ति	-11.0795
▁अनुसारेण	-11.0795
▁चेदपि	-11.0797
▁शान्तिश्च	-11.08
▁हनुमान्	-11.0803
▁दक्षिणपार्श्व	-11.0804
▁रक्षितवान्	-11.0805
▁लेटयेत	-11.0811
▁आन्स्	-11.0816
▁अकथय	-11.0818
▁Pic	-11.0818
center	-11.0821
▁उपकरणानि	-11.0822
▁भगवद्गीताया	-11.0823
▁स्थानीय	-11.0823
▁वारय	-11.0824
▁इत्यस्यारम्भ	-11.0826
▁आसान	-11.0826
दिवस	-11.0828
▁तत्कृते	-11.0829
▁प्रकल्प	-11.0831
▁सन्तीति	-11.0832
▁तत्कर्तुं	-11.0833
ीकरिष्यति	-11.0842
िमाग	-11.0843
▁पूरयति	-11.0846
▁बहिरागच्छ	-11.0848
yle	-11.0849
कोशिकीय	-11.085
▁गाव	-11.0855
▁पृष्ठत	-11.0855
▁मृग	-11.0856
▁वक्ति	-11.0862
▁यथार्थतर	-11.0862
वयमादौ	-11.0863
▁ऊह	-11.0869
कीबोर्ड	-11.087
▁चिन्तयति	-11.0873
▁यावत्काल	-11.0883
▁प्रारंभ	-11.0888
▁इष्टिका	-11.0889
▁अधस्थ	-11.089
▁शिशूना	-11.09
▁वन्य	-11.0901
▁can	-11.0908
▁विनीय	-11.0918
ब्ध	-11.0919
्ट्स्	-11.0927
▁दोहरा	-11.0931
▁सर्वप्रथम	-11.0933
▁युष्माकमेक	-11.0936
वेश्य	-11.0938
रोगिण	-11.0948
▁वामभाग	-11.0968
ग्रहीत	-11.0969
▁द्वितीयवार	-11.0971
▁उत्तिष्ठेत	-11.0972
ृष्ट्वा	-11.099
▁अपेक्षिता	-11.0993
सहित	-11.1002
▁तत्वान	-11.1007
तदर्थम्	-11.1013
▁Gra	-11.1019
.........	-11.1031
जाल	-11.1037
▁शूर	-11.1044
कर्तार	-11.1045
rial	-11.105
रज्जु	-11.1064
▁प्रजात	-11.1085
▁त्रयाणा	-11.1087
▁व्याख्यान	-11.1096
▁शरीरात	-11.1111
▁सम्पादक	-11.1112
▁जीवाणु	-11.115
▁सूच्य	-11.1178
धिपतित्व	-11.1192
▁सुस्थिर	-11.12
ाञ्चक्रिरे	-11.1204
▁द्विधा	-11.1222
▁हेतोस्त	-11.1226
वैज्ञानिक	-11.1259
▁प्रचारयन्	-11.1279
वस्तूनि	-11.128
roperties	-11.1288
▁मानुषाणा	-11.1296
▁चालन	-11.1306
▁विश्रामवार	-11.1317
करोमि	-11.1318
▁भोज	-11.1321
िच्छति	-11.1321
info	-11.1326
सम्मुख	-11.1328
link	-11.1328
version	-11.1328
वैशिष्ट्य	-11.1328
प्रसन्न	-11.1328
नम्बर्	-11.1329
Hello	-11.1329
address	-11.1329
Home	-11.1329
Create	-11.133
उपयोग	-11.133
स्टेटिक्	-11.133
हेण्डल्	-11.133
गर्भ	-11.133
फङ्क्षन्	-11.133
फ़ैल्	-11.133
नक्षत्र	-11.133
पेटर्न्	-11.133
type	-11.1331
संस्कृत	-11.1331
Enter	-11.1331
किञ्चन	-11.1332
करोतु	-11.1332
अहमत्र	-11.1335
पर्याय	-11.1336
Save	-11.1336
निरीक्षण	-11.1345
दानाय	-11.1353
धिपति	-11.1361
गन्तुं	-11.1364
▁संध्या	-11.1368
▁जलध	-11.1375
हरित	-11.1383
▁गच्छन्त	-11.1387
▁नोद	-11.1399
▁यन्म	-11.1399
▁उत्थापय	-11.1406
जङ्घा	-11.1415
▁अपेक्ष्य	-11.1419
▁दूरीकृत	-11.1422
तुष्	-11.1428
▁धीर	-11.1435
▁मज्जित	-11.1459
मण्डली	-11.1461
ालयामि	-11.1475
रक्षित	-11.1479
▁एक्लिप्स	-11.1487
▁बिल्	-11.1487
पेटिकायां	-11.1489
वलोक्यताम्	-11.15
प्रणाल्य	-11.1503
ादिनां	-11.1504
▁तत्पश्चाद	-11.1505
▁arr	-11.1507
▁प्रयुज्य	-11.1514
▁पोषक	-11.1515
काशात्	-11.1517
▁विवेक	-11.152
▁टर्मिन	-11.1521
▁पाटल	-11.1522
▁अददा	-11.1523
▁Tab	-11.1524
युञ्ज	-11.1524
ontact	-11.1525
clipse	-11.1526
गृह्लात	-11.1527
▁किन्त्वह	-11.1527
▁crop	-11.1527
project	-11.1527
Advanced	-11.1527
TestEmployee	-11.1527
author	-11.1527
errorMsgs	-11.1527
gress	-11.1527
htdocs	-11.1527
html	-11.1527
lready	-11.1527
mysql	-11.1527
saturation	-11.1527
ऑ	-11.1527
दृढीक्रियता	-11.1527
न्फिगर	-11.1527
यूटोरियल	-11.1527
▁Argument	-11.1527
▁Launch	-11.1527
▁Standard	-11.1527
▁bank	-11.1527
▁brace	-11.1527
▁location	-11.1527
▁navigat	-11.1527
▁parameter	-11.1527
▁ratio	-11.1527
▁आन्तरिक	-11.1527
▁आशीर्वाद	-11.1527
▁ऊर्द्ध्व	-11.1527
▁एजुकेशन	-11.1527
▁एब्स्ट्रेक्ट्	-11.1527
▁कण्टेण्ट्	-11.1527
▁तीमथिय	-11.1527
▁धनुषाकार	-11.1527
▁प्रत्यर्पयति	-11.1527
▁प्राप्स्यन्ति	-11.1527
▁प्राप्स्यसि	-11.1527
▁प्रोटोजा	-11.1527
▁भीमसेन	-11.1527
▁भुजंगासन	-11.1527
▁भोक्तव्य	-11.1527
▁युगपन्नुत्वा	-11.1527
▁लप्स्यध्वे	-11.1527
▁वक्तुमारेभिरे	-11.1527
▁वाक्पट	-11.1527
▁शतसेनापति	-11.1527
▁संलग्न	-11.1527
▁स्टेटस्	-11.1527
▁स्तिफान	-11.1527
पाठार्थमहम्	-11.1527
▁details	-11.1527
▁eye	-11.1527
▁running	-11.1527
▁नामाङ्कित	-11.1527
▁पाकशालाया	-11.1527
▁पापमोचन	-11.1527
▁मेमोरि	-11.1527
crap	-11.1527
▁more	-11.1527
▁क्रियाकलाप	-11.1527
▁युज्यते	-11.1527
igit	-11.1527
अवधीयता	-11.1527
▁ज्ञास्यति	-11.1527
▁परिशोध	-11.1527
▁पुरस्कार	-11.1527
▁प्राप्स्याम	-11.1527
▁रेफर्	-11.1527
obal	-11.1527
▁सेकेण्ड्	-11.1527
ission	-11.1527
▁Exit	-11.1527
▁रोमिलोक	-11.1527
▁भोक्ता	-11.1527
▁प्रचण्ड	-11.1527
डैरेक्ट	-11.1527
▁कीदृग्	-11.1527
▁संस्कृतभाषाया	-11.1527
▁मूढ	-11.1528
▁गालील्प्रदेश	-11.1528
ोत्पन्न	-11.1528
ontext	-11.1528
ध्यात्मिक	-11.1528
▁वक्ष्यति	-11.1528
क्लोरो	-11.1528
▁मातृ	-11.1528
▁संगृह्य	-11.1528
▁जंगल	-11.1528
▁मुष्टिक	-11.1528
भौतिक	-11.1528
▁गभीर	-11.1528
▁पित्रो	-11.1528
ैतादृश	-11.1528
ोपविश	-11.1528
▁ऊर्ध्वभागे	-11.1528
▁beamer	-11.1529
▁पद्धति	-11.1529
Send	-11.1529
▁किञ्चिदधिक	-11.1529
▁सततं	-11.1529
▁फेनक	-11.1529
▁बाणचिह्न	-11.1529
▁ययौ	-11.1529
▁Installation	-11.1529
▁प्रोचुः	-11.1529
▁केषांच	-11.1529
▁विज्ञाप	-11.1529
anual	-11.1529
स्टिच	-11.153
▁अवगन्तुं	-11.153
▁नानु	-11.153
▁Normal	-11.153
▁hand	-11.153
base	-11.153
▁कर्तुमिच्छामि	-11.1531
ार्पण	-11.1531
▁128	-11.1531
▁ruler	-11.1531
▁एतदर्थम्	-11.1531
▁पेशीना	-11.1532
▁क्षेम	-11.1532
▁सन्ध्या	-11.1532
▁दौरान	-11.1532
▁नुदित्वा	-11.1532
▁अनयोर्मध्ये	-11.1532
▁इन्टर्	-11.1532
▁सेनागण	-11.1532
▁दायें	-11.1532
▁अपक्व	-11.1532
▁शिमोन्पितर	-11.1533
▁प्रोत्साह	-11.1533
▁call	-11.1534
▁वदन्न	-11.1534
▁तस्मादेव	-11.1534
serv	-11.1534
▁लिपि	-11.1534
▁एतावदेव	-11.1534
▁बदल	-11.1535
▁सरलरेखा	-11.1535
▁दूषय	-11.1535
▁मशक	-11.1535
▁एकादश	-11.1535
▁संबद्ध	-11.1535
▁शृणुथ	-11.1537
▁प्रक्रियया	-11.1538
▁पादुक	-11.1538
▁अक्सीजन	-11.1539
▁समाप्य	-11.1539
▁ज्ञापयामि	-11.1539
▁हारित	-11.1539
▁sort	-11.154
▁करिष्यथ	-11.1542
▁यामिमा	-11.1543
▁शिला	-11.1544
▁समर्पितवान्	-11.1544
ोडिङ्ग्	-11.1545
▁उपहार	-11.1545
▁अस्योपयोग	-11.1546
▁अन्तर्जालीय	-11.1546
कर्म्मणो	-11.1547
▁Sw	-11.1547
▁पूरयित्वा	-11.1548
▁ईश्वरपुत्र	-11.155
▁मूक	-11.1551
अवलोक्यतां	-11.1552
▁कृतवती	-11.1552
▁रचनायाः	-11.1552
▁एतदेव	-11.1552
▁काटन	-11.1554
▁प्रयुक्तमस्ति	-11.1555
▁वर्गीकृत	-11.1555
▁सदाचार	-11.1555
ग्रहाणां	-11.1555
▁are	-11.1555
▁अग्रभाग	-11.1555
▁शक्यं	-11.1555
▁व्यर्थ	-11.1556
iled	-11.1557
▁कक्षा	-11.1558
▁स्वशिर	-11.1559
▁उपस्थितवान्	-11.1559
▁प्रविधि	-11.1559
मुत्पाद	-11.156
▁वन्द	-11.1561
▁फार्म्	-11.1562
▁धर्त्तु	-11.1564
▁उपारोप	-11.1564
▁मध्याद्	-11.1564
शावक	-11.1564
▁आरम्भात्	-11.1565
▁षड्	-11.1565
▁समादेश	-11.1565
▁परम्परा	-11.1566
▁अधिकतम	-11.1566
ower	-11.1568
▁गगण	-11.1569
▁दिनत्रय	-11.1569
av	-11.157
क्राप्	-11.1572
▁लिखितवन्तः	-11.1573
▁यतध्वं	-11.1574
Bean	-11.1574
▁questions	-11.1575
▁entered	-11.1577
▁प्रभात	-11.1577
▁प्रतीक	-11.1578
▁निर्मात	-11.1581
द्विदल	-11.1583
▁विद्वान	-11.1583
▁स्मार	-11.1583
▁प्रकाश्यते	-11.1584
▁पाठयति	-11.1586
▁तस्यान्तिक	-11.1587
▁सत्यमेव	-11.159
▁Und	-11.159
▁पशुना	-11.1591
▁sal	-11.1594
▁ताराणा	-11.1597
▁रीनेम	-11.1597
▁प्रस्तुतपाठ	-11.1597
▁जातमस्ति	-11.1598
▁भक्ष	-11.1599
▁तदत्र	-11.1599
▁रहत	-11.1602
▁खादति	-11.1606
▁अधिगम	-11.1607
▁चतुर्णा	-11.1614
▁त्यजति	-11.1618
जन्तून	-11.1622
▁चौर	-11.1624
lse	-11.1628
our	-11.1636
चिन्ता	-11.1636
▁रूपान्तर	-11.1636
मूसाव्यवस्था	-11.1638
▁परिस्थित	-11.1642
स्तिष्ठन्	-11.1644
94	-11.1647
क्रियाणां	-11.1648
▁छल	-11.1649
ोपकरण	-11.1651
▁र्युष्माभि	-11.1659
▁रचनात्मकता	-11.1662
फार्म	-11.167
गम्यता	-11.1672
▁attribute	-11.1678
ाधीन	-11.1679
Pri	-11.1679
Contents	-11.1692
▁सन्तस्त	-11.1705
▁व्यवस्थापित	-11.1707
ढक	-11.1718
▁साधयितु	-11.1724
पंच	-11.1726
▁चेष्टध्व	-11.1741
▁सञ्चर	-11.1747
हिंसक	-11.1756
विशुद्ध	-11.1774
परमात्मा	-11.1788
करिष्यते	-11.1792
प्रश्नान	-11.1794
धोमुख	-11.1804
▁चेतुम	-11.1807
Projects	-11.181
रात्र	-11.1825
▁समर्पयितु	-11.1826
▁प्रवास	-11.1844
▁सञ्चिक	-11.1849
नामान	-11.1851
nan	-11.1859
▁स्तरवर्णिकाया	-11.1866
▁भुज्यत	-11.1866
कर्मण	-11.1877
▁पित्रा	-11.1879
सन्तोष	-11.1895
Not	-11.1927
▁छोड़न	-11.1928
येयु	-11.193
संस्था	-11.1931
प्रवेश	-11.1932
▁अस्थि	-11.1941
यत्किमप	-11.195
SH	-11.1953
कथन	-11.1955
निन्दा	-11.1985
▁अनन्तायु	-11.199
here	-11.2006
▁युष्मानध	-11.2007
स्तदीय	-11.2035
▁आह्वान	-11.2043
▁प्रतिष्ठाप	-11.2081
ाज्ञापय	-11.2084
्मेटिक्	-11.2087
ृणां	-11.2109
बाल	-11.211
स्पोकन	-11.2121
▁त्यक्ष्य	-11.2134
▁उद्द	-11.2136
समाज	-11.2143
▁न्यू	-11.2155
टैप्	-11.2157
प्रोटीन्	-11.216
प्रसाद	-11.2161
सूच्यांश	-11.2161
J	-11.2162
Check	-11.2162
नमस्कार	-11.2162
return	-11.2162
अन्यथा	-11.2163
[	-11.2163
box	-11.2163
▁दशाया	-11.2163
मस्तिष्क	-11.2163
Search	-11.2163
शून्य	-11.2163
अधिकविवरणार्थं	-11.2164
अर्जुन	-11.2164
गन्तव्य	-11.2164
गुरु	-11.2164
गतिविधि	-11.2164
सम्पादन	-11.2164
वामभागे	-11.2165
स्रोत	-11.2166
विस्तार	-11.2166
अवलोक्यताम्	-11.2168
स्वीकृत	-11.2169
डोट्	-11.2172
मौस्	-11.2175
▁भिन्नजातीय	-11.2176
page	-11.2177
▁कोन्फ़िगरेशन्	-11.2179
wc	-11.2186
दुर्गति	-11.2192
▁स्वमन	-11.2196
सर्वाणि	-11.2198
अस्तु	-11.22
▁person	-11.2204
अन्तः	-11.221
▁शीर्षिका	-11.2213
ालस्य	-11.2225
योजनीयमिति	-11.2226
▁निरीक्षित	-11.2237
मत्स्य	-11.2242
▁सूचि	-11.2243
▁सङ्कल	-11.2245
इमा	-11.2248
▁अपशिष्ट	-11.2255
▁प्रेषयितुम	-11.2261
▁किञ्चिदप	-11.2266
▁संस्थाया	-11.2266
▁process	-11.228
▁पुनस्त	-11.2285
▁भगवद्गीता	-11.2286
▁ममैत	-11.229
▁ज्ञाप	-11.2293
▁गोशाला	-11.2309
िष्यामहे	-11.231
▁लिनक्स	-11.232
लूप	-11.2322
▁Preference	-11.2333
▁Window	-11.2333
▁साहाय्यमाचर	-11.234
प्राची	-11.2341
▁द्रष्ट	-11.2343
याञ्चक्रे	-11.2345
▁परिजना	-11.2347
▁ओप्टिमैस	-11.2349
▁पशून	-11.2351
न्नहि	-11.2353
You	-11.2356
▁use	-11.2357
ुल्ल	-11.2357
च्छिन्न	-11.2359
plicit	-11.2359
▁छिन्न	-11.2359
▁Sub	-11.2361
director	-11.2361
alias	-11.2361
translat	-11.2361
आश्चर्यसूचकचिह्न	-11.2361
२	-11.2361
▁Language	-11.2361
▁caption	-11.2361
▁emp	-11.2361
▁register	-11.2361
▁struct	-11.2361
▁आकाङ्क्ष	-11.2361
▁आविष्कार	-11.2361
▁इंचपरिमित	-11.2361
▁करसञ्चाय	-11.2361
▁जालान्वेषक	-11.2361
▁तर्जयित्वा	-11.2361
▁फेफड	-11.2361
▁मटीरियल्	-11.2361
Arrow	-11.2361
Character	-11.2361
Dialog	-11.2361
Transaction	-11.2361
Yahoo	-11.2361
adius	-11.2361
arithm	-11.2361
blast	-11.2361
equestDispatcher	-11.2361
gnuhata	-11.2361
iostream	-11.2361
nclude	-11.2361
yntax	-11.2361
एम्पर्सेण्ड्	-11.2361
पेकेजस्	-11.2361
होस्वित	-11.2361
३	-11.2361
▁GreetingServlet	-11.2361
▁ISSN	-11.2361
▁Place	-11.2361
▁Threshold	-11.2361
▁department	-11.2361
▁effect	-11.2361
▁linux	-11.2361
▁will	-11.2361
▁zero	-11.2361
▁अकौंट	-11.2361
▁अहिंसा	-11.2361
▁आशियादेश	-11.2361
▁इनिशियलैज	-11.2361
▁उपयोक्तृनाम	-11.2361
▁एन्विरोन्मेंट्	-11.2361
▁छोडें	-11.2361
▁डोक्युमेण्ट	-11.2361
▁द्वादशसहस्राणि	-11.2361
▁नारायण	-11.2361
▁निस्तारोत्सवस्य	-11.2361
▁नैट्रोजन्	-11.2361
▁परिशीलयितुं	-11.2361
▁प्राजेक्ट्	-11.2361
▁फ़लित	-11.2361
▁बरब्बा	-11.2361
▁वायुमण्डल	-11.2361
▁सांस्कृतिक	-11.2361
▁स्टेट्मेंट्	-11.2361
▁स्तम्भालेख	-11.2361
▁स्वभ्रातर	-11.2361
Design	-11.2361
झिल्ल	-11.2361
▁असम्यक	-11.2361
▁इण्टर्फेस्	-11.2361
▁इतोऽप्यधिक	-11.2361
▁उपयोक्तृसंज्ञा	-11.2361
▁थ्री	-11.2361
▁विसिटिङ्ग्	-11.2361
▁व्याघ्र	-11.2361
▁संतोष	-11.2361
correct	-11.2361
एक्सेल्	-11.2361
▁जिज्ञास	-11.2361
▁प्रागेव	-11.2361
hello	-11.2361
▁acid	-11.2361
▁समर्पण	-11.2361
Learn	-11.2361
debugging	-11.2361
redit	-11.2361
▁5.5.	-11.2361
▁कैवल्य	-11.2361
▁वातावरण	-11.2361
पङ्क्तेः	-11.2361
▁उपसर्प	-11.2361
Help	-11.2361
▁इत्येतदर्थं	-11.2361
▁प्रस्थितवान्	-11.2361
▁त्वत्तो	-11.2361
▁प्रदीयते	-11.2361
▁चतुरस्र	-11.2361
▁कुर्म्मः	-11.2361
▁पाणिनि	-11.2361
▁वामकोण	-11.2361
▁निमन्त्रित	-11.2361
▁उद्धृत	-11.2361
▁फीष्ट	-11.2361
१८	-11.2361
तमिस्र	-11.2361
वेक्टर्	-11.2361
▁फूल	-11.2361
▁किरीट	-11.2361
▁अहमिदानी	-11.2361
▁वर्त्म	-11.2361
▁उत्थास्यति	-11.2361
nimation	-11.2361
त्युक्ते	-11.2361
शाश्वत	-11.2361
▁प्रसारण	-11.2361
दक्षिणकोण	-11.2361
नुगामिन	-11.2361
merge	-11.2361
ह्रद	-11.2361
▁क्षत्रिय	-11.2361
▁मकरासन	-11.2361
▁करुणा	-11.2361
receiv	-11.2362
▁फ्लोट्	-11.2362
▁आन्लैन्	-11.2362
▁level	-11.2362
मक्ख	-11.2362
▁निरूपक	-11.2362
nvert	-11.2362
▁निर्धारित	-11.2362
▁time	-11.2362
▁doGet	-11.2362
▁निर्मीयते	-11.2362
▁रिपोर्ट्	-11.2362
▁short	-11.2362
▁Dec	-11.2362
▁पार्स्	-11.2362
▁उद्घाटयेत	-11.2362
▁उपयुञ्जामहे	-11.2362
▁checkout	-11.2362
▁स्थगित	-11.2362
▁क्यों	-11.2363
▁बेह	-11.2363
प्रतिरोधक	-11.2363
▁दिवा	-11.2363
स्तोत्र	-11.2363
▁तन्त्रिकातन्त्र	-11.2363
▁महानिद्रा	-11.2363
▁प्रदातु	-11.2363
▁browser	-11.2363
▁अभिज्ञातुं	-11.2363
▁तेजस्वि	-11.2364
मित्युक्ते	-11.2364
वलम्ब्य	-11.2364
▁वायौ	-11.2364
▁Node	-11.2364
▁Land	-11.2364
▁स्यूत	-11.2364
▁Jan	-11.2364
▁ब्री	-11.2365
▁संबंध	-11.2365
▁समापयितुं	-11.2365
▁Navigator	-11.2365
▁End	-11.2365
प्नोति	-11.2365
▁निर्दोष	-11.2365
▁127	-11.2366
▁वर्णमाला	-11.2366
▁विचारयिता	-11.2366
ibliographic	-11.2366
ादारभ्य	-11.2367
▁गातु	-11.2367
▁आनन	-11.2368
▁प्रातःकाल	-11.2368
▁मोचित	-11.2368
▁POS	-11.2368
▁सुख्यात	-11.2368
▁कथितायां	-11.2369
ाहूता	-11.2369
▁प्रत्यवादीत्	-11.2369
▁भाषितवान्	-11.2369
मुपयोग	-11.2369
▁forum	-11.237
▁मातामह	-11.237
zip	-11.2371
▁छोड़ें	-11.2371
▁भक्तियोग	-11.2371
▁समीपमागत	-11.2373
▁सर्व्ववृत्तान्त	-11.2374
▁कूप	-11.2374
▁नितम्बौ	-11.2375
तिरिक्त	-11.2376
पण्डित	-11.2376
▁उपर्य	-11.2377
▁बुद्ध्या	-11.2378
मित्यतः	-11.2378
Vendor	-11.2379
▁Sort	-11.2379
▁वृषभ	-11.238
▁कानिचित	-11.2381
abbed	-11.2381
▁यूयमेव	-11.2381
▁वर्द्धते	-11.2383
▁श्रुतवन्तः	-11.2384
कर्तुमहं	-11.2385
▁रक्षामः	-11.2385
aster	-11.2386
▁समानीत	-11.2386
▁वयमेव	-11.2386
▁चिन्तयन्ति	-11.2387
ेण्डेन्स	-11.2388
▁my	-11.2389
▁भस्म	-11.2389
▁दूरीकुरु	-11.2391
▁एतन्निमित्त	-11.2393
बाहू	-11.2393
त्यजेत	-11.2394
▁पशो	-11.2394
ज्ञायते	-11.2394
▁लिखथ	-11.2394
▁योगासन	-11.2396
▁तारक	-11.2396
▁Bar	-11.2404
▁अनुदानित	-11.2404
▁वयः	-11.2405
▁आक्स	-11.2405
▁त्वमेव	-11.2406
▁नाचर	-11.2406
▁मूलचित्र	-11.241
रासीत्	-11.241
▁किये	-11.2415
▁ऽस्ति	-11.2416
▁बलवान्	-11.242
▁आध्वे	-11.2423
इम्प्लिमेण्टेशन्	-11.2425
▁निकटस्थ	-11.2426
टकट	-11.2433
▁वक्तुम	-11.2437
वनस्पत	-11.2442
वीर	-11.246
▁अनुसरण	-11.2462
▁विभव	-11.2464
Opti	-11.2467
च्युत	-11.2484
संख्य	-11.2485
ोऽधिकार	-11.2493
▁चित्रकार्य	-11.2497
ेषाञ्च	-11.2507
▁आकृत्या	-11.2514
▁Statistic	-11.2514
▁अशुचि	-11.2525
▁जालपुटमिद	-11.2542
▁अन्तिमभाग	-11.2542
गच्छेत्	-11.2555
▁तेनोक्त	-11.2556
▁शारीरिकभाव	-11.2568
▁पलायन्त	-11.2571
ितव्यः	-11.2573
illi	-11.2585
▁सेनयो	-11.2586
तिष्ठेत	-11.2593
▁युष्मत्	-11.2603
▁अवगच्छाम	-11.2603
▁वारम	-11.2603
▁रोगेभ्य	-11.2612
▁विवर	-11.2617
computers	-11.2624
▁दीर्घकाल	-11.2632
▁वस्त	-11.2633
llow	-11.2668
▁विद्युत	-11.2671
▁धनिन	-11.2677
टेबल्	-11.268
जानीम	-11.2681
ानुक्रम	-11.27
▁विचारदिन	-11.2703
▁सर्व्वकर्म्म	-11.2706
ीकृतं	-11.2714
द्वे	-11.2715
मग्न	-11.2716
▁स्वीकुर्म	-11.2719
बेका	-11.272
▁यतोऽस्माक	-11.2726
▁थोड	-11.275
प्रतिशत	-11.2791
कायं	-11.28
▁त्रात	-11.2805
.3.1	-11.2806
क्ष्म	-11.2815
▁अस्थिन	-11.282
नुकम्प	-11.2912
▁भवितुम	-11.2913
▁भ्रष्ट	-11.2917
प्राचीना	-11.2919
▁मिश्र	-11.2944
स्मर्यता	-11.2952
▁बुध	-11.2961
▁लम्बवत	-11.2963
▁निकल	-11.2963
▁गायक	-11.2967
▁ध्वन	-11.2981
▁द्विवार	-11.2982
emo	-11.2986
तन्त्रिका	-11.299
Details	-11.2996
पद्यत	-11.3012
ागच्छन्	-11.3012
▁जागरूक	-11.3016
▁केषुच	-11.3024
06	-11.3033
▁ईश्वरभक्त	-11.3037
Int	-11.3066
उदाहरण	-11.3067
अस्यार्थः	-11.3069
FASTA	-11.3069
वेल्यू	-11.307
बोण्ड्	-11.307
Web	-11.3071
समीचीन	-11.3071
Show	-11.3071
Terminal	-11.3071
निवारण	-11.3071
email	-11.3072
copy	-11.3072
पर्व्वत	-11.3072
roll	-11.3072
रेकोर्ड्	-11.3073
main	-11.3073
http	-11.3073
पूजा	-11.3073
XAMPP	-11.3073
क्रीडा	-11.3073
वृद्धि	-11.3073
निर्म्मित	-11.3075
▁late	-11.3075
इन्पुट्	-11.3076
चिन्तयत	-11.3078
संसार	-11.3078
class	-11.3079
comma	-11.308
वपुष	-11.3085
नुभव	-11.3085
पर्वत	-11.3087
इमं	-11.3094
क्रोध	-11.3094
दक्षिणपार्श्वस्थ	-11.3095
औषधि	-11.31
ेबल्	-11.3104
Layers	-11.3114
▁reference	-11.3115
▁चित्रस्थ	-11.3135
स्थापन	-11.3137
▁साधनपेटिका	-11.314
समस्या	-11.3152
▁इदमह	-11.3156
▁वासुदेव	-11.3158
पानं	-11.318
▁पहल	-11.3184
▁स्वागत	-11.319
▁क्लास	-11.3192
मन्यन्त	-11.3216
शिष	-11.3217
क्रियन्त	-11.3224
▁एडिट	-11.3231
▁मौस	-11.3232
▁आभ्या	-11.3234
▁षड	-11.3238
▁उक्तवान	-11.324
▁अरण्य	-11.3246
ारूढ	-11.3249
स्थापयन्	-11.3251
▁सेट्टिङ्ग्	-11.3253
▁द्राक्षा	-11.3256
ब्रह्मण	-11.3257
rompt	-11.3267
डुम्बर	-11.3268
▁operat	-11.3268
ब्राहीम	-11.3268
दभीष्ट	-11.3268
ोच्चारण	-11.3269
४	-11.3269
शृण्वन्	-11.327
▁basic	-11.327
left	-11.327
ream	-11.327
▁मत्प्रेरक	-11.327
Amazon	-11.327
कण्डीशनल्	-11.327
तूर्य्या	-11.327
रासायनिक	-11.327
▁channel	-11.327
▁contain	-11.327
▁dashboard	-11.327
▁folder	-11.327
▁guide	-11.327
▁कार्बोहाइड्रेट	-11.327
▁कैसरियानगर	-11.327
▁प्रतिबिम्ब	-11.327
▁व्याघुट्य	-11.327
electronics	-11.327
emplate	-11.327
eriod	-11.327
etwork	-11.327
orrowed	-11.327
quer	-11.327
screen	-11.327
through	-11.327
yahoo	-11.327
कार्षीत्	-11.327
बैक्टीरिया	-11.327
वाष्पोत्सर्जन	-11.327
▁Count	-11.327
▁Grid	-11.327
▁Information	-11.327
▁Measure	-11.327
▁Service	-11.327
▁Session	-11.327
▁bandwidth	-11.327
▁blue	-11.327
▁circula	-11.327
▁integer	-11.327
▁material	-11.327
▁other	-11.327
▁summary	-11.327
▁tail	-11.327
▁work	-11.327
▁अग्नौ	-11.327
▁इत्यस्मादधिक	-11.327
▁एक्स्प्रेषन्	-11.327
▁ऐसोमर्स्	-11.327
▁काठिन्य	-11.327
▁कुप्रवृत्ति	-11.327
▁क्लिप्	-11.327
▁गाण्डीव	-11.327
▁तस्माद्धेतो	-11.327
▁नवनीतं	-11.327
▁पक्षाघातिन	-11.327
▁पद्मासन	-11.327
▁परिगण्यते	-11.327
▁बुभुक्षा	-11.327
▁बुभुक्षित	-11.327
▁मत्प्रेरयित	-11.327
▁मिनिट्	-11.327
▁मूर्त्ति	-11.327
▁म्यानेजर्	-11.327
0808	-11.327
[1]	-11.327
▁Paint	-11.327
▁font	-11.327
▁modul	-11.327
▁प्रारभत	-11.327
▁म्रियन्ते	-11.327
▁सिदूकि	-11.327
Org	-11.327
inha	-11.327
▁आरोपित	-11.327
▁उत्तेज	-11.327
▁जन्यराग	-11.327
▁नाशक्नोत्	-11.327
▁भित्तिमूल	-11.327
▁योजयतु	-11.327
▁स्वीकुर्वन्ति	-11.327
क्वैरि	-11.327
पेरेण्ट्	-11.327
▁अत्युत्तम	-11.327
▁कीजिए	-11.327
▁प्रशंसनीय	-11.327
▁विभाजित	-11.327
Input	-11.327
▁तमोगुण	-11.327
▁स्वीकरोमि	-11.327
▁चार्ज्	-11.327
LMS	-11.327
video	-11.327
▁उंगलियाँ	-11.327
▁नैवेद्य	-11.327
▁घुमा	-11.327
▁लयात्मक	-11.327
2018	-11.327
▁बनाऐं	-11.327
▁सत्वगुण	-11.327
▁सपुण्यीकृत	-11.327
▁हिमालय	-11.327
दुर्भिक्ष	-11.327
svg	-11.327
▁जगह	-11.327
▁पलके	-11.327
▁भोजनपाक	-11.327
Local	-11.327
▁cost	-11.327
odify	-11.327
cast	-11.327
▁क्वोट	-11.327
▁Jframe	-11.327
▁विद्यार्थी	-11.327
▁सीमित	-11.327
सौचिक	-11.327
▁कन्नेक्	-11.327
Font	-11.327
▁सुंदर	-11.327
याञ्चकार	-11.327
तिस्रः	-11.327
▁संवादपिटक	-11.327
▁सावधानास्तिष्ठत	-11.327
▁इंटि	-11.327
▁etc	-11.327
▁arya	-11.327
▁स्केन्	-11.327
वगम्यते	-11.3271
स्त्वया	-11.3271
▁दीयमान	-11.3271
▁गगन	-11.3271
धिष्ठान	-11.3271
▁प्राकाशय	-11.3271
▁उपर्युक्त	-11.3271
▁मुद्रापणीय	-11.3271
▁इनिशियल्	-11.3271
▁निर्भय	-11.3271
▁std	-11.3272
▁आम्रफल	-11.3272
▁शवासन	-11.3272
▁शक्याः	-11.3272
▁उडुम्बर	-11.3272
व्रत	-11.3272
▁शिक्षितवन्त	-11.3272
ाश्चर्य्यकर्म्म	-11.3273
▁यूनस	-11.3273
▁इतिहास	-11.3273
▁समुपविष्ट	-11.3273
▁लाभदायक	-11.3273
SampleApplet	-11.3274
▁समीपवासिन	-11.3274
▁इफिषनगर	-11.3274
▁इत्येतादृशा	-11.3274
▁row	-11.3274
▁समर्पयिष्यते	-11.3274
▁प्राविशत्	-11.3274
▁मलिन	-11.3275
▁Abstract	-11.3275
▁लोकगीत	-11.3275
▁सम्यगस्ति	-11.3275
▁हन्ता	-11.3275
▁वदेत्	-11.3275
▁सूचयितुं	-11.3275
▁रही	-11.3275
▁पास्यामि	-11.3276
▁वेण्डर्	-11.3276
▁व्यक्तिगत	-11.3276
▁आगतोस्मि	-11.3276
कुमार	-11.3276
तोऽत्र	-11.3276
▁करेगा	-11.3277
▁यास्यति	-11.3277
▁आरब्धवान्	-11.3278
▁model	-11.3278
▁धावित्वा	-11.3279
▁बभूवुः	-11.3279
▁पूजय	-11.328
▁आसक्त	-11.3281
▁विस्मित	-11.3281
▁मृत्यो	-11.3281
ोसर	-11.3281
▁सन्ताप	-11.3281
▁लोकेशन्	-11.3282
▁नियुक्तवान्	-11.3283
▁भावये	-11.3283
▁प्रोक्तवान्	-11.3283
▁mus	-11.3283
▁Fro	-11.3283
▁आर्द्र	-11.3285
Share	-11.3286
▁न्युन	-11.3286
▁यिहूदादेश	-11.3286
▁आनयामि	-11.3287
▁न्यूनतम	-11.3288
▁गोमय	-11.3288
▁कम्पन	-11.3288
▁आन्द्रिय	-11.3289
▁प्रणमाम	-11.3289
▁भुञ्जते	-11.329
▁झुकने	-11.3291
▁भाषमाण	-11.3292
▁प्रकाशिष्यते	-11.3294
युष्मत्कृते	-11.3294
▁45	-11.3295
▁सार्ध	-11.3295
▁नक्षत्राणि	-11.3295
▁गमिष्यन्ति	-11.3296
▁लघुतम	-11.3297
▁शिक्षयति	-11.3298
▁बढ़ान	-11.3299
▁स्पष्टतया	-11.3299
टिव्	-11.3301
▁हतवान्	-11.3301
▁त्यजतु	-11.3303
दुष्कर्म्म	-11.3304
▁नाडी	-11.3305
ाल्ट्	-11.3306
▁उच्छ	-11.3308
▁शास्ति	-11.331
ship	-11.3311
वर्क्	-11.3312
▁पश्व	-11.3312
▁स्थितवन्तः	-11.3312
्रेश्	-11.3314
▁स्वीकृतवान्	-11.3315
सैन्य	-11.3318
▁द्वाभ्या	-11.3325
▁यिश	-11.3326
▁क्क	-11.3327
▁परमाणूना	-11.3328
रामू	-11.3329
वस्तुनि	-11.3329
▁इच्छानुसार	-11.3333
RU	-11.3335
▁प्रलय	-11.3338
▁पितुरीश्वर	-11.3352
ED	-11.3355
▁यतस्तेषा	-11.3356
▁चाहत	-11.3364
गिर	-11.3369
बृहद	-11.3372
▁खगा	-11.3377
प्रत्युदित	-11.3378
▁व्यूह	-11.3379
कर्तुमहम्	-11.3392
▁वेध	-11.3395
दीप	-11.3396
▁संस्थापयेत	-11.3413
▁भवेय	-11.3418
gear	-11.3419
ऐडि	-11.3424
▁शीर्षिकाया	-11.3441
▁सर्वासा	-11.3449
औट्लैन्	-11.3449
▁युवाभ्या	-11.3457
ट्रिब्यूट्स्	-11.346
▁यावन्न	-11.3465
प्रक्षालन	-11.3467
धीना	-11.3471
इण्ट्	-11.3471
ेक्ट	-11.3499
वर्धित	-11.3507
▁प्रेरिताना	-11.3513
ैंड	-11.3513
सेलेक्	-11.3536
tim	-11.3545
0,000	-11.3556
चित्रेऽस्मिन्	-11.3562
▁प्रेषयाम	-11.3564
ऽयं	-11.3573
▁प्रष्टु	-11.3581
▁गणयाम	-11.3589
सेल्स	-11.3591
दण्डाज्ञा	-11.3592
▁समागत	-11.3602
▁एकत्रित	-11.3607
गन्तुम	-11.362
▁relati	-11.3629
off	-11.3639
▁नमेत	-11.3663
▁भावार्थ	-11.3679
र्माता	-11.3681
▁स्वराणा	-11.3681
प्रतिश्रुत	-11.3682
tern	-11.3719
ऽधिपति	-11.3722
▁पूर्वोक्त	-11.3735
▁75	-11.3787
टैल्	-11.3817
समाचार	-11.3846
पुष्ट	-11.3872
ीकुर्मः	-11.3876
भूमी	-11.3892
▁प्रथममह	-11.3897
प्रजाति	-11.3897
▁कृतवानित	-11.3906
▁क्रियता	-11.3914
सीवनस्य	-11.3919
वाणी	-11.3929
▁एतदप	-11.3948
urn	-11.3952
▁प्रारब्ध	-11.3957
वन्तस्ते	-11.3961
*	-11.3964
निर्व्वि	-11.3972
कर्तव्य	-11.3998
▁who	-11.4002
▁प्राप्तुम	-11.4015
श्रेष्ठ	-11.4067
&	-11.4069
प्रोजेक्ट	-11.4069
द्राक्षारस	-11.4069
वसति	-11.407
जैसे	-11.407
प्रयत्न	-11.407
testdir	-11.4071
account	-11.4071
General	-11.4072
Netbeans	-11.4072
उत्पाद	-11.4072
डेटाबेस्	-11.4072
परित्राण	-11.4073
केन्वास्	-11.4073
कण्डीशन्	-11.4073
शारीरिक	-11.4073
प्रेरित	-11.4073
search	-11.4073
डबल्	-11.4073
System	-11.4073
भवद्भिः	-11.4073
दक्षिणपार्श्वे	-11.4074
कानिचन	-11.4074
सुसंवाद	-11.4076
पटल	-11.4076
सब्	-11.4076
किञ्चित्	-11.4077
सम्पूर्ण	-11.4077
अवलोकयन्तु	-11.4077
▁विन्यस	-11.4078
For	-11.4086
यतोहि	-11.4089
जायते	-11.4092
प्रधान	-11.4105
मृद	-11.4106
संवादपेटिका	-11.4116
ढ़	-11.4125
मानचित्र	-11.4129
▁ज्योतिष	-11.4134
र्षय	-11.4139
▁पोषकतत्व	-11.4166
▁एतस्माद्	-11.4166
▁इत्युक्त	-11.4184
वर्धक	-11.4187
▁जैस	-11.4191
▁तन्नगर	-11.4194
ज्ञापयत्	-11.4195
संघ	-11.4198
योक्तुं	-11.4218
▁Wh	-11.4231
▁स्नाय	-11.4235
विनाश	-11.4237
▁पवर	-11.4243
▁1.7	-11.4247
▁नितम्ब	-11.4252
fil	-11.4255
▁अङ्गाना	-11.4258
▁प्रसारय	-11.4258
▁दृढीकरण	-11.4264
चारों	-11.4265
▁stu	-11.4266
फिरूशि	-11.4266
शियल्	-11.4268
ference	-11.4268
▁कुकर्म्म	-11.4269
ेप्स	-11.4269
▁अभिषिक्त	-11.4269
▁मग्दलीनी	-11.427
▁सन्निधाव	-11.427
nputStreamReader	-11.427
▁वज्रचूर्ण	-11.427
ARGV	-11.427
Available	-11.427
Correctness	-11.427
Introduction	-11.427
Miscellaneous	-11.427
Python	-11.427
YYYY	-11.427
asket	-11.427
evel	-11.427
replace	-11.427
rochure	-11.427
transaction	-11.427
upload	-11.427
verlay	-11.427
क्लोरोफिल	-11.427
ग्लोब	-11.427
न्यूक्लियोटैड्	-11.427
पाठमिदमनुसर्तु	-11.427
प्यारामीटरैस्ड्	-11.427
प्राथम्येन	-11.427
फीलिक्ष	-11.427
शुरुआत	-11.427
सङ्क्षिप्त	-11.427
सन्दिग्ध	-11.427
▁2.4.7	-11.427
▁Access	-11.427
▁Assets	-11.427
▁Biology	-11.427
▁Branch	-11.427
▁Channel	-11.427
▁Direct	-11.427
▁Keyboard	-11.427
▁allowed	-11.427
▁doPost	-11.427
▁length	-11.427
▁servlet	-11.427
▁spiral	-11.427
▁successfully	-11.427
▁अस्मदपेक्षित	-11.427
▁आपरेटिंग	-11.427
▁उत्तोल्य	-11.427
▁उपयोक्तृभि	-11.427
▁ऊर्द्व्व	-11.427
▁एकौण्टिङ्ग्	-11.427
▁कन्सोल	-11.427
▁कस्मैचिद	-11.427
▁चिक्कण	-11.427
▁जनजातीयसंगीत	-11.427
▁डिस्क्रिप्	-11.427
▁तच्छिष्या	-11.427
▁तदुद्घाटयाम	-11.427
▁तृप्तिकर	-11.427
▁पतञ्जलि	-11.427
▁परिशीलयतु	-11.427
▁परिशीलयन्तु	-11.427
▁प्रत्यूचुः	-11.427
▁प्राहिणोत्	-11.427
▁मल्कीषेदक	-11.427
▁मोड्यूल्	-11.427
▁राज्याभिषेक	-11.427
▁लङ्घ	-11.427
▁सहिष्णुता	-11.427
▁सौन्दर्य	-11.427
▁स्पेसिफ़ैयर्	-11.427
width	-11.427
कार्षीः	-11.427
ाह्लाद	-11.427
७	-11.427
▁Cancel	-11.427
▁applet	-11.427
▁centre	-11.427
▁convert	-11.427
▁parse	-11.427
▁अन्यदन्यत्	-11.427
▁कण्ठस्थीकरण	-11.427
▁कियफा	-11.427
▁ग्रीष्म	-11.427
▁पहाड़	-11.427
▁मनःपरिवर्त्तन	-11.427
▁मनोबलयुक्त	-11.427
▁लोकनिवह	-11.427
▁सायङ्काल	-11.427
▁इब्रीय	-11.427
▁उच्यन्ते	-11.427
▁उपरोक्त	-11.427
▁क्वश्चन्	-11.427
▁छोडन	-11.427
▁प्रचुर	-11.427
▁प्राचारयत्	-11.427
▁बिभीत	-11.427
▁मयाश्रावि	-11.427
▁रजोगुण	-11.427
▁विभूषण	-11.427
▁विश्वसिथ	-11.427
▁सर्कल्	-11.427
▁स्प्रष्टु	-11.427
कस्टमैस्	-11.427
स्टाफ्	-11.427
▁डिग्री	-11.427
▁थोमा	-11.427
▁पत्थर	-11.427
▁भीमसरटा	-11.427
Phone	-11.427
भवदिति	-11.427
▁vlc	-11.427
▁उठाऐं	-11.427
▁परिवेषय	-11.427
▁भैष्ट	-11.427
▁यिरूशालम्पुर	-11.427
▁रन्निङ्ग्	-11.427
डोलर्	-11.427
ोपर्य्य	-11.427
▁गरिष्ठ	-11.427
▁ptr	-11.427
▁कालिदास	-11.427
▁पूरणानन्तरं	-11.427
ओपरेशन्	-11.427
▁आभरण	-11.427
▁एङ्गल्	-11.427
▁सकारात्मक	-11.427
▁वेश्म	-11.427
▁चण्डाल	-11.427
▁झपका	-11.427
▁Sea	-11.427
▁कणाद	-11.427
▁दयस्व	-11.427
▁कदली	-11.427
ञ्ज्महे	-11.427
▁पिछल	-11.427
▁pixels	-11.427
▁पङ्क्तय	-11.427
▁KTurtle	-11.427
▁जन्तव	-11.427
▁भवेदित	-11.427
▁निर्मान्ति	-11.427
▁पच्यते	-11.427
ectangle	-11.427
मुच्यते	-11.427
Host	-11.427
▁weight	-11.427
▁रुचि	-11.427
▁उपद्रव	-11.427
▁MyServlet	-11.427
hard	-11.427
▁अदायि	-11.427
▁सर्व्वदेशीय	-11.427
cmp	-11.427
▁क्रीणाति	-11.4271
▁नितान्त	-11.4271
शिबिर	-11.4271
▁होंगे	-11.4271
▁चिकित्सक	-11.4271
सधारिका	-11.4271
▁Ship	-11.4271
▁चिन्तित	-11.4271
▁प्रभुणा	-11.4271
▁Framework	-11.4271
तुलसी	-11.4271
▁साक्षी	-11.4271
▁Renew	-11.4271
▁सुश्रुत	-11.4272
▁भग्न	-11.4272
▁setter	-11.4272
सङ्घ	-11.4272
▁नाशक्न	-11.4272
▁शक्ताः	-11.4272
ान्यभवन्	-11.4272
▁कलुष	-11.4273
सङ्कोच	-11.4273
▁मोमेण्ट्	-11.4273
▁व्याहृतवान्	-11.4273
▁धर्म्मपुस्तक	-11.4273
▁मार्जयितु	-11.4273
▁कतिपयजना	-11.4273
▁दृढीकरोति	-11.4273
ास्पद	-11.4273
▁परिचयात्मक	-11.4273
▁प्रदूषितं	-11.4273
▁विस्मरति	-11.4273
ोत्थाय	-11.4273
त्युक्त्वा	-11.4274
▁स्तुति	-11.4274
▁पराजित	-11.4274
▁नग्न	-11.4274
raw	-11.4274
▁नवीकृत	-11.4274
▁निवेदित	-11.4275
▁दण्डार्ह	-11.4275
▁प्राचीर	-11.4275
▁कपोत	-11.4275
▁प्रहर्त्तु	-11.4275
▁भूकम्प	-11.4276
▁निगूढवाक्य	-11.4276
▁सूचीबद्ध	-11.4276
▁सप्तदूत	-11.4276
▁पञ्चभुज	-11.4277
Your	-11.4277
वेदना	-11.4277
exit	-11.4277
ितुमारेभे	-11.4277
▁नाशयन्तु	-11.4277
▁आलस्य	-11.4277
▁विरम	-11.4278
ोच्यते	-11.4278
duc	-11.4278
▁तृतीयांश	-11.4278
▁ज्ञापने	-11.4279
▁दूरदर्शन	-11.4279
▁व्यक्तित्व	-11.4279
▁त्रिगुण	-11.428
▁रक्तपात	-11.428
▁संपूर्ण	-11.428
▁विकीर्ण	-11.428
▁समीकर्तुं	-11.4281
▁लभ्यन्ते	-11.4281
▁दृश्यताम्	-11.4281
▁सम्पादयति	-11.4281
▁पर्य्यट	-11.4281
▁कुर्याम	-11.4281
▁पशूनां	-11.4281
▁तादृक्	-11.4282
▁लभन्ते	-11.4282
▁मृदाया	-11.4283
▁होगी	-11.4284
▁भोजननिर्माण	-11.4284
▁अणुषु	-11.4284
▁mv	-11.4284
ोऽभूत्	-11.4286
▁नूतनपृष्ठ	-11.4286
▁ऐच्छिक	-11.4287
▁प्रकृत्या	-11.4288
fig	-11.4292
Find	-11.4293
▁सर्व्वजातीयान	-11.4294
▁फक्किकाया	-11.4294
पूर्ति	-11.4297
दुःखितः	-11.4298
exa	-11.4298
प्रार्थयाञ्चक्रे	-11.43
Calculator	-11.4302
▁युष्मदन्त	-11.4307
tex	-11.4308
▁अर्पय	-11.431
.1--	-11.4311
ुपस्थाय	-11.4312
▁परिवर्त्तय	-11.4314
▁पीठिक	-11.4318
▁गाढतर	-11.4322
share	-11.4325
▁बीजाना	-11.4333
तादृशसन्दर्भे	-11.4338
▁गोपाल	-11.4338
▁द्रव	-11.4339
परायण	-11.434
पेषण	-11.435
8000	-11.4359
ह्नि	-11.4362
▁अभिरुचि	-11.4366
▁अन्यमेक	-11.4372
▁सम्भाषण	-11.4372
स्तावत	-11.4377
▁प्रचारयत	-11.4379
▁लेवल	-11.4381
▁प्रणाम	-11.4385
पांच	-11.4385
पेशी	-11.4387
▁प्लेन्	-11.4402
▁शिक्षार्थ	-11.4405
▁त्याजयितु	-11.441
कस्टम	-11.4418
▁विश्वरूप	-11.4427
टोप्	-11.4441
▁प्रार्थयामह	-11.4449
▁व्यभिचारिण	-11.4457
▁लेखितुम	-11.447
तत्कर्तुम्	-11.4472
सिद्धमस्ति	-11.4475
परिमार्ज	-11.4481
नुरोधा	-11.4501
भ्रामयन्तु	-11.4513
▁ईश्वरीयराज्य	-11.4521
▁नापेक्ष	-11.4523
प्रदीपिका	-11.4524
▁स्थापयामास	-11.4539
▁त्रप	-11.4545
▁wh	-11.4549
ालाप	-11.4553
▁तदनुरूप	-11.456
▁Marc	-11.4569
▁तृतीयदिन	-11.4582
▁निवृत	-11.4586
▁कस्मा	-11.4606
▁पाण्डवाना	-11.4609
प्रोटोन	-11.461
तस्माद	-11.4636
▁वश्या	-11.4651
परिवर्त	-11.4651
▁प्राणनाश	-11.4668
▁यतस्तद	-11.4671
▁उपयुञ्जन्त	-11.4678
▁वर्धयितु	-11.4689
ीदृशी	-11.4695
eading	-11.4705
▁नभस	-11.471
ामासुः	-11.4721
एच्	-11.4728
दृष्ट्या	-11.4733
वामभागस्य	-11.4737
▁कर्तुमिच्छ	-11.4756
▁प्रार्थयितु	-11.476
ऽतीव	-11.4797
ितव्याः	-11.4834
▁अहमेत	-11.4843
सन्निधौ	-11.4853
▁वाक्याना	-11.4883
धारणा	-11.49
Courses	-11.4906
नोन्	-11.4912
▁उज्ज	-11.4926
ऽभवत	-11.4936
िधान	-11.4951
▁पापनाश	-11.4971
▁पर्चन्य	-11.4971
र्जी	-11.4977
चत्वारिंशत्	-11.4981
ाभावात	-11.4984
पश्चाद	-11.501
▁उद्भिज्जा	-11.5064
Ok	-11.5085
▁बहिरागत	-11.5091
▁Process	-11.5104
▁एक्स्प्रेश्शन्	-11.5107
source	-11.5167
▁सन्दर्भ	-11.5176
ददाति	-11.5178
title	-11.518
abc	-11.518
पुनश्च	-11.5181
Xfig	-11.5181
package	-11.5182
default	-11.5182
web	-11.5182
स्क्रिप्ट्	-11.5182
प्रशिक्षण	-11.5182
India	-11.5182
student	-11.5182
शृङ्खल	-11.5182
इदानीमहं	-11.5183
श्रवण	-11.5183
MARC	-11.5183
धूसरवर्ण	-11.5183
डिस्प्ले	-11.5183
हृदय	-11.5183
Z	-11.5183
आप्षन्	-11.5183
पुनरपि	-11.5183
अग्रिमपङ्क्तौ	-11.5183
GIMP	-11.5184
कदाचित्	-11.5184
Java	-11.5184
एक्लिप्स्	-11.5184
एडिट्	-11.5184
Build	-11.5184
with	-11.5184
–	-11.5185
पौल	-11.5185
खनिज	-11.5186
भ्रातरः	-11.5187
AW	-11.5187
टङ्कयतु	-11.5188
▁छूत	-11.5188
▁रचनात्मक	-11.5189
open	-11.5193
बहून	-11.5194
शाखा	-11.5201
तृन्	-11.5202
pop	-11.5203
▁पार्ष्ण्य	-11.5214
निद्रा	-11.5219
▁पीड	-11.5249
▁सम्मिल	-11.5263
क्साइड	-11.5296
मिच्छामः	-11.5296
eight	-11.5331
▁लिङ्क	-11.5342
▁निषेध	-11.5345
▁प्राप्नोत	-11.5346
▁खुश	-11.5351
▁Setting	-11.5353
▁करोम	-11.5361
▁सर्व्वजाती	-11.5361
▁उंगल	-11.5362
ड्रेस्	-11.5362
▁धैर्य	-11.5362
▁दीप्त	-11.5362
▁द्रोण	-11.5368
ोत्साह	-11.5372
▁श्मशानादुत्था	-11.5372
▁निगूढ	-11.5374
ुमारेभे	-11.5375
▁मिसर	-11.5375
▁इफिष	-11.5376
▁rule	-11.5376
Applet	-11.5376
साइड	-11.5378
न्मील	-11.5379
imension	-11.5379
क्वेन्स्	-11.538
nvironment	-11.538
valid	-11.538
▁semi	-11.5381
▁debug	-11.5381
ensitiv	-11.5381
▁जागृत	-11.5381
अल्फाबेट्	-11.5381
▁मोडिफै	-11.5381
▁विश्रामप्रदायक	-11.5381
▁01/01/201	-11.5381
▁Summary	-11.5381
▁Switch	-11.5381
▁koha	-11.5381
▁कश्चिज्जन	-11.5381
▁कुक्कुट	-11.5381
▁खञ्ज	-11.5381
▁टेक्श्ट्	-11.5381
▁दक्षिणजानु	-11.5381
▁बोण्डिङ्ग्	-11.5381
▁भास्कराचार्य	-11.5381
▁सीरियल्	-11.5381
▁सोरसीदोन	-11.5381
ActionPerformed	-11.5381
Attach	-11.5381
Compose	-11.5381
FileChooser	-11.5381
Output	-11.5381
ellipse	-11.5381
enumerate	-11.5381
iagram	-11.5381
split	-11.5381
xlsx	-11.5381
एलेक्ट्रो	-11.5381
ओर्ग्यूमेण्ट्	-11.5381
मृत्तिकया	-11.5381
रेकोर्डिङ्ग्	-11.5381
सच्चिदानन्द	-11.5381
स्वावलोकनार्थ	-11.5381
▁Answer	-11.5381
▁Chooser	-11.5381
▁Column	-11.5381
▁Command	-11.5381
▁Docs	-11.5381
▁Panel	-11.5381
▁attempt	-11.5381
▁element	-11.5381
▁event	-11.5381
▁evolute	-11.5381
▁frontacc	-11.5381
▁podcast	-11.5381
▁response	-11.5381
▁two	-11.5381
▁अकुर्म्म	-11.5381
▁अगस्त्य	-11.5381
▁अन्वेष्टुम्	-11.5381
▁इन्हेरिट	-11.5381
▁उपयोक्तॄन	-11.5381
▁ऐश्वर्य	-11.5381
▁कियत्कालात्	-11.5381
▁केषाञ्चिद	-11.5381
▁ज्ञायतां	-11.5381
▁तितिक्षा	-11.5381
▁निर्देष्टु	-11.5381
▁पहुंच	-11.5381
▁पेरांथिसिस्	-11.5381
▁प्रतिसमाधा	-11.5381
▁प्रफुल्ल	-11.5381
▁प्रातिनिध्य	-11.5381
▁फ़ीड्	-11.5381
▁बहूपयोग	-11.5381
▁बिभ्युः	-11.5381
▁मनःपरावर्त्तन	-11.5381
▁रेफरेन्स्	-11.5381
▁लचीलेपन	-11.5381
▁व्यश्वसीत्	-11.5381
▁व्याप्नोत्	-11.5381
▁शलभासन	-11.5381
▁सेण्टर्	-11.5381
▁स्ट्राण्ड्	-11.5381
Accessories	-11.5381
jitter	-11.5381
tilde	-11.5381
trix	-11.5381
जोमेट्रि	-11.5381
भर्त्सय	-11.5381
विन्डौ	-11.5381
▁उच्छेत्तु	-11.5381
▁उपदिष्टवान्	-11.5381
▁डेस्क्टाप	-11.5381
▁पिशाच	-11.5381
▁प्रावोचन्	-11.5381
▁फेफड़ो	-11.5381
▁मिथो	-11.5381
▁यशस्वी	-11.5381
▁स्वाभाविक	-11.5381
ज्वाल्य	-11.5381
▁IITB	-11.5381
▁मूत्राशय	-11.5381
▁समृद्ध	-11.5381
▁सोमवासर	-11.5381
▁स्थितप्रज्ञ	-11.5381
Music	-11.5381
mrk	-11.5381
परिसंचरण	-11.5381
▁आप्लाव	-11.5381
▁तेजोमय	-11.5381
▁रचयितव्य	-11.5381
▁लुप्त	-11.5381
▁विभूषित	-11.5381
▁स्थालिका	-11.5381
▁आदिष्टवान्	-11.5381
▁संचार	-11.5381
▁सम्पद्यमान	-11.5381
blurred	-11.5381
gimp	-11.5381
▁दृष्टिकोण	-11.5381
▁परित्यक्त	-11.5381
▁प्रतिगच्छामः	-11.5381
▁मूसस	-11.5381
प्लगिन्	-11.5381
▁सुष्ठु	-11.5381
▁स्वीकरोतु	-11.5381
▁अपमार्जक	-11.5381
▁दग्ध	-11.5381
▁रसातल	-11.5381
Shah	-11.5381
मानिटर	-11.5381
▁Mac	-11.5381
▁अग्रिमपृष्ठम्	-11.5381
▁brushes	-11.5381
▁विस्तारणाय	-11.5381
▁व्यवहरति	-11.5381
गौशालायाम	-11.5381
Other	-11.5381
▁खिद्य	-11.5381
▁श्रेण्या	-11.5381
jdk	-11.5381
▁प्रक्षिप	-11.5381
लम्पट	-11.5381
▁ग्रह्णन	-11.5381
▁सिन्धु	-11.5381
▁दयालु	-11.5381
▁लघ्वी	-11.5381
▁timing	-11.5381
2016	-11.5381
---------------	-11.5381
जगृहुः	-11.5381
▁द्वतीय	-11.5381
▁मयुर	-11.5381
▁निरूपण	-11.5381
▁पानपात्र	-11.5381
▁भुक्तवान्	-11.5381
▁संस्मृत	-11.5381
▁देशस्थे	-11.5381
▁post	-11.5381
▁दिव्यदूता	-11.5381
▁BOOK	-11.5381
scan	-11.5381
▁अपश्यत्	-11.5381
▁शिखर	-11.5381
ecture	-11.5381
▁अर्द्ध	-11.5381
▁इत्यर्थः	-11.5381
▁displayMessage	-11.5381
▁बाधते	-11.5381
▁योजयेत	-11.5381
▁notification	-11.5381
▁फीट	-11.5381
▁अनृत	-11.5381
▁हारयति	-11.5382
▁कुम्भ	-11.5382
संहिता	-11.5382
▁लकड़हार	-11.5382
▁पंजो	-11.5382
▁कुणप	-11.5382
▁Plan	-11.5382
▁विवृण्वन्त	-11.5382
▁अमरकोश	-11.5382
▁खोज	-11.5382
▁लग्न	-11.5382
▁जाग्रत	-11.5382
▁Spac	-11.5382
▁विश्वसिम	-11.5382
▁showData	-11.5382
▁पराजय	-11.5382
▁सैन्स्	-11.5382
▁संक्षिप्त	-11.5382
▁समतल	-11.5382
Case	-11.5382
▁नश्यति	-11.5382
▁गवाक्षमुद्घाट	-11.5382
▁शासक	-11.5382
▁charge	-11.5382
andom	-11.5383
▁नारद	-11.5383
▁प्रक्षाल्य	-11.5383
▁खाद्यद्रव्य	-11.5383
▁पुरोदेशवर्ण	-11.5383
▁वदिष्यथ	-11.5383
▁पृथिवीनिवासिन	-11.5383
▁निर्जीव	-11.5383
▁total	-11.5383
▁अंगुल	-11.5383
▁शुश्र	-11.5384
▁अत्यु	-11.5384
जानीयात्	-11.5384
▁सर्वीस्	-11.5384
▁क्रेतु	-11.5384
▁प्रीतम	-11.5384
▁भारतीयसंगीत	-11.5384
▁चालित	-11.5384
▁दायिष्यते	-11.5385
▁कोलन्	-11.5385
Icon	-11.5385
▁भक्ष्यद्रव्य	-11.5385
▁डबल्कोट्स्	-11.5385
▁कदाचिद	-11.5385
▁वक्ररेखा	-11.5386
▁आरब्धुं	-11.5386
▁र्लोकै	-11.5386
▁strname	-11.5386
▁पदतल	-11.5386
फ़िक्	-11.5386
यज्ञवेद्य	-11.5386
▁दासेया	-11.5386
▁परिष्कार	-11.5386
▁आस्महे	-11.5387
▁उत्थाप्य	-11.5387
हेक्सा	-11.5387
▁गृहीतवन्तः	-11.5387
▁मृतानामुत्थ	-11.5388
▁चालयितुं	-11.5388
▁कनिष्ठिका	-11.5388
MethodDemo	-11.5388
▁धेनू	-11.5388
▁न्यूनाधिक	-11.5388
▁सप्तस्वरा	-11.5389
▁Fine	-11.5389
▁किनार	-11.5389
flow	-11.5389
मतग्राहिण	-11.5389
▁वृत्ताकार	-11.539
▁हेतोरह	-11.539
▁तरीक	-11.539
पाथ्	-11.539
▁चिन्तयामः	-11.5391
▁अभ्यस्तु	-11.5392
▁पूज्य	-11.5392
▁इत्युभय	-11.5392
▁तीक्ष्णीकरण	-11.5392
▁वशीकृत	-11.5393
क्रोश	-11.5393
▁बुध्यन्ते	-11.5394
▁परिहित	-11.5394
▁fla	-11.5395
▁वारद्वय	-11.5399
Biopython	-11.5399
▁समग्रचित्र	-11.54
▁दर्द	-11.54
▁नोचे	-11.5407
▁वामपार्श्वस्थ	-11.5408
धर्म्मसमाज	-11.5409
कालमारभ्य	-11.5412
तस्थौ	-11.5414
वितर्क	-11.5414
▁चषक	-11.5419
▁लक्षयत	-11.5427
▁इंटर	-11.5428
मुत्तर	-11.5429
▁रगड	-11.5429
▁तीक्ष्णीकृत	-11.543
▁प्रतीक्षमाण	-11.5431
▁वरदान	-11.5432
▁बोधयत	-11.5441
ाज्ञया	-11.5442
▁तीत	-11.5444
▁मरिष्य	-11.5445
▁मुद्रापयितु	-11.5448
ाकाङ्क्ष	-11.5457
कारणात	-11.5459
▁भेज	-11.5468
यच्छन्	-11.5468
▁आदिशत	-11.5473
▁चिनु	-11.549
धर्म्माचार	-11.5499
प्रस्ताव	-11.55
प्रजापति	-11.5505
शक्ष्याम	-11.5506
पाठमिद	-11.551
▁अकस्मा	-11.5537
▁Array	-11.5538
▁पूरयन	-11.554
▁पुष्पाणा	-11.5551
कुर्सी	-11.5558
निवार्य	-11.5574
▁यिहूदिन	-11.5586
▁प्रदर्शयितु	-11.559
▁युष्मन्मध्य	-11.5596
▁हनिष्य	-11.5608
▁प्रचलन	-11.5617
▁तृतीयवार	-11.5622
▁आगामिपाठे	-11.5631
▁पिदधेत	-11.5653
▁आलोच	-11.5658
विलाप	-11.5662
वश्यमेव	-11.5669
namespace	-11.567
जीविन	-11.5677
वेलाया	-11.5703
▁tha	-11.5715
ुनिया	-11.5741
▁पूर्व्वपुरुषाणा	-11.5742
▁अस्तीत्य	-11.5754
toString	-11.5774
ush	-11.5783
सर्वादौ	-11.5784
निर्म्माण	-11.579
▁विचारयितु	-11.5814
ेषाम्	-11.5821
रदार	-11.5826
▁सेवितु	-11.5826
▁निन्दन्त	-11.5828
▁विवराण	-11.5833
▁इतीम	-11.5844
मरेश्वरस्य	-11.5857
एण्ड्	-11.5863
▁गणपत	-11.5899
नन्तायुः	-11.5909
पश्चादहं	-11.5912
परिधि	-11.5912
▁त्वरय	-11.5921
इदानीमत्र	-11.593
▁विनीत	-11.5943
hra	-11.5955
▁कथमिद	-11.5989
▁अधीन	-11.6004
▁जीवाणुभ	-11.6007
ोपकरणाना	-11.6009
▁शीतकाल	-11.6024
शोभते	-11.606
▁रज्ज	-11.6105
तीदं	-11.6108
▁किन्त्वस्माक	-11.6112
▁समुपविश	-11.6137
शिल	-11.6145
शीघ्रमेव	-11.6151
मापनाय	-11.6192
आयान्तु	-11.6203
▁प्रदत्ताना	-11.6235
▁पठितुम	-11.628
तत्कर्तुमहं	-11.6283
नासिकया	-11.6295
पापाना	-11.63
▁विद्यार्थि	-11.631
एतादृश	-11.6313
▁बृहदक्षर	-11.6316
यितृ	-11.6331
▁निष्कलङ्क	-11.634
अक्षर	-11.6351
विषयाणा	-11.6351
सर्व्वलोक	-11.6358
▁उक्तवन्त	-11.6364
▁स्वात्मान	-11.6379
सम्पर्क	-11.6408
्याब्	-11.6409
प्रत्याशा	-11.642
ारब्धवान्	-11.6423
बुध्य	-11.6428
extract	-11.6429
Welcome	-11.643
व्यत्यास	-11.643
Typ	-11.643
field	-11.6431
program	-11.6431
कार्बन	-11.6432
grade	-11.6432
system	-11.6432
पृथ्वी	-11.6432
Manage	-11.6433
किमर्थ	-11.6433
अर्रे	-11.6433
दोनों	-11.6433
सम्प्रति	-11.6434
रेकार्ड्	-11.6434
URL	-11.6434
प्रिण्ट्	-11.6434
भगवान	-11.6434
स्वास्थ्य	-11.6434
पुरातन	-11.6434
पृष्टे	-11.6434
हाथों	-11.6434
IDE	-11.6434
आंखों	-11.6434
आत्म	-11.6435
कुर्वन्ति	-11.6435
भवद्भ्यः	-11.6435
लघु	-11.6435
उन्ह	-11.6435
अन्तिम	-11.6435
इत्येतेषां	-11.6436
बाहुल्य	-11.6437
संयोजन	-11.6437
पयोक्तारं	-11.6438
सेवक	-11.6441
भार्य्या	-11.6443
युष्मास्व	-11.6459
ists	-11.6473
स्मभ्यम	-11.6526
.24	-11.6537
▁पश्चाद्गामिन	-11.6551
रोपण	-11.6571
परम्पर	-11.6573
▁परिवर्त्त	-11.6573
गच्छन्तं	-11.6589
▁मेनेजर	-11.659
सिनाप्टिक	-11.659
▁इण्टर्फ़ेस	-11.659
▁पोस्ट	-11.659
▁सम्पत्त	-11.6596
endor	-11.6604
वलोकयन्तु	-11.6604
ाल्लोकान	-11.6607
▁उन्मील	-11.661
ध्वञ्च	-11.6619
मागतम्	-11.662
युर्वेद	-11.6622
गतोस्मि	-11.6623
चित्रचालन	-11.6624
▁manage	-11.6627
ानुगुणं	-11.6628
esources	-11.6628
quare	-11.6628
udget	-11.6629
इनिशियलैस	-11.663
▁qui	-11.663
Turtle	-11.6631
▁Intern	-11.6631
suggest	-11.6631
built	-11.6631
▁Interpolat	-11.6631
▁कादम्बर	-11.6631
▁जालाधारित	-11.6631
▁साहाय्यी	-11.6631
arithmetic	-11.6631
eploy	-11.6631
शिथिलीकरणव्यायाम	-11.6631
साङ्ख्यिकदत्तांश	-11.6631
▁5,00,000	-11.6631
▁Authenticat	-11.6631
▁इलीशेवा	-11.6631
▁एन्विरोन्मेण्ट्	-11.6631
▁ऑकसीजन	-11.6631
▁ओप्शन्	-11.6631
▁खनिजलवण	-11.6631
▁दूग्ध	-11.6631
▁मृतगणमध्या	-11.6631
▁वामजानु	-11.6631
▁सिंहासनोपविष्ट	-11.6631
Location	-11.6631
akh	-11.6631
degree	-11.6631
extend	-11.6631
harshita	-11.6631
interpreter	-11.6631
izard	-11.6631
lectro	-11.6631
ressure	-11.6631
एतदनुशिक्षण	-11.6631
ट्युतोरियल्	-11.6631
त्वारिंशदपेक्षया	-11.6631
फ़्रेग्मेण्ट्	-11.6631
राग्राफ्	-11.6631
र्तमानकूटसङ्ख्या	-11.6631
▁Anti	-11.6631
▁Box	-11.6631
▁Deposit	-11.6631
▁Enhance	-11.6631
▁Error	-11.6631
▁Healing	-11.6631
▁Human	-11.6631
▁Optional	-11.6631
▁Plugins	-11.6631
▁Publishe	-11.6631
▁Quotation	-11.6631
▁Repeatable	-11.6631
▁Sharpen	-11.6631
▁Status	-11.6631
▁Surname	-11.6631
▁answer	-11.6631
▁assignment	-11.6631
▁branch	-11.6631
▁canvas	-11.6631
▁design	-11.6631
▁divide	-11.6631
▁edges	-11.6631
▁expir	-11.6631
▁getParameter	-11.6631
▁involutes	-11.6631
▁swap	-11.6631
▁symbol	-11.6631
▁अनायासेन	-11.6631
▁अलभत	-11.6631
▁आकाशगंगा	-11.6631
▁आरेभिरे	-11.6631
▁उड्डय	-11.6631
▁उत्पद्यन्ते	-11.6631
▁उपतिष्ठति	-11.6631
▁कर्म्माण्येतान	-11.6631
▁चिन्वन्ति	-11.6631
▁जानवरों	-11.6631
▁डिप्लोय्	-11.6631
▁डिफ़ैण्ड्	-11.6631
▁ततोऽधिक	-11.6631
▁दम्मेषक्नगर	-11.6631
▁धनुर्विद्या	-11.6631
▁नालभन्त	-11.6631
▁निर्द्दोष	-11.6631
▁निश्चिनोमि	-11.6631
▁निष्कपट	-11.6631
▁निष्ठीव	-11.6631
▁न्यवसत्	-11.6631
▁परिष्कुरुत	-11.6631
▁प्रतस्थे	-11.6631
▁प्रारेभे	-11.6631
▁फन्क्षन्	-11.6631
▁मच्चिन्तनानुसार	-11.6631
▁मुम्बै	-11.6631
▁रेडियो	-11.6631
▁विवेचना	-11.6631
▁सञ्चालयत	-11.6631
▁सञ्जायते	-11.6631
▁सहभागित्वं	-11.6631
▁स्पैरल्	-11.6631
fasta	-11.6631
ucle	-11.6631
चिकीर्ष	-11.6631
▁Constructor	-11.6631
▁Expir	-11.6631
▁आयोडीन	-11.6631
▁आरुह्य	-11.6631
▁एकमन्त्रणा	-11.6631
▁क्षुधित	-11.6631
▁गरुड	-11.6631
▁ज्ञास्यथ	-11.6631
▁तण्डुल	-11.6631
▁निर्गच्छन्ति	-11.6631
▁पञ्चाशत्	-11.6631
▁बद्व्व	-11.6631
▁संवत्सर	-11.6631
▁सङ्कटै	-11.6631
▁सम्भूय	-11.6631
diction	-11.6631
द्युम्न	-11.6631
मादिष्टवान्	-11.6631
▁filter	-11.6631
▁gener	-11.6631
▁क्लिश्य	-11.6631
▁खींच	-11.6631
▁गुल्फ	-11.6631
▁चतुर्दिक्ष	-11.6631
▁छेदन	-11.6631
▁फार्मेट्	-11.6631
▁लघू	-11.6631
information	-11.6631
फास्फ	-11.6631
▁निक्षेपात्	-11.6631
▁ललाट	-11.6631
▁सिन्हा	-11.6631
▁स्त्रोत	-11.6631
▁SVG	-11.6631
▁धृष्ट	-11.6631
▁परमायुः	-11.6631
▁प्रारभ्यते	-11.6631
ube	-11.6631
कास्टिङ्ग्	-11.6631
▁Post	-11.6631
कान्स्टंट	-11.6631
▁place	-11.6631
▁क्रियेत	-11.6631
▁दूषित	-11.6631
dSum	-11.6631
▁1.1.1	-11.6631
▁रोमानगर	-11.6631
गवेषण	-11.6631
▁काचिद्	-11.6631
each	-11.6631
stdio	-11.6631
▁गिम्प	-11.6631
▁विश्वसनीय	-11.6631
▁किन्तू	-11.6631
▁विसर्जन	-11.6631
▁प्राणहनन	-11.6631
▁युद्धभूम	-11.6631
बेंज़	-11.6631
▁ऋषय	-11.6631
▁मेलार्थक	-11.6631
▁लयबद्ध	-11.6631
▁सुलेमान	-11.6631
तीर्य्य	-11.6631
प्राचीनभारतीय	-11.6631
▁प्रेरणा	-11.6631
▁धूप	-11.6631
▁प्लेयर्	-11.6631
▁बधिर	-11.6631
▁बहिष्कृत	-11.6631
▁शक्ष्यते	-11.6631
▁अधिकज्ञानाय	-11.6631
▁मन्त्रिण	-11.6631
▁सेनापती	-11.6631
▁सन्तुलन	-11.6631
▁तन्निकट	-11.6631
ममेध्य	-11.6631
▁गृह्णन्ति	-11.6631
▁नमस्कुरु	-11.6631
Workspace	-11.6631
श्रृंग	-11.6631
▁सिदोम	-11.6631
मुकुट	-11.6631
ावास्तां	-11.6631
▁अप्राप्य	-11.6631
▁मध्यमधूसरवर्ण	-11.6631
▁वादिताया	-11.6631
▁अस्तेय	-11.6631
▁सोडियम	-11.6631
▁click	-11.6631
अङ्कगणित	-11.6631
▁बाल्यकाला	-11.6631
स्थसमित	-11.6631
Flat	-11.6631
▁शुनक	-11.6631
▁निर्णय	-11.6631
ाहूतवान्	-11.6631
▁षष्टि	-11.6631
Super	-11.6631
▁कारिष्यन्ते	-11.6631
▁जुह	-11.6631
▁pipe	-11.6631
▁आग्रिप्पराज	-11.6631
▁रजन्या	-11.6631
▁जगन्	-11.6631
▁Invalid	-11.6632
▁नियामक	-11.6632
▁चिन्त्यत	-11.6632
▁डीसेलेक्ट	-11.6632
रिवर्स्	-11.6632
▁टक्स	-11.6632
▁परिचाय	-11.6632
▁आधृत्य	-11.6632
▁clone	-11.6632
▁कल्पित	-11.6632
▁वर्तुलाकार	-11.6632
▁मयोक्त	-11.6632
▁बिन्दव	-11.6632
rontaccounting	-11.6632
▁Reference	-11.6632
म्लरस	-11.6632
▁मंगल	-11.6632
▁प्रमाद	-11.6632
▁छाल	-11.6632
पेट्रन्	-11.6632
▁शुद्धोच्चारण	-11.6632
प्लिके	-11.6632
▁आलाप	-11.6632
▁नमस्कृत	-11.6633
▁Dimension	-11.6633
▁अकरव	-11.6633
ाग्रभाग	-11.6633
▁यास्यामि	-11.6633
ender	-11.6633
▁इच्छुक	-11.6633
▁छाग	-11.6633
▁गुणवत्ता	-11.6633
▁परदारान	-11.6633
▁लकड़	-11.6633
▁लगातार	-11.6633
▁finish	-11.6633
▁getter	-11.6633
▁घोषण	-11.6633
▁ययुः	-11.6633
▁पचति	-11.6634
▁आपल्ल	-11.6634
▁full	-11.6634
कुष्ठिन	-11.6634
▁गम्यताम्	-11.6634
ormal	-11.6634
▁mail	-11.6634
▁घटिष्यन्ते	-11.6634
▁शतगुणान	-11.6634
▁अश्वत्थ	-11.6634
शुल्क	-11.6634
▁सामवेद	-11.6634
▁दुर्बल	-11.6634
ससृज	-11.6635
▁वदिष्यामि	-11.6635
▁(2)	-11.6635
▁प्यार	-11.6635
▁निश्चल	-11.6635
चित्रफलक	-11.6635
▁incr	-11.6635
ईथेन्	-11.6636
▁सज्जीकरण	-11.6636
कङ्काल	-11.6636
पहृत	-11.6636
▁मनोहर	-11.6636
▁नैज	-11.6636
▁सरण्या	-11.6636
▁संमन्य	-11.6636
▁pane	-11.6637
वज्र	-11.6637
▁लेपयाम	-11.6637
▁अन्विष्ट	-11.6638
▁महामहिम	-11.6638
ष्माभि	-11.6638
▁दैवीय	-11.6638
▁डिस्क	-11.6639
प्रत्यर्पण	-11.664
▁परिवर्त्तिते	-11.664
▁घातयिष्य	-11.6641
लिप्स	-11.6642
▁गर्म	-11.6642
रन्ध्र	-11.6644
श्चैतान	-11.6644
स्नायुतन्त्रिका	-11.6645
Click	-11.6647
▁कन्ये	-11.6648
नगर्य्या	-11.6648
▁ख्यात	-11.6652
पाठनियोजनार्थम्	-11.6653
▁दौर	-11.6654
नामधेय	-11.6655
resentation	-11.6656
▁युष्माकमन्त	-11.6657
▁रोपित	-11.666
rogen	-11.6661
नासक्त	-11.6662
इतीदमनुसृत्य	-11.6667
यितुमिच्छन्ति	-11.6672
▁शक्नुवन्त	-11.6677
▁मौन	-11.6678
▁सारल्य	-11.6679
▁बलपूर्वक	-11.6685
द्वादशशिष्यान	-11.6687
केसर	-11.6689
श्नार्थकचिह्नस्य	-11.669
▁अङ्कुरित	-11.6696
संवेदना	-11.6702
ियाँ	-11.6702
▁पवित्रीकृत	-11.6707
▁यापयाम	-11.6708
▁संस्क	-11.6711
245	-11.6731
ज्जना	-11.6732
▁तदनन्तरम	-11.6735
▁संवर्ध	-11.674
▁घृण	-11.677
▁अनुभूय	-11.6798
▁मज्जयितु	-11.6807
र्मेट	-11.682
तथापीश्वर	-11.6847
Propert	-11.6855
upplier	-11.686
इदानीमहम्	-11.6866
जागरूकतया	-11.6883
▁तेनेद	-11.6889
▁भिन्नदेशीयलोकान	-11.6902
मागच्छत	-11.6908
स्वीकरण	-11.692
स्वीकार	-11.6922
्थान	-11.6955
क्षमतां	-11.6964
▁तदुप	-11.6969
very	-11.7005
वार्ता	-11.7029
▁प्रक्रियाणा	-11.703
▁लभध्व	-11.7035
राज्यप्रवेश	-11.7036
▁प्रकारकाण	-11.7049
▁सर्व्वस्माद	-11.706
मेरुदण्डं	-11.7061
ऽकथयन्	-11.7068
▁परिवृत	-11.7093
स्माच्च	-11.71
ासादित	-11.7112
प्रश्नस्य	-11.7116
संधान	-11.7123
▁निवेदयामास	-11.7135
दर्शयत्	-11.7143
गोलक	-11.7149
स्माकम	-11.7161
समस्तभूतान	-11.7165
प्रजातीना	-11.7181
ितव्यानि	-11.722
एतदर्थम	-11.726
प्रत्यागच्छतु	-11.7268
रुधिरेण	-11.7278
▁रक्षितुमिच्छ	-11.7316
▁2.3.	-11.7319
रञ्ज	-11.7354
ोक्तवत्	-11.7358
▁माहेश्वरसूत्राण	-11.7367
▁प्रदर्श्य	-11.7368
rna	-11.738
NAME	-11.7392
मुद्रापण	-11.7458
सङ्गिनश्च	-11.7484
▁ज्ञातुम	-11.7486
▁स्पर्शनस	-11.7539
सन्धी	-11.7542
सूत्राण	-11.7555
▁प्रेरक	-11.756
ासीत	-11.7572
▁आवलि	-11.7574
वर्त्तमान	-11.7577
मागतवन्तः	-11.7586
rete	-11.761
न्त्रेण	-11.7662
चणक	-11.769
पर्य्यन्त	-11.7691
देर	-11.7697
पूर्य्य	-11.7702
▁दर्शयिष्य	-11.7703
विवाद	-11.7721
तेनास्माक	-11.773
▁साधयिष्य	-11.7733
▁श्रोता	-11.7759
▁खनन	-11.7768
▁इन्द्रियाण	-11.7769
दानीम्	-11.7771
▁शिशून	-11.7773
▁मूलाकृत	-11.7792
वर्त्ती	-11.7812
पङ्क्त्या	-11.7852
शिक्षक	-11.7853
निर्वहण	-11.7858
View	-11.7858
तन्त्रांश	-11.7858
frame	-11.7859
colon	-11.7859
फुप्फुस	-11.7859
multi	-11.7859
Options	-11.7859
रिटर्न्	-11.7859
परिष्कृत	-11.786
डैमेन्शनल्	-11.786
CTRL	-11.786
शोणित	-11.786
साम्प्रत	-11.786
विपरीत	-11.786
उच्चै	-11.7861
व्यभिचार	-11.7861
JSP	-11.7861
क्लोस्	-11.7861
इङ्क्	-11.7861
Account	-11.7861
जिह्वा	-11.7861
विश्रामवारे	-11.7861
Number	-11.7861
Open	-11.7862
colour	-11.7862
पृथ्व्या	-11.7862
case	-11.7862
धेनवस्य	-11.7862
उपकरण	-11.7862
Teacher	-11.7862
कोष्ठक	-11.7862
सम्यग्	-11.7862
ICT	-11.7862
साहाय्यं	-11.7862
equal	-11.7862
अनुशिक्षण	-11.7863
पितृ	-11.7863
Student	-11.7863
शिक्षा	-11.7863
उपरितन	-11.7864
select	-11.7864
चर्चा	-11.7865
नुभूयेत	-11.7872
भरत	-11.7883
▁फलाना	-11.7896
चिन्वन्तु	-11.7905
व्यवहार	-11.7924
निश्चित	-11.7925
ाभिमतं	-11.7973
योक्तॄणां	-11.7978
▁सङ्ख्य	-11.7979
Whe	-11.7983
प्रश्नार्थकचिह्न	-11.7991
▁Enrol	-11.7997
पुनरहं	-11.8007
▁टूल	-11.8012
▁भूयात	-11.8019
क्सीजन	-11.8029
Photo	-11.8037
न्वेषण	-11.804
▁Molecul	-11.8041
▁बुद्	-11.8043
बोक्स	-11.8047
▁अनयोर्	-11.8053
▁विपथगाम	-11.8053
▁मांसपेशिय	-11.8054
▁हथेलिय	-11.8054
▁brows	-11.8055
▁Norma	-11.8056
ompany	-11.8056
▁पुरोदेश	-11.8057
स्टालेशन्	-11.8059
क्रिमेण्ट्	-11.8059
▁इतीदमुपयु	-11.8059
▁Sam	-11.8059
)------------	-11.8059
Work	-11.8059
▁मोलेक्य	-11.8059
magnif	-11.8059
मोड्युल्	-11.8059
▁configuration	-11.8059
▁आह्लाद	-11.8059
▁कर्णीलिय	-11.8059
▁जरूरत	-11.8059
▁नाडीशुद्धि	-11.8059
▁फ़िल्टर्	-11.8059
▁वराहव्रज	-11.8059
▁संस्कृतवर्णमाला	-11.8059
BibTeX	-11.8059
Involutes	-11.8059
Privacy	-11.8059
Request	-11.8059
Variables	-11.8059
acquisition	-11.8059
available	-11.8059
concatenate	-11.8059
ighlight	-11.8059
plugins	-11.8059
updated	-11.8059
अधस्ताद्विद्यमान	-11.8059
कन्फ़र्मेशन	-11.8059
कोर्बोक्सिल	-11.8059
ज्ञानेन्द्रियाणि	-11.8059
डल्लकान्	-11.8059
तदुद्घाटयितुं	-11.8059
नाट्यशास्त्र	-11.8059
पब्लिक्	-11.8059
पाठमिममनुसर्तुं	-11.8059
मृण्मय	-11.8059
मोमबत्त	-11.8059
यिरीहो	-11.8059
शताब्द्या	-11.8059
सम्पन्मूल	-11.8059
स्वातन्त्र्य	-11.8059
▁2017-2018	-11.8059
▁ARGC	-11.8059
▁Agency	-11.8059
▁Angle	-11.8059
▁Bombay	-11.8059
▁Calendar	-11.8059
▁Chrome	-11.8059
▁Claim	-11.8059
▁Counselor	-11.8059
▁Duplicate	-11.8059
▁Ellipse	-11.8059
▁Guide	-11.8059
▁Increment	-11.8059
▁Material	-11.8059
▁TestStudent	-11.8059
▁apache	-11.8059
▁laptop	-11.8059
▁parenthesis	-11.8059
▁session	-11.8059
▁staff	-11.8059
▁stipend	-11.8059
▁अथर्ववेद	-11.8059
▁अलभन्त	-11.8059
▁आंदोलन	-11.8059
▁आकाशमण्डल	-11.8059
▁आखायादेश	-11.8059
▁आतिथ्य	-11.8059
▁आरेभे	-11.8059
▁इत्युच्यन्ते	-11.8059
▁उठाएँ	-11.8059
▁उपयोक्तृणा	-11.8059
▁ऊचुः	-11.8059
▁एक्स्ट्रेक्ट्	-11.8059
▁ओक्सिजन्	-11.8059
▁क्षुधार्त्त	-11.8059
▁गाम्भीर्य	-11.8059
▁ग्रिड्	-11.8059
▁छित्त्वा	-11.8059
▁ज्ञपदकहकवउ	-11.8059
▁डिरेक्टर	-11.8059
▁डैलोग्	-11.8059
▁तृषार्त्त	-11.8059
▁त्रोयानगर	-11.8059
▁द्रक्ष्यति	-11.8059
▁द्रक्ष्यसि	-11.8059
▁द्रौपदी	-11.8059
▁धार्मिक	-11.8059
▁नाशक्नुवन्	-11.8059
▁निरक्षिप	-11.8059
▁निर्गमयति	-11.8059
▁पहुँच	-11.8059
▁पान्थशालाया	-11.8059
▁पुनर्मिलामः	-11.8059
▁पुमांस	-11.8059
▁पोलिगान्	-11.8059
▁प्रत्याशया	-11.8059
▁प्रविविशुः	-11.8059
▁प्राप्नोषि	-11.8059
▁बांबे	-11.8059
▁बेसिक्	-11.8059
▁भूमण्डल	-11.8059
▁भैषीः	-11.8059
▁मध्याह्न	-11.8059
▁मुश्किल	-11.8059
▁रुध्यते	-11.8059
▁लिपिरास्ते	-11.8059
▁विधिकल्पः	-11.8059
▁विरचय्य	-11.8059
▁व्रीहि	-11.8059
▁शक्नोषि	-11.8059
▁शूर्पणखा	-11.8059
▁सेकेण्डर	-11.8059
▁सेतुबंधासन	-11.8059
▁सोभिषिक्त	-11.8059
▁सौरमंडल	-11.8059
▁स्वीक्रियमाण	-11.8059
Range	-11.8059
etAttribute	-11.8059
एतद्विहाय	-11.8059
हैड्रल्	-11.8059
▁अस्माकञ्च	-11.8059
▁इन्स्टल्लेषन्	-11.8059
▁एण्ट्रीस्	-11.8059
▁बैत्लेहम	-11.8059
▁वव्रजुः	-11.8059
▁शिथिलताडासन	-11.8059
▁सुभद्रा	-11.8059
Sunday	-11.806
expected	-11.806
oggle	-11.806
ओरिजिनल्	-11.806
कटिबन्धनं	-11.806
तिरिच्य	-11.806
रेग्युल	-11.806
▁Crop	-11.806
▁Pvt	-11.806
▁follow	-11.806
▁आपरेण्ड्	-11.806
▁उद्दीपन	-11.806
▁कापट्य	-11.806
▁कीलकनोदनेन	-11.806
▁कुर्य्यु	-11.806
▁जग्राह	-11.806
▁ढोल	-11.806
▁दण्डकारण्य	-11.806
▁ध्वन्यङ्कनायाहं	-11.806
▁परामर्श	-11.806
▁पार्थिव	-11.806
▁पितरयोहन	-11.806
▁रङ्गसिक्त	-11.806
▁विवदमाना	-11.806
▁व्यवस्थापयतु	-11.806
▁शेकुः	-11.806
▁सङ्गृह्य	-11.806
▁सेम्पल्	-11.806
▁हृत्वा	-11.806
7.1.1	-11.806
fruit	-11.806
ग्रौण्ड्	-11.806
पैथान्	-11.806
▁Ltd	-11.806
▁अङ्कपालनस्य	-11.806
▁उन्मत्त	-11.806
▁प्रैवेट्	-11.806
▁विश्रान्ति	-11.806
Assign	-11.806
खगोलविज्ञान	-11.806
▁ENTRY	-11.806
▁Price	-11.806
▁अक्षिणी	-11.806
▁त्वदर्थ	-11.806
▁फिरूशिलोका	-11.806
▁भुजाओं	-11.806
▁वशीकर्त्	-11.806
कम्पोस्ट	-11.806
▁debit	-11.806
▁सर्व्वोपरिस्थ	-11.806
▁स्मर्तव्यम्	-11.806
apps	-11.806
क्रम्ब्	-11.806
▁Thing	-11.806
▁एक्सिक्य़	-11.806
▁प्राकाशत	-11.806
▁मिसर्देश	-11.806
विवरणार्थमहं	-11.806
▁Feat	-11.806
▁दातुञ्च	-11.806
▁निरर्थक	-11.806
ापेक्षा	-11.806
▁अन्तरिक्ष	-11.806
शिमियोन	-11.806
▁अभीष्ट	-11.806
▁कैकेय	-11.806
▁गृहसन्धारिकाया	-11.806
▁टुटोरियल्	-11.806
▁मण्डलीकृत	-11.806
▁सान्त्वनया	-11.806
Align	-11.806
घानिष्यन्ते	-11.806
चित्रपतङ्ग	-11.806
▁अङ्गुलि	-11.806
▁प्रीयमाण	-11.806
▁कन्स्ट्र	-11.806
▁नियोजित	-11.806
▁साक्षात्प्राप्य	-11.806
▁खनित्वा	-11.806
▁गान्धार	-11.806
drive	-11.806
▁उष्ट्र	-11.806
▁सम्भवेत्	-11.806
▁सिषेव	-11.806
▁हिन्दी	-11.806
▁परिहर्तु	-11.806
असन्तुलन	-11.806
नेट्वर्क्	-11.806
ाच्छादित	-11.806
▁शोषण	-11.806
▁अभवाम	-11.806
▁व्यापक	-11.806
▁संशोध	-11.806
▁php	-11.806
दुष्कर	-11.806
▁पेठिक	-11.806
इवाभवं	-11.806
▁प्रचलित	-11.806
▁योषिद्	-11.806
निकटवर्त्ति	-11.806
▁जीवाश्म	-11.806
▁सतर्काः	-11.806
▁तन्मातर	-11.806
सम्बलित	-11.806
▁निर्मान्तु	-11.806
Snap	-11.806
▁प्रशस्त	-11.806
▁फाइ	-11.806
mrc	-11.806
▁सर्वोच्च	-11.806
स्पर्धा	-11.806
▁स्फीत	-11.806
▁अरुण	-11.806
dark	-11.806
▁प्रलाप	-11.806
▁प्रियबालका	-11.806
▁Flow	-11.806
▁Receiv	-11.806
बध्नन्	-11.806
▁जिघ	-11.806
▁मयूर	-11.806
▁लैस	-11.806
▁प्रणमति	-11.806
part	-11.806
▁वाग्दत्ता	-11.806
▁मापिका	-11.806
▁प्रतारक	-11.806
बौसर्	-11.806
वागिय	-11.806
▁मानवसुत	-11.806
▁स्वतंत्र	-11.8061
▁वहिर्	-11.8061
▁स्वीकरणीय	-11.8061
▁तत्समान	-11.8061
▁बांध	-11.8061
▁ज्वलति	-11.8061
चानक	-11.8061
उद्वालन	-11.8061
▁अग्रसर	-11.8061
्वाशिय	-11.8061
▁प्रजनन	-11.8061
▁शिशव	-11.8061
▁भोजनपान	-11.8061
▁मीरा	-11.8061
▁रुदन्त	-11.8061
स्वाभ्यासार्थं	-11.8061
ाङ्कृते	-11.8062
▁इस्रायेल्वंश	-11.8062
टेन्शिय	-11.8062
▁Powa	-11.8062
▁स्वामित्व	-11.8062
▁तदन्तिक	-11.8062
▁भर्त्ता	-11.8063
▁पादतल	-11.8063
▁क्लाम्य	-11.8063
▁ज्यामित	-11.8063
▁तत्सम्बद्धपाठान	-11.8063
▁तैयार	-11.8063
▁भगवन्	-11.8063
ोपद्रव	-11.8064
▁नौकासन	-11.8064
ान्येतानि	-11.8064
▁युगान्त	-11.8064
▁आरोप्य	-11.8064
tiles	-11.8065
लेटेक्	-11.8065
मालिश	-11.8065
▁परिभाषित	-11.8066
▁गङ्गा	-11.8066
▁तिष्ठनत	-11.8067
myoutput	-11.8067
स्तत्समीपम	-11.8067
▁लोकयान	-11.8068
्लोट्	-11.8068
▁plan	-11.8069
▁प्रैरय	-11.807
▁श्रावय	-11.8072
keyboard	-11.8073
twe	-11.8073
▁तरङ्ग	-11.8074
विवेकानन्द	-11.8076
▁भवामस्तदर्थ	-11.8077
▁स्वर्गस्थपित	-11.8077
▁कवय	-11.8078
विज्ञानक्षेत्रे	-11.8078
▁आसीद	-11.8079
दृढीकरणसन्देश	-11.8079
ाकर्ण्य	-11.808
▁Photos	-11.8082
मेघारूढ	-11.8088
तर्जयामासुः	-11.8092
योर्द्वयो	-11.8093
▁यथेच्छ	-11.8099
प्रदक्षिणक्रमे	-11.8104
▁सूत्राणा	-11.8106
▁अनामय	-11.8109
▁संयोक्तु	-11.811
▁खेद	-11.8111
मृदुसीमा	-11.8119
▁prote	-11.8131
adduser	-11.8134
तस्थुः	-11.8138
पृष्टश्चेत्	-11.8146
▁पुरुषसूक्त	-11.8151
tice	-11.8156
शत्रुघ्न	-11.8157
प्रेमिण	-11.8161
द्विशत	-11.8163
▁श्वासत्यागस	-11.8164
हर्ता	-11.8168
▁बुर	-11.8171
▁क्षान्त	-11.8175
निन्दनीय	-11.8183
▁वक्षस्थल	-11.82
processor	-11.8204
त्रिकोणासन	-11.8234
▁कितन	-11.8239
▁मत्पश्चा	-11.8241
▁पूरयितु	-11.8279
▁एक्स्प	-11.8284
योर्मध्ये	-11.8305
्रावयत्	-11.8323
▁यर्द्दन	-11.8331
श्रुत	-11.8347
पितामही	-11.835
वामभागस्थ	-11.8374
▁चुम्ब	-11.8393
▁जीविष्याम	-11.842
चिज्जन	-11.8425
स्मिंश्च	-11.8434
▁त्रीन	-11.8436
▁दक्षिणनासिक	-11.8456
तन्मध्य	-11.8485
तीक्ष्ण	-11.8492
▁वाहय	-11.8495
▁वीक्षितु	-11.8511
▁चास्माक	-11.8522
तदपेक्षया	-11.8544
▁साक्ष्यमिद	-11.8609
याच्यते	-11.8621
ुपविश्य	-11.8663
ओर्बिटल्स्	-11.8671
बाह्या	-11.8743
▁अङ्काना	-11.8772
▁चित्राणा	-11.8777
▁नियोजय	-11.8826
▁ख्रीष्टोऽप	-11.8844
▁Custom	-11.8876
▁कर्षयितु	-11.8882
▁चेदिद	-11.8888
ओवर्लोड	-11.8898
दुपदेश	-11.8921
ुमिच्छामि	-11.893
ालनाय	-11.893
तावु	-11.8941
▁विक्रेत	-11.8979
etect	-11.8991
▁गीयत	-11.8991
omponents	-11.901
घर्षणञ्च	-11.9015
देखना	-11.9061
त्रीणा	-11.9061
▁play	-11.9071
प्लव	-11.9074
▁Tri	-11.909
पात्राणा	-11.9095
▁संकल्प	-11.91
▁शिक्षयन्त	-11.9113
▁काचिन्	-11.9116
▁ऽस्मान	-11.9171
▁उपकरोत	-11.9203
tab	-11.9205
प्रक्षाल	-11.9249
▁ईक्षिष्य	-11.9297
पशुभि	-11.93
नुदतु	-11.9304
▁प्रत्यागच्छत	-11.9312
▁समर्पयिष्यन्त	-11.9327
▁देवपूजक	-11.9337
▁त्रपिष्य	-11.9338
▁परिशीलयितुम	-11.9348
▁कुर्य्या	-11.9357
मिश्रधात	-11.9361
▁रचयन्त	-11.9477
िष्यसे	-11.9486
Project	-11.9515
Course	-11.9516
input	-11.9525
function	-11.9525
standard	-11.9525
write	-11.9525
केटगरि	-11.9525
group	-11.9526
sample	-11.9526
प्राम्प्ट्	-11.9526
install	-11.9526
परिचारक	-11.9526
control	-11.9526
पर्यावरण	-11.9526
change	-11.9527
library	-11.9527
विनिमय	-11.9527
document	-11.9527
getDetails	-11.9527
इन्स्टेन्स्	-11.9527
Close	-11.9527
ओपरेटर्	-11.9527
ग्रन्थालय	-11.9528
ग्राहक	-11.9528
menu	-11.9528
श्मशान	-11.9528
स्क्रीन्	-11.9528
Drive	-11.9528
Journal	-11.9528
मानसिक	-11.9528
मनुजसुत	-11.9528
शिथिल	-11.9528
साक्षिण	-11.9528
DNA	-11.9528
Next	-11.9528
कर्सर्	-11.9529
Shift	-11.9529
grep	-11.9529
टीचर्	-11.9529
पिञ्ज	-11.9529
loop	-11.9529
नीलवर्ण	-11.9529
युष्मभ्य	-11.9529
फ़ङ्क्षन्	-11.9529
डैलाग्	-11.9529
डेटा	-11.953
इत्यस्यान्तः	-11.953
Library	-11.953
टेब्	-11.953
उपयुज्य	-11.953
शक्नोति	-11.953
रचयितुं	-11.953
वर्तमान	-11.9531
लज्ज	-11.9532
मृत्यु	-11.9532
▁दण्डयितु	-11.954
▁आवृत	-11.956
ावतिष्ठ	-11.9563
▁subcategor	-11.9568
▁भवद्भ्य	-11.9616
▁परमाणू	-11.9617
चिकित्स	-11.9623
तन्त्रम्	-11.9627
▁पन्था	-11.9633
▁बहुलोकान	-11.9646
चित्रकणान	-11.9664
▁Calculat	-11.9671
▁केचिद	-11.9685
▁क्विज़	-11.9686
▁शारीर	-11.9689
धस्तात्	-11.9695
▁उद्देश	-11.9704
▁शक्न	-11.9709
नूतनप्रजात	-11.9715
त्रिंशत्	-11.9717
तन्निमित्तम्	-11.9718
▁अशृण	-11.9719
▁Creat	-11.972
Buil	-11.9721
▁प्राविश	-11.9721
▁आरभाम	-11.9723
▁व्याहृत	-11.9723
alette	-11.9723
ramework	-11.9724
भुञ्जत	-11.9724
फ़्ट्वेर्	-11.9724
ताडना	-11.9725
ouble	-11.9725
▁वर्तुल	-11.9726
orld	-11.9726
Filter	-11.9726
८	-11.9726
eamer	-11.9726
▁Pass	-11.9726
ड्रोजन	-11.9726
ktouch	-11.9726
क्रयविक्रय	-11.9726
▁विष्णुसहस्रनाम	-11.9726
▁सूर्य्यकान्तमण	-11.9726
Debug	-11.9726
लुस्त्रा	-11.9726
▁तदूर्ध्व	-11.9726
▁तस्याभिप्रायो	-11.9726
▁सैक्लोहेक्स	-11.9726
▁स्वधूर	-11.9726
Greeting	-11.9726
Ktouch	-11.9726
Success	-11.9726
djust	-11.9726
ehavio	-11.9726
ग्राफिक्	-11.9726
पौलबर्णब्ब	-11.9726
मेदिन्यो	-11.9726
ुत्तोल्य	-11.9726
ोत्थापन	-11.9726
▁0.91	-11.9726
▁Linker	-11.9726
▁drawing	-11.9726
▁employee	-11.9726
▁twenty	-11.9726
▁अब्जेक्ट्	-11.9726
▁उच्चैःस्वरेण	-11.9726
▁फिरूशी	-11.9726
▁बैत्सैद	-11.9726
▁ब्याण्ड्	-11.9726
/2017-10	-11.9726
Attempt	-11.9726
Barcode	-11.9726
Benzene	-11.9726
Complete	-11.9726
DVD	-11.9726
Forward	-11.9726
Mandatory	-11.9726
Mouse	-11.9726
NameHandler	-11.9726
Pencil	-11.9726
Rebecca	-11.9726
Surface	-11.9726
alpha	-11.9726
article	-11.9726
breadcrumb	-11.9726
chooser	-11.9726
delimiter	-11.9726
dentifier	-11.9726
esponsibility	-11.9726
extension	-11.9726
histogram	-11.9726
nHalf	-11.9726
status	-11.9726
uitorial	-11.9726
uzzy	-11.9726
अवोगोड्रो	-11.9726
आस्टरिक्	-11.9726
ओवेर्लोड	-11.9726
गोस्तनीरस	-11.9726
ग्राफिकल्	-11.9726
ज्ञाग्राहित्व	-11.9726
डेण्टिफ़ै	-11.9726
नाइट्रोजन	-11.9726
नापराद्धं	-11.9726
बीजान्युप्त	-11.9726
ब्यूटेन्	-11.9726
याथार्थ्य	-11.9726
रविवर्मा	-11.9726
रिसल्ट्	-11.9726
लङ्घनं	-11.9726
शिथिलिकरणव्यायाम	-11.9726
सब्स्क्रिप्षन्	-11.9726
सुगन्धिद्रव्य	-11.9726
ऽनन्तायु	-11.9726
५	-11.9726
▁Aniline	-11.9726
▁Brightness	-11.9726
▁Charge	-11.9726
▁Corrective	-11.9726
▁Effect	-11.9726
▁Inventory	-11.9726
▁Manipulat	-11.9726
▁PPID	-11.9726
▁Reload	-11.9726
▁Sequence	-11.9726
▁circle	-11.9726
▁distance	-11.9726
▁equation	-11.9726
▁features	-11.9726
▁figure	-11.9726
▁highlighting	-11.9726
▁kilogram	-11.9726
▁payment	-11.9726
▁permission	-11.9726
▁require	-11.9726
▁service	-11.9726
▁submit	-11.9726
▁three	-11.9726
▁welcome	-11.9726
▁अनुपस्थितसम्पुट	-11.9726
▁अपचिनोमि	-11.9726
▁अभ्यस्तवन्तः	-11.9726
▁अर्ग्युमेण्ट्	-11.9726
▁अशोकवन	-11.9726
▁आदिरन्तश्च	-11.9726
▁आरभमाण	-11.9726
▁इस्टाल्	-11.9726
▁ओपरेण्ड्	-11.9726
▁ओरियेण्टेशन्	-11.9726
▁कथयाम्बभूव	-11.9726
▁कस्मिंश्चिद्	-11.9726
▁किमप्युत्तर	-11.9726
▁कूटपद	-11.9726
▁गह्वर	-11.9726
▁गृहगोधिका	-11.9726
▁ग्लूकोज	-11.9726
▁चतुर्ण्णा	-11.9726
▁छिनत्ति	-11.9726
▁ज्ञायन्ते	-11.9726
▁ड्र्याग्	-11.9726
▁तदभिप्रायेण	-11.9726
▁तारामण्डल	-11.9726
▁तिरस्कृत	-11.9726
▁तुष्टिजनक	-11.9726
▁त्रैमासिक	-11.9726
▁थुयातीर	-11.9726
▁दुरुपयोग	-11.9726
▁द्रौपदेय	-11.9726
▁धकेलें	-11.9726
▁नारिकेल	-11.9726
▁निखिल	-11.9726
▁नुत्वैव	-11.9726
▁नुदन्नेव	-11.9726
▁पकड़ें	-11.9726
▁पद्मनाभ	-11.9726
▁प्रमुखस्त्रोत	-11.9726
▁प्रारेभिरे	-11.9726
▁फ़ार्म्याट्	-11.9726
▁बङ्गाली	-11.9726
▁बैथनिय	-11.9726
▁ब्रवीति	-11.9726
▁ब्राकेट्	-11.9726
▁भाराक्रान्ता	-11.9726
▁मण्डल्या	-11.9726
▁मुस्कुरा	-11.9726
▁मुहुर्मुहु	-11.9726
▁मृषासाक्ष्य	-11.9726
▁म्यापिङ्ग्	-11.9726
▁यदुच्यते	-11.9726
▁यीशुस्तानुवाच	-11.9726
▁यूनानीय	-11.9726
▁रिक्तपङ्क्ती	-11.9726
▁रिक्वेस्ट्	-11.9726
▁लायदिकेयास्थ	-11.9726
▁लोप्स्यते	-11.9726
▁वाल्मीकि	-11.9726
▁विदीर्ण	-11.9726
▁विस्तीर्ण	-11.9726
▁वोइड्	-11.9726
▁शल्यचिकित्सा	-11.9726
▁श्रोतृणा	-11.9726
▁संविभक्त	-11.9726
▁संश्लिष्ट	-11.9726
▁सञ्जयः	-11.9726
▁समाविशति	-11.9726
▁सर्षपबीज	-11.9726
▁स्टॆट्	-11.9726
▁स्ट्र्याण्ड्	-11.9726
▁होस्टेल्	-11.9726
dfrac	-11.9726
iambecky	-11.9726
neha	-11.9726
stlibreoffice	-11.9726
testchown	-11.9726
इण्टर्नेट्	-11.9726
कार्बनडाइआक्साइड	-11.9726
चत्वारिंशद्	-11.9726
द्विग्ना	-11.9726
द्विचक्रिका	-11.9726
प्लेटिन	-11.9726
मन्विच्छ	-11.9726
ात्मश्लाघ	-11.9726
▁260	-11.9726
▁Point	-11.9726
▁iitb	-11.9726
▁insulin	-11.9726
▁join	-11.9726
▁transparen	-11.9726
▁अन्विषति	-11.9726
▁अष्टाध्याय्या	-11.9726
▁इन्द्रप्रस्थ	-11.9726
▁उन्माथ	-11.9726
▁दोषमारोपय	-11.9726
▁निर्मीयन्ते	-11.9726
▁पदातयश्च	-11.9726
▁परभाषाभाषण	-11.9726
▁मल्लयुद्ध	-11.9726
▁रिफ़्लेक्	-11.9726
▁लप्स्यसे	-11.9726
▁विस्मयापन्न	-11.9726
▁श्रृंखला	-11.9726
▁सञ्चाल्य	-11.9726
▁सर्वीसस्	-11.9726
▁साक्षिस्वरूप	-11.9726
▁सुसज्जिता	-11.9726
▁स्पर्द्ध	-11.9726
XML	-11.9726
stack	-11.9726
मलेरिया	-11.9726
▁अलभे	-11.9726
▁कुर्वाण	-11.9726
▁नियुज्य	-11.9726
▁निरुत्तर	-11.9726
▁मत्तथिय	-11.9726
▁वैपरीत्य	-11.9726
▁सात्यकि	-11.9726
▁सूर्योदय	-11.9726
▁हारोण	-11.9726
isomerism	-11.9726
उर्वरता	-11.9726
रीत्यनुसारेण	-11.9726
▁resol	-11.9726
▁subject	-11.9726
▁अब्रुव	-11.9726
▁इत्याज्ञापयत्	-11.9726
▁बुलेट्	-11.9726
▁मृतकल्प	-11.9726
reply	-11.9726
wheel	-11.9726
जयन्ती	-11.9726
▁Fog	-11.9726
▁heal	-11.9726
▁vecto	-11.9726
▁अन्वेषक	-11.9726
▁आविर्भव	-11.9726
▁कुर्वन्नस्ति	-11.9726
▁तमपवद	-11.9726
▁प्रीफ़िक्	-11.9726
SeqIO	-11.9726
▁अखिल	-11.9726
▁नैतिक	-11.9726
▁पादहस्तासन	-11.9726
increment	-11.9726
स्टार्ट्	-11.9726
್	-11.9726
▁अन्यदन्यद	-11.9726
▁एसिड्	-11.9726
▁ऐकोन्	-11.9726
▁ओदनं	-11.9726
▁पूछा	-11.9726
▁पौलसील	-11.9726
▁प्रज्वलति	-11.9726
ढक्का	-11.9726
▁Tag	-11.9726
▁आमाशय	-11.9726
त्रिंशद्	-11.9726
▁दुष्कृत	-11.9726
▁सम्यङ्	-11.9726
Loop	-11.9726
हितैषित	-11.9726
▁कबीर	-11.9726
preview	-11.9726
एक्टिव	-11.9726
तयोरुभयो	-11.9726
मद्यपान	-11.9726
महोदय	-11.9726
▁Notes	-11.9726
▁enroll	-11.9726
▁इत्यस्माय	-11.9726
▁कस्माच्चि	-11.9726
▁छुए	-11.9726
भिक्रियाशीला	-11.9726
▁2.7.	-11.9726
▁अवोचत्	-11.9726
▁बद्धनाति	-11.9726
दौरात्म्य	-11.9726
▁परिभ्रामयाम	-11.9726
▁महिम्न	-11.9726
संचाल	-11.9726
▁सम्भविष्यति	-11.9726
फाल्स्	-11.9726
मोबैल	-11.9726
▁खिन्न	-11.9726
With	-11.9726
▁स्नुष	-11.9726
▁क्रीडाङ्गण	-11.9726
▁नकारात्मक	-11.9726
▁निर्धारयितु	-11.9726
▁पिबति	-11.9726
व्यवसाय	-11.9726
▁निर्जनस्थान	-11.9726
▁तदुद्दे	-11.9726
▁मदन्तिक	-11.9726
▁जिन्ह	-11.9726
▁जानीयाम	-11.9726
▁आख्या	-11.9726
▁बहिरानीय	-11.9726
▁मरिच	-11.9726
पर्यायवाच	-11.9726
▁निमिष	-11.9726
▁परितोष	-11.9726
▁Rule	-11.9726
▁संजाता	-11.9726
▁निद्रया	-11.9726
▁प्रवहति	-11.9726
▁यापितवान्	-11.9726
धराधर	-11.9726
▁नमस्कुर्व्व	-11.9726
▁वक्ष्यन्ति	-11.9726
▁तुम्हार	-11.9726
▁स्पेल्	-11.9726
▁मसूर	-11.9726
▁मारितवान्	-11.9726
भिषिक्तस्त्रात	-11.9727
▁एककृत्व	-11.9727
▁ऐच्छिकपेश	-11.9727
▁निरूप्य	-11.9727
वैराग्य	-11.9727
▁निन्युः	-11.9727
Chem	-11.9727
▁धारिष्यते	-11.9727
परिश्रान्ति	-11.9727
▁दुर्लभ	-11.9727
▁प्रेशित	-11.9727
▁काञ्चिद	-11.9727
▁कियद्	-11.9727
▁शरीरसन्धीन	-11.9727
▁अनर्थक	-11.9727
▁दक्षिणफलक	-11.9727
द्रावक	-11.9727
▁पाचक	-11.9727
पित्तल	-11.9727
▁कौन्तेय	-11.9727
▁प्रत्यागन्तु	-11.9727
▁निश्चिन्वन्त	-11.9727
Mail	-11.9727
▁महाप्रान्तर	-11.9727
(*.	-11.9727
ट्विस्ट	-11.9727
निथनेल	-11.9727
शौर्य	-11.9727
▁सर्व्वमानवाना	-11.9727
सङ्ग्रहणाय	-11.9727
▁युवक	-11.9727
▁सदातन	-11.9727
ान्तर्गत	-11.9727
दिग्भ्य	-11.9727
▁हनुमत	-11.9727
विकिरण	-11.9728
▁लोजिक	-11.9728
▁कीर्तन	-11.9728
▁योषिदे	-11.9728
auto	-11.9728
ग्रन्थालयविज्ञान	-11.9728
▁एकचित्तीभू	-11.9728
करेन्सि	-11.9728
▁बाहो	-11.9728
▁अधिकांशत	-11.9728
▁सर्व्वचित्तै	-11.9728
▁ज्ञेय	-11.9728
▁लब्धवन्तस्त	-11.9728
▁रुदित	-11.9728
नेष्यन्ति	-11.9728
प्रवेक्ष्यत	-11.9728
▁मारिच	-11.9728
प्रभृति	-11.9729
▁स्नान	-11.9729
▁Make	-11.9729
▁हार्ड	-11.9729
वारोहत्	-11.9729
▁कस्याश्चि	-11.9729
▁अस्थीना	-11.9729
महार्घ	-11.9729
▁स्थगन	-11.9729
▁किंवदन्त	-11.9729
▁व्यालिड	-11.973
▁गहरा	-11.973
्टेन्षन्	-11.973
▁कारणादस्मा	-11.973
▁निर्व्वात	-11.973
अविनाशी	-11.973
▁स्तनित	-11.9731
विषाक्त	-11.9731
▁मुद्राङ्कित	-11.9731
वाण्या	-11.9731
▁योजयितुमिच्छ	-11.9731
सङ्कल्प	-11.9732
▁विलपिष्य	-11.9732
मार्ज्ज	-11.9732
▁पिहित	-11.9733
▁सीयोन	-11.9733
▁हेतोरीश्वर	-11.9733
▁क्लिय	-11.9734
▁पोर्ट्लेट	-11.9734
MenuItem	-11.9734
▁सात्विक	-11.9734
ग्रहीष्यति	-11.9734
पृष्टस	-11.9735
प्राप्त्यै	-11.9735
शूरवीर	-11.9735
निर्जीववस्तुन	-11.9735
▁अवरोधय	-11.9735
▁यासोन	-11.9736
(+)	-11.9736
▁कैश्चिद	-11.9739
वगच्छाम	-11.9739
▁नमस्करो	-11.9741
▁आदिशाम	-11.9742
▁वर्तिष्य	-11.9742
▁न्यूनीकरण	-11.9744
लिख्यन्त	-11.9751
रदर्द	-11.9752
ुपदिशन्	-11.9757
माचरन्त	-11.9757
त्तरीयवस्त्र	-11.9758
शियम	-11.976
ऽक्षय	-11.9762
▁सृष्टवस्त	-11.9763
▁सर्व्वजग	-11.9764
▁प्रक्षालित	-11.9767
▁यापयन्	-11.9779
चतुर्विंशति	-11.979
ntersect	-11.9795
▁औषधीना	-11.98
ोभूद	-11.98
र्लोभ	-11.9801
मध्येप्रान्तर	-11.9816
ुशोच	-11.9821
▁आरोपयितु	-11.9821
▁पत्राणा	-11.9828
ावलम्बिन	-11.9837
▁जीवितवस्तून	-11.9869
▁निहित	-11.9885
subcategory	-11.9887
शृणुम	-11.9959
हिताय	-11.9977
▁कार्यप्रणाल	-11.9977
▁विहरन्त	-11.9989
photograph	-12.0011
▁किन्त्वात्मन	-12.0013
▁उपकरणाना	-12.0028
▁मध्यवर्त्त	-12.0028
conc	-12.0034
व्याख्या	-12.0039
7.1	-12.0078
यितुमिच्छामि	-12.0079
नूतनोपयोक्ता	-12.011
▁शीर्षिकय	-12.0111
कोन्फ़िगरेशन्स्	-12.0118
▁सम्पादयितु	-12.0125
▁देवपूजकाना	-12.0131
▁शकुन	-12.0132
▁तर्ह्यस्माक	-12.0157
▁ईश्वरनिन्द	-12.0187
इच्छाशक्त	-12.0204
त्यक्ष्यते	-12.0218
▁भक्ताना	-12.022
सत्त्व	-12.0229
ुद्धार	-12.0229
उर्वरकाणां	-12.024
ानुभूत	-12.0253
▁मृगयध्व	-12.0263
संयुज्यमान	-12.0293
▁व्यतीत	-12.03
▁किमिच्छ	-12.0355
बह्व्य	-12.0379
च्छेदनं	-12.0427
कैल्शियम	-12.0432
भ्रष्टा	-12.0435
▁सन्निधिमागत	-12.0446
▁केन्द्रीकृत	-12.045
तस्यापराध	-12.0452
▁मन्त्राणा	-12.0471
हर्त्तु	-12.0472
क्षिपति	-12.0569
▁गृह्णा	-12.0572
उत्तिष्ठत	-12.0609
पदयुता	-12.0673
▁छिन्नत्वच	-12.068
ुपविष्ट	-12.0683
नङ्गीक	-12.0765
अनुपात	-12.082
▁संहरत	-12.0851
ublication	-12.099
इनिशियलैस्ड्	-12.107
▁connect	-12.1103
▁computer	-12.1114
▁संयोजितुमर्ह	-12.1129
▁Head	-12.1165
ह्लीत	-12.1165
प्रणाली	-12.1259
चुम्बन	-12.1265
स्थापयितु	-12.1274
▁लोकनृत्याना	-12.128
▁प्रमाणीकृत	-12.1296
attributes	-12.1322
पर्य्यनतं	-12.1387
संवाद	-12.1434
एककोशिक	-12.1457
स्मरति	-12.1474
एक्सिक्यूशन्	-12.1525
Folder	-12.1525
ड्रेग्	-12.1525
आंखें	-12.1526
स्ट्रक्चर्	-12.1526
column	-12.1526
पेरामीटर्	-12.1526
Control	-12.1526
All	-12.1526
switch	-12.1526
एण्ट्रि	-12.1527
पृथिवी	-12.1527
list	-12.1527
मेनेजर्	-12.1527
variable	-12.1527
Bank	-12.1527
महत्वपूर्ण	-12.1528
स्लैडर्	-12.1528
हैड्रोजन्	-12.1528
Apache	-12.1528
Alt	-12.1528
Patron	-12.1528
Inkscape	-12.1528
terminal	-12.1528
Serial	-12.1528
Desktop	-12.1529
आरम्भ	-12.1529
शुष्क	-12.1529
public	-12.1529
अप्लिकेशन्	-12.1529
Windows	-12.1529
बहवो	-12.1529
course	-12.1529
फोल्डर्	-12.1529
▁ऊर्ज	-12.1558
ितुमिच्छत	-12.1601
▁आरोपय	-12.1611
▁भविष्यद्वक्त	-12.1617
aggi	-12.1629
समुद्रयो	-12.1633
▁सहस्रसेनापत	-12.1666
present	-12.1685
क्षिप्ते	-12.1693
▁निर्गच्छत	-12.1694
ेश्वरभक्त	-12.1698
▁उत्थापयिष्य	-12.1715
प्रदूषित	-12.1719
▁spac	-12.172
▁चतुष्कोण	-12.1722
मुत्थित	-12.1722
वर्तयितुम्	-12.1723
लप्स्यत	-12.1724
स्ट्रिङ्	-12.1725
▁आग्रिप्प	-12.1725
ोक्यूमेण्ट्	-12.1725
pixel	-12.1726
tribute	-12.1726
ुटोरियल्	-12.1726
▁blur	-12.1726
दोलायमाना	-12.1726
पह्नोष्य	-12.1726
▁कुरीणीय	-12.1726
ान्तर्व्वर्त्त	-12.1726
ಾ	-12.1726
▁Parameter	-12.1726
▁उद्धरणचिह्न	-12.1726
▁क्लौदिय	-12.1726
▁बीजवपन	-12.1726
▁मूर्ख	-12.1726
▁लुण्ठ	-12.1726
▁शोकयुक्तीकृतस्त	-12.1726
▁संदर्भ	-12.1726
▁सुगन्धितैल	-12.1726
!!!	-12.1726
Keep	-12.1726
journal	-12.1726
केल्क्युलेटर्	-12.1726
डयलाग्	-12.1726
तंत्रिकातंत्र	-12.1726
बफर्ड्	-12.1726
श्रीमद्भगवद्गीता	-12.1726
ष्करियोतीययिहूदा	-12.1726
▁agree	-12.1726
▁इण्टि	-12.1726
▁एकात्मस्तोत्र	-12.1726
▁ऐतिहासिक	-12.1726
▁कङ्केटिनेशन्	-12.1726
▁केचिदूचु	-12.1726
▁निजसर्व्वस्व	-12.1726
▁बृहदन्त्रम	-12.1726
▁सुगंध	-12.1726
▁स्फोट	-12.1726
INKSCAPE	-12.1726
Images	-12.1726
KOHA	-12.1726
Load	-12.1726
MENT	-12.1726
Percentage	-12.1726
Starred	-12.1726
aSample	-12.1726
articipants	-12.1726
commission	-12.1726
dfcrop	-12.1726
export	-12.1726
giren	-12.1726
hadow	-12.1726
ierarchy	-12.1726
nnouncement	-12.1726
ontrast	-12.1726
oolean	-12.1726
pdflatex	-12.1726
refix	-12.1726
rientation	-12.1726
riptych	-12.1726
ubtract	-12.1726
urpose	-12.1726
उबुण्टु	-12.1726
क्रियाकलापान	-12.1726
द्यःकालीनावृत्ति	-12.1726
पेरेन्थिसिस्	-12.1726
प्राड्विवाक	-12.1726
ब्स्टिट्यूयेण्ट्	-12.1726
भुजगवंशा	-12.1726
मच्चक्रुः	-12.1726
याजकस्याट्टालिका	-12.1726
रिमूव्	-12.1726
रुणद्धि	-12.1726
ल्क्युलस्	-12.1726
श्वासोच्छ्वास	-12.1726
सङ्कीर्णता	-12.1726
सब्स्टिट्यूशन्	-12.1726
स्टीरियो	-12.1726
ाण्डर्ड्	-12.1726
ानुसन्ध	-12.1726
ोत्सर्ग	-12.1726
ोद्घाटन	-12.1726
ॐ	-12.1726
▁Descriptor	-12.1726
▁Dinesh	-12.1726
▁Discuss	-12.1726
▁Engineering	-12.1726
▁Engines	-12.1726
▁Execut	-12.1726
▁Figures	-12.1726
▁PUBLICATION	-12.1726
▁Regist	-12.1726
▁Symbol	-12.1726
▁argv	-12.1726
▁average	-12.1726
▁border	-12.1726
▁callby	-12.1726
▁declar	-12.1726
▁forward	-12.1726
▁hallow	-12.1726
▁magenta	-12.1726
▁mynewdatabase	-12.1726
▁netbeans	-12.1726
▁positi	-12.1726
▁privileges	-12.1726
▁reverse	-12.1726
▁submissions	-12.1726
▁surface	-12.1726
▁target	-12.1726
▁theorem	-12.1726
▁अचेष्टन्त	-12.1726
▁अत्वक्छेद	-12.1726
▁अनन्तकालस्थायि	-12.1726
▁असम्बद्धप्रश्न	-12.1726
▁आनुकूल्य	-12.1726
▁आयव्ययलेख्यस्य	-12.1726
▁आस्टेरिस्क्	-12.1726
▁ईश्वरीयादेशकथन	-12.1726
▁उद्धरिष्यति	-12.1726
▁एक्स्प्लोर	-12.1726
▁एतेषामुपयोग	-12.1726
▁ऑक्सीजन	-12.1726
▁क्रीत्युपद्वीप	-12.1726
▁गुणैर्युत	-12.1726
▁गृह्लीथ	-12.1726
▁ग्रन्थसूच्य	-12.1726
▁ग्रह्णात	-12.1726
▁चतुर्दिक्स्थ	-12.1726
▁छुऐं	-12.1726
▁दन्तैर्दन्त	-12.1726
▁दिदृक्ष	-12.1726
▁द्वादशवर्षवयस्क	-12.1726
▁नाबुध्यन्त	-12.1726
▁न्यवेदयन्	-12.1726
▁पञ्जीकरण	-12.1726
▁परंपरागत	-12.1726
▁परिणमते	-12.1726
▁पाञ्चजन्य	-12.1726
▁पादाङ्गुष्ठ	-12.1726
▁प्रस्रवण	-12.1726
▁प्राकाश्यत	-12.1726
▁प्राप्स्यते	-12.1726
▁प्रिव्यू	-12.1726
▁बहूत्तम	-12.1726
▁बैकस्ट्रेच	-12.1726
▁मथुरा	-12.1726
▁मर्यादा	-12.1726
▁मल्टिपल्	-12.1726
▁मूत्रवाहिनी	-12.1726
▁मृदाप्रदूषण	-12.1726
▁यर्द्दननद्या	-12.1726
▁याकूब्योहन	-12.1726
▁र्भिन्नजातीय	-12.1726
▁वव्राज	-12.1726
▁विभागविस्तरण	-12.1726
▁वीरभद्रासन	-12.1726
▁व्यवकलन	-12.1726
▁शीर्ण	-12.1726
▁शृणोषि	-12.1726
▁श्रीगणेश	-12.1726
▁संकुचित	-12.1726
▁संश्रोतुमिच्छथ	-12.1726
▁सञ्चालन	-12.1726
▁सम्भाष्यावदत्	-12.1726
▁सरस्वती	-12.1726
▁सवेर्षा	-12.1726
▁सिग्नेचर्	-12.1726
▁सेल्सियस्	-12.1726
▁सौरोर्जा	-12.1726
Address	-12.1726
Backward	-12.1726
transcribe	-12.1726
निर्व्वाणवह्न	-12.1726
प्रभुयीशुख्रीष्ट	-12.1726
लप्स्यथ	-12.1726
स्टेट्मेन्ट्	-12.1726
ुत्सृज	-12.1726
ेनोदेतव्यं	-12.1726
ैश्वर्य्य	-12.1726
▁Compiler	-12.1726
▁axis	-12.1726
▁paper	-12.1726
▁progress	-12.1726
▁अचकथं	-12.1726
▁अधिकविवर्णार्थ	-12.1726
▁अभूवन्	-12.1726
▁अवशोषण	-12.1726
▁आङ्ग्ल	-12.1726
▁इण्डॆक्स्	-12.1726
▁ऊष्ण	-12.1726
▁कुञ्जिका	-12.1726
▁गणकयन्त्र	-12.1726
▁चपेटाघात	-12.1726
▁ताडयिष्यन्ति	-12.1726
▁त्वमुत्तिष्ठ	-12.1726
▁दीपावली	-12.1726
▁दृढीकरोतु	-12.1726
▁पुनर्जीवित	-12.1726
▁पैतृक	-12.1726
▁प्रसववेदन	-12.1726
▁प्रीव्यू	-12.1726
▁भोजनपात्राणाञ्च	-12.1726
▁यावज्जीव	-12.1726
▁युष्मद्देश	-12.1726
▁रीसेट्	-12.1726
▁रुक्मिण	-12.1726
▁विवरीतुं	-12.1726
▁विश्राणय	-12.1726
▁विश्वसिषि	-12.1726
▁वीथी	-12.1726
▁शोकाकुल	-12.1726
▁सेकेंड	-12.1726
▁स्लैस्	-12.1726
▁स्वमुन्नम	-12.1726
▁१२	-12.1726
Defini	-12.1726
Special	-12.1726
becky	-12.1726
constant	-12.1726
नागार्जुन	-12.1726
भुंज्मह	-12.1726
ोपयुज्य	-12.1726
▁Debugger	-12.1726
▁Edge	-12.1726
▁Micro	-12.1726
▁SUB	-12.1726
▁exist	-12.1726
▁librari	-12.1726
▁phone	-12.1726
▁आपृच्छत	-12.1726
▁उत्पद्यते	-12.1726
▁एतच्चित्र	-12.1726
▁एन्रोल्	-12.1726
▁कृष्णलोहितव	-12.1726
ವ	-12.1726
|	-12.4031
ಜ	-12.4226
ಸ	-12.4226
°	-12.7559
ॅ	-13.0587
•	-13.2361
́	-13.2559
ॊ	-13.2559
›	-13.2559
६	-13.256
ಪ	-13.256
ೇ	-13.256
ऎ	-14.2556
`	-14.2557
ರ	-14.2558
ळ	-14.2559
¬	-14.2559
^	-14.2559
~	-14.2559
Ç	-14.2559
×	-14.2559
Ÿ	-14.2559
μ	-14.2559
॰	-14.2559
ಅ	-14.2559
ಥ	-14.2559
೦	-14.2559
⁄	-14.2559
₹	-14.2559
	-14.2559
ञ	-14.256
॑	-14.256
‍	-14.256
